memory_initialization_radix=10;
memory_initialization_vector=
-1222,
-518,
1418,
2345,
-873,
2629,
5770,
1794,
3475,
3502,
-4290,
-107,
1528,
2472,
-2702,
-3501,
-4424,
-705,
591,
-3413,
7338,
1812,
2368,
97,
2941,
1428,
-820,
-3533,
733,
263,
-5267,
-5290,
-4700,
-2511,
3373,
-4890,
-3971,
-4195,
2498,
596,
398,
-709,
333,
-1820,
4363,
-2023,
1231,
502,
1236,
1860,
-5098,
-6367,
-3740,
-5822,
-775,
2670,
-2073,
-1273,
1645,
2298,
11785,
13609,
10108,
5055,
5075,
-4474,
386,
4121,
2645,
-264,
-7350,
-6566,
-4716,
3703,
1822,
-514,
-2446,
-868,
-1791,
-2372,
3203,
5635,
7796,
2938,
3308,
-7468,
-1777,
2640,
-1182,
577,
-13450,
-9031,
-6219,
-1037,
-271,
-686,
-2619,
3785,
-1263,
-1349,
-2248,
-6009,
-3485,
-2820,
-2187,
16901,
10376,
3582,
2144,
464,
1296,
6752,
3757,
-6,
-5372,
-10300,
-8587,
-664,
-5156,
-5887,
-2491,
-2044,
-2383,
-3422,
-2673,
4082,
2021,
3776,
-1810,
2203,
-654,
2479,
-1420,
-1947,
-2728,
1709,
-1361,
-3172,
1114,
1488,
-3651,
-400,
-1358,
-2722,
13,
-1664,
-3340,
1732,
1678,
1187,
1078,
2987,
645,
324,
1386,
-2744,
-1539,
-1047,
-2150,
-4952,
-3090,
-4131,
1862,
4548,
889,
-266,
-4977,
-6946,
2836,
-1007,
3205,
8900,
2041,
-3418,
-1729,
538,
418,
-686,
-1080,
1217,
-159,
-1994,
-2797,
-6976,
-7508,
3145,
-1858,
-8730,
-9698,
-5392,
1493,
2175,
-6365,
-9254,
-3200,
1933,
-887,
-1441,
-412,
1534,
1688,
-5385,
-6397,
2821,
8106,
3684,
508,
-5138,
-7231,
1886,
-272,
1320,
704,
-2284,
-3042,
-1656,
-3090,
154,
2415,
815,
-1496,
-801,
-5078,
356,
-342,
4094,
924,
2140,
-4183,
-3194,
145,
1532,
2000,
-4349,
-8477,
-1180,
-1924,
4085,
207,
-6770,
-7243,
-7332,
-2203,
5509,
-5665,
732,
-895,
-6785,
4804,
-737,
2838,
962,
675,
-7051,
-4806,
404,
2176,
14138,
9928,
-9654,
-4361,
-2944,
9877,
28409,
4317,
-5646,
-7701,
-10747,
7104,
17693,
-3810,
-1390,
-11887,
-9724,
4864,
1790,
1181,
2379,
2332,
667,
-2432,
-2798,
328,
2916,
2871,
1657,
-596,
-1409,
263,
2739,
-1793,
-2245,
-791,
957,
354,
-1212,
209,
823,
-3275,
-2437,
-1167,
1396,
-1704,
-2053,
-2835,
2079,
-356,
-4749,
-4845,
-3593,
3346,
-3112,
-6707,
-2219,
603,
-2685,
-4731,
436,
426,
3869,
-1085,
626,
1050,
3990,
2138,
-3764,
-2490,
-2873,
-61,
-2089,
-2320,
-2316,
5916,
5343,
-966,
378,
2987,
7379,
3536,
-333,
-1324,
7445,
2903,
-1737,
-1947,
1141,
888,
826,
-1905,
-2555,
2473,
-4240,
-3170,
2400,
2354,
-3834,
-712,
3121,
1196,
-6609,
-4008,
4787,
259,
-9225,
-4495,
-1106,
1364,
-2643,
-4934,
577,
-4156,
-3809,
-6033,
-6014,
-2659,
-7672,
5230,
5945,
347,
-5784,
2775,
12400,
-910,
-6678,
-5194,
10248,
10960,
-10723,
-5222,
280,
7359,
-1287,
-10609,
3860,
2759,
68,
-4446,
2164,
6442,
6021,
-1610,
459,
3608,
-5910,
-6326,
-2878,
1363,
-1945,
-3420,
-4831,
-4207,
-243,
-842,
-8318,
-2195,
-68,
3756,
-7643,
-4178,
2178,
2963,
2073,
-3120,
1282,
2582,
1241,
-891,
1929,
50,
853,
1008,
1752,
3465,
-553,
-1691,
823,
5251,
-17,
-2374,
-856,
2086,
-496,
909,
887,
186,
-823,
2445,
-1803,
-1700,
-1347,
3006,
-160,
-4599,
-4979,
-1471,
3685,
-3088,
-6362,
-3503,
1583,
1350,
-776,
-5507,
-2033,
-4512,
-1399,
893,
-514,
-4971,
-1022,
-2864,
1221,
-4062,
-3086,
169,
-2010,
748,
-2312,
1976,
-399,
-32,
-360,
4616,
-2072,
1613,
-1093,
2822,
3943,
-2817,
1263,
2638,
598,
-81,
-589,
98,
-863,
-1471,
1104,
2891,
-2649,
1647,
-428,
-562,
-1598,
-4991,
2755,
4164,
-2084,
-8259,
-9245,
3458,
387,
-5081,
-9638,
-8645,
7667,
3471,
-5449,
-6998,
-5911,
-1315,
-2841,
-2597,
-4683,
-3807,
2314,
760,
-139,
4896,
8435,
6177,
711,
-6903,
6750,
10037,
4800,
-3669,
-3926,
9267,
5628,
613,
-1407,
2203,
7428,
367,
1653,
1287,
1905,
1236,
-3743,
669,
2369,
-6342,
-4650,
3496,
1711,
2672,
-4842,
-4692,
1839,
-1920,
-1876,
-5807,
-7516,
4558,
-2735,
-2136,
-4689,
-2680,
7539,
-1691,
-564,
-5426,
-216,
-453,
260,
-1214,
-1004,
1631,
1165,
-2592,
-37,
-2878,
-2134,
4146,
-1752,
-145,
-3082,
-1174,
815,
1358,
139,
2084,
1855,
1843,
2578,
-1438,
-1021,
520,
431;
