memory_initialization_radix=10;
memory_initialization_vector=
2017,
192,
-2387,
-4236,
-5647,
-553,
-744,
-3881,
5174,
6555,
-4087,
1500,
5579,
7436,
-341,
2507,
243,
2827,
-4511,
-52,
561,
-2236,
-4766,
137,
7748,
2186,
-1926,
1165,
-3643,
-2012,
-1173,
171,
2670,
747,
362,
691,
3514,
1198,
-1046,
-140,
-1483,
-1860,
-2429,
-2255,
-1918,
2477,
-134,
-1142,
590,
562,
1135,
-1859,
1806,
3916,
3779,
461,
-73,
2157,
-3661,
-4665,
-3409,
-3100,
-2208,
2047,
10111,
-2386,
-3961,
1740,
5381,
5806,
1310,
-1857,
3581,
535,
-1837,
-4691,
-4108,
-5986,
-6692,
-2953,
-1787,
-5813,
-6493,
158,
-1709,
-1526,
-3311,
1226,
4001,
4984,
-2797,
-1816,
4228,
-415,
-4036,
2737,
3762,
-3295,
-7998,
-244,
1704,
98,
-5308,
-9214,
-6012,
-3555,
-1565,
-4883,
1526,
2517,
-4991,
-3707,
1232,
1184,
1240,
-3594,
-1534,
-2567,
-630,
3005,
32,
1773,
-1280,
2212,
74,
-2282,
2265,
-1600,
-2136,
-43,
-37,
-1655,
344,
-2005,
-2383,
-669,
-1425,
-1862,
3150,
-425,
-2018,
-698,
3732,
3243,
2204,
-2214,
383,
2004,
-2996,
1034,
-4,
-4240,
-4355,
-1645,
3406,
-3006,
-4911,
-394,
1413,
4274,
-137,
-1177,
-4403,
-666,
-2697,
-1912,
132,
-380,
-979,
-1801,
1944,
4830,
5014,
4165,
4095,
-966,
3083,
-314,
2901,
-111,
371,
3234,
-849,
2928,
-347,
5802,
76,
-162,
-2028,
1184,
3711,
-236,
-468,
663,
-2271,
2657,
428,
810,
-3424,
304,
-2269,
2679,
-2819,
1497,
-1709,
542,
2891,
-2935,
490,
-1671,
-41,
-1931,
-3372,
-1108,
2883,
-1983,
-1786,
-3464,
-3824,
-2495,
2214,
-2139,
702,
-927,
-5611,
6398,
-1348,
-60,
3596,
7461,
302,
-3859,
-2606,
-735,
3599,
-4564,
-1351,
-5013,
-2299,
2075,
-3875,
-338,
-3098,
-7193,
-4919,
-841,
3383,
3469,
-1972,
920,
1364,
2126,
-111,
-928,
-88,
3483,
1900,
-4599,
-3018,
3896,
2330,
-2650,
-4768,
-1652,
862,
-4212,
-1811,
-1113,
-970,
-6918,
-606,
6034,
6634,
4483,
3512,
-177,
-1655,
-2089,
-910,
423,
-754,
-512,
-1434,
1459,
-1869,
547,
2004,
1653,
-1514,
630,
-2095,
349,
-549,
-3280,
-53,
-2335,
1119,
-354,
-2908,
1771,
-2197,
-5076,
-422,
4814,
-3362,
-702,
-970,
5066,
3666,
-4640,
-1146,
-2673,
3342,
-2435,
-2590,
-2552,
-5338,
1087,
-1919,
-1854,
59,
-1847,
582,
1289,
-880,
153,
2419,
1216,
2040,
1075,
1560,
4113,
3078,
-1123,
1616,
-188,
3917,
3317,
-1135,
7998,
2636,
4452,
-3055,
5083,
6754,
865,
2297,
2487,
2381,
-616,
-81,
737,
130,
-3808,
-467,
1074,
-921,
-5282,
-3462,
6605,
-3643,
-1559,
-7967,
359,
-776,
-2160,
-4720,
-4011,
-3928,
-3395,
-1736,
-4247,
-6406,
-1900,
-4189,
245,
-562,
-4586,
4155,
2042,
-831,
-6101,
6490,
6071,
-6824,
-5916,
-2548,
11503,
5422,
-11016,
-7787,
-1716,
9423,
-1738,
-3386,
-640,
-1134,
7514,
-3756,
-3783,
514,
-4831,
-2185,
-3431,
-1575,
464,
-6585,
-3842,
459,
-3472,
371,
-8064,
-2448,
3774,
-3764,
-1581,
-7981,
-270,
11009,
-6045,
1453,
-4675,
-1402,
9686,
-4656,
1273,
-2431,
2204,
1729,
-1199,
-1531,
1482,
473,
3777,
2076,
-1608,
-720,
4807,
5947,
186,
-1605,
-1051,
2188,
49,
-322,
887,
1469,
724,
2173,
1764,
-711,
-2783,
-1084,
2621,
2242,
1130,
-3648,
-1065,
1322,
4189,
3782,
-938,
-805,
1674,
-1799,
-539,
-4597,
-5017,
955,
25,
-3682,
-399,
-59,
-925,
-3783,
-3256,
-358,
-585,
-2211,
123,
-44,
-2071,
-2569,
-2286,
1376,
-3093,
-1956,
1353,
-2849,
2454,
-1846,
-459,
-954,
-1031,
1216,
913,
-580,
-3921,
-980,
2186,
-867,
156,
604,
-970,
-1158,
-1451,
833,
-5969,
-8476,
-2278,
997,
2393,
-6635,
-9581,
-1474,
4684,
3476,
-4798,
-3740,
268,
88,
-4756,
-1980,
-1070,
-1186,
-3114,
431,
-1661,
82,
-910,
-4045,
-1844,
3178,
7621,
-990,
2939,
-4124,
3560,
11409,
-3069,
-1663,
-4996,
5997,
9074,
-8383,
-1533,
-3448,
4047,
4709,
-8553,
-2903,
-829,
-1143,
3309,
-1033,
1045,
-5349,
-5845,
3062,
2820,
9983,
-956,
-4440,
404,
4747,
3460,
-292,
-3480,
4851,
3371,
-1691,
-6103,
-2881,
5161,
2736,
-697,
414,
-2402,
-382,
1574,
543,
-219,
-859,
-405,
2832,
1685,
-1777,
1291,
999,
2402,
-2407,
1105,
-416,
2654,
2376,
780,
638,
2881,
-1219,
-1733;
