memory_initialization_radix=10;
memory_initialization_vector=
3010,
-373,
11601,
-7768,
-16,
-3415,
3165,
9708,
4352,
-6685,
-4390,
3623,
-2943,
-480,
-5769,
-11454,
4436,
-7900,
-2303,
-5349,
1109,
-6298,
12228,
4060,
-1699,
-1003,
4123,
5617,
-4649,
-2417,
5173,
4042,
736,
3538,
-787,
-4447,
-1765,
1880,
-5348,
-10441,
-7741,
7713,
-5761,
2883,
4110,
-5252,
-2211,
8928,
98,
-524,
8303,
12212,
-2881,
-1331,
-8704,
9850,
-3112,
6281,
-2878,
5785,
-2257,
-2214,
-4702,
3741,
-1708,
1593,
22,
-561,
-1812,
-2768,
5908,
14155,
1390,
-5433,
-5441,
241,
3454,
-132,
6513,
-1614,
-7496,
-8690,
-3698,
4479,
11525,
586,
2080,
-10460,
-4961,
781,
426,
-8243,
3619,
6658,
-3042,
1730,
4621,
3138,
12055,
-8578,
2152,
-10793,
-3145,
1074,
-1338,
-10579,
-9094,
-6211,
-7854,
1847,
-1422,
1998,
-4213,
-4202,
2960,
-5408,
4821,
2886,
12982,
6664,
-3052,
-4683,
-3999,
4377,
-5324,
1160,
10822,
4650,
-491,
-3685,
5800,
-3462,
4619,
-4900,
6099,
-1674,
1402,
-4550,
5571,
7678,
-7252,
3555,
-5393,
4429,
9699,
1575,
2561,
-4538,
-3524,
-2284,
-2770,
5196,
-5349,
-5678,
4266,
-2278,
-1928,
12056,
-3446,
2439,
-503,
3015,
-7974,
907,
2296,
-6641,
4694,
1128;
