memory_initialization_radix=10;
memory_initialization_vector=
-6066,
1712,
4479,
5148,
8222,
1161,
2897,
-81,
1428,
804,
-9066,
2686,
7651,
9235,
6097,
-8425,
-7992,
9926,
-512,
-3042,
2585,
-6370,
-4842,
-3558,
-8082,
-450,
12566,
5874,
7820,
2947,
4239,
2718,
-4494,
-3077,
10228,
-6481,
1285,
-2390,
-866,
501,
-8323,
-2002,
-6559,
-5455,
5455,
2656,
-1318,
-6193,
6916,
4967,
4337,
675,
961,
581,
2529,
-10968,
7676,
122,
-2848,
8592,
-10278,
3418,
-3012,
-4529,
2340,
-914,
-3316,
-4940,
-2962,
6248,
-1325,
-1987,
-732,
-7183,
-3928,
-3046,
12006,
-770,
-588,
-4174,
-747,
-3385,
10754,
6760,
-1313,
218,
1019,
-2928,
-3835,
1693,
1941,
2661,
-2639,
-1886,
9343,
-2322,
-7424,
-4090,
-4511,
16035,
-6840,
16212,
-4297,
235,
1982,
82,
-2545,
2900,
16645,
-1376,
-9042,
-8227,
1087,
5814,
-4975,
-1019,
-6071,
-2801,
878,
-2335,
-618,
-2444,
-2435,
-4866,
4676,
-7334,
-11767,
-4739,
-4019,
5674,
-9909,
-3061,
-5689,
-2694,
-2422,
-3881,
-4200,
567,
-5722,
-6157,
4409,
-3810,
5878,
71,
-5640,
-7618,
4372,
-2932,
2046,
-1324,
-1642,
-2182,
-6943,
7130,
5324,
-6182,
2040,
2945,
8180,
-3110,
1441,
-4061,
6086,
476,
1106,
4655,
-2217,
-54;
