memory_initialization_radix=10;
memory_initialization_vector=
1858,
1080,
-1827,
-377,
-3363,
4805,
-2044,
-4193,
-3932,
-11206,
-756,
-1405,
1683,
-934,
-7392,
1649,
7596,
2030,
5035,
1972,
1305,
-18,
-3175,
-4215,
-411,
1504,
-13,
2047,
4162,
2202,
1989,
-2725,
1946,
1746,
19,
-2019,
-1163,
332,
-1900,
1242,
-1575,
-5330,
-2053,
-4079,
-2359,
-4505,
-4713,
-4278,
-3047,
-2585,
-6683,
-7757,
159,
2276,
4205,
-6948,
494,
2960,
771,
915,
3421,
3925,
819,
-3765,
-6334,
-833,
2894,
8475,
1773,
-6772,
1403,
2291,
3991,
1961,
2179,
-2316,
-3250,
582,
-728,
5063,
3516,
-2441,
-9181,
-6160,
-5602,
998,
-1422,
-1978,
-435,
-11162,
628,
2439,
3763,
3666,
-5825,
-1354,
-840,
2336,
3130,
-926,
577,
-576,
-6291,
-5048,
-1141,
1470,
-1576,
-3791,
-7296,
-11634,
5261,
2737,
1913,
3161,
-7121,
4237,
2861,
8700,
11366,
10562,
-767,
2368,
-3361,
-1354,
12401,
2261,
263,
960,
-951,
1553,
1263,
3032,
-1268,
-114,
635,
-139,
-561,
349,
1103,
-2024,
-2255,
-2443,
-2545,
957,
-3015,
-217,
14,
-1818,
-682,
-3461,
-3070,
519,
-1677,
98,
99,
-5413,
-4112,
-7632,
-7867,
-3242,
-2920,
1503,
937,
4451,
4350,
3200,
6637,
7559,
5451,
-1336,
-1279,
-2349,
2072,
-4377,
-4044,
1684,
2605,
218,
-1032,
-2037,
-93,
2210,
751,
-1423,
646,
-783,
-1973,
-1106,
-680,
1274,
-41,
-1560,
-1800,
-3955,
-1345,
-2711,
-999,
-1321,
-2062,
-201,
556,
528,
-2092,
-681,
5999,
5383,
3716,
6648,
10790,
5879,
571,
-934,
-5236,
-7324,
-5272,
-4683,
-2397,
-2950,
6008,
5724,
-1294,
877,
2325,
2157,
103,
-1718,
-1387,
3040,
4982,
2971,
-7258,
-9678,
-8272,
-4439,
-4843,
-6799,
-9661,
-8465,
-3407,
-380,
1578,
2924,
5754,
7482,
2058,
-140,
6354,
6418,
-251,
-7626,
1433,
1500,
-2151,
3378,
-162,
-5215,
-1021,
-7495,
-8170,
-1674,
-7986,
-7531,
-1666,
-4437,
1160,
-343,
2079,
3282,
316,
-1561,
-1259,
2329,
4524,
4186,
3129,
-1221,
-1696,
-1770,
-236,
-144,
-1639,
-1601,
151,
-1693,
955,
-2884,
-3294,
524,
-3284,
-1155,
2420,
-2027,
403,
2835,
743,
1890,
2673,
1074,
677,
-2158,
707,
5123,
3112,
-92,
1324,
877,
-1943,
-4612,
-4803,
-2623,
-3543,
-657,
-919,
-2939,
-503,
-1515,
1413,
2429,
-736,
-3671,
-1236,
2935,
530,
-1950,
-883,
-2756,
477,
-2369,
-149,
-2742,
-2394,
-1930,
3303,
2716,
-1792,
-2948,
-2602,
-2062,
717,
-2690,
844,
303,
-4046,
-3499,
-3316,
-1848,
-3836,
1792,
1071,
1483,
-4752,
-638,
-2058,
4264,
-524,
3792,
5177,
6028,
5247,
552,
2840,
-757,
-180,
-2033,
2185,
-1271,
-895,
-3692,
-556,
-1236,
-828,
1268,
1565,
-191,
-892,
4131,
5980,
737,
-86,
152,
4926,
2832,
-3440,
-1295,
-2627,
-1362,
-4081,
-5857,
-6465,
-3562,
-3267,
349,
-656,
-3392,
-4891,
-1417,
753,
2560,
-3579,
-1328,
6384,
2153,
1683,
1055,
2003,
4698,
-3733,
-843,
-1893,
-1713,
515,
-966,
-3493,
-6845,
-5731,
-3261,
-528,
442,
-2456,
-5016,
-2438,
178,
5254,
-258,
-4353,
-1482,
-1224,
-2669,
-1739,
-1635,
-1935,
-17,
996,
-2704,
656,
-656,
1334,
414,
-3009,
344,
1001,
1830,
-904,
-1873,
-369,
696,
1551,
-861,
-2652,
817,
72,
-777,
3097,
2489,
-2490,
-4764,
-4476,
2961,
-4076,
-3253,
-2158,
-1081,
-723,
-4301,
631,
-3753,
-1322,
3363,
2450,
611,
-792,
-3815,
136,
-1540,
-1476,
215,
-1352,
-1484,
-654,
-2007,
-1787,
-1056,
-252,
1661,
3546,
1018,
770,
290,
1667,
3109,
-889,
-1150,
-2195,
1437,
-699,
1894,
-901,
-1910,
-1285,
-4723,
-2034,
-944,
-1856,
1876,
3869,
-1030,
-4435,
-7861,
-4120,
5727,
-6582,
-5486,
-4319,
-4832,
-602,
3328,
-267,
2615,
-154,
693,
-2478,
-4004,
-662,
-3288,
2055,
-838,
3810,
1410,
-2671,
-4587,
-2694,
5256,
8742,
-1542,
-9168,
-4339,
4877,
10104,
-5879,
-4405,
-3446,
2793,
9077,
-8125,
-4332,
669,
-720,
1317,
-751,
-4000,
-2661,
2113,
1853,
-6,
-1479,
-5811,
-3090,
6096,
1400,
-6957,
-9292,
-6416,
5232,
7544,
-8908,
-5980,
-3907,
9166,
8973,
-5140,
-5371,
-6229,
1826,
6048,
-1973,
1655,
-2563,
2169,
1086,
2036,
-2866,
582,
-1130,
-795,
-2012,
-2103,
532,
-1570,
1911,
1532,
-1345,
-2292,
-1157,
-905,
1581,
-969,
-2228,
1632,
743,
2548;
