memory_initialization_radix=10;
memory_initialization_vector=
-1142,
1325,
2619,
-2370,
-2849,
-1623,
2349,
-1263,
2072,
-2594,
-1954,
-2078,
2011,
-1237,
-768,
1977,
1447,
858,
-1827,
1149,
1095,
1418,
1751,
-210,
1057,
-2258,
391,
-2372,
1711,
1708,
1034,
-2199,
-2077,
1138,
484,
-862,
882,
1913,
1355,
883,
2116,
-824,
-1403,
-2671,
-654,
39,
-2567,
-457,
-2230,
-3154,
2614,
-2183,
1088,
-372,
-2879,
291,
-2007,
-1559,
-1327,
-673,
-524,
1320,
2904,
485,
-2817,
-1532,
2372,
129,
-29,
-2604,
684,
-1617,
2377,
-1237,
1382,
-2929,
-968,
374,
-2219,
2963,
-2975,
-422,
1522,
-3137,
-2998,
-2100,
-2695,
10,
729,
-2476,
-1528,
1982,
-476,
870,
-2939,
-1554,
-689,
1853,
1888,
-1240,
-1110,
-2472,
265,
693,
51,
417,
267,
-2672,
-2064,
712,
-162,
1352,
-1864,
-1187,
577,
-1618,
808,
-2992,
-109,
194,
4,
-1233,
1984,
-1135,
1490,
1536,
85,
-1406,
1498,
-866,
1911,
-1055,
-2413,
-155,
-909,
-55,
-2628,
-543,
-2789,
2554,
-1942,
2762,
2618,
1183,
-692,
1256,
2192,
-92,
-348,
1713,
-262,
327,
-566,
-2205,
2135,
1004,
1285,
1735,
-213,
2126,
-1351,
-507,
-1539,
-105,
-2462,
2512,
-2311,
1505,
-850,
1488,
-387,
251,
1918,
-2612,
-1572,
693,
886,
2437,
-2588,
2717,
1436,
-749,
-2726,
-1049,
579,
-859,
2923,
-2578,
1135,
-824,
-1073,
1691,
4,
-2178,
-2845,
-673,
-8,
-1800,
-1596,
2181,
789,
-2243,
373,
-1848,
-2290,
-1655,
2556,
-564,
1911,
382,
-1047,
-2511,
1020,
1198,
-369,
-3190,
995,
-1821,
-2097,
-2381,
-762,
-1400,
1620,
1147,
184,
-2609,
-2349,
675,
-392,
276,
-1882,
-3001,
1998,
-734,
1565,
-1626,
-190,
-2585,
550,
-2554,
1148,
-2502,
-4618,
1214,
509,
-2189,
3123,
2632,
4510,
1969,
2386,
2035,
830,
2416,
221,
3075,
-555,
-1862,
2846,
2385,
-1645,
1675,
-1294,
3747,
-1099,
997,
3308,
1373,
1350,
-4135,
2330,
2017,
981,
2732,
-272,
1897,
-3643,
-999,
-920,
-271,
1827,
944,
2675,
-2028,
-887,
-963,
1875,
-1886,
240,
176,
1,
-1579,
-2844,
-1947,
-1537,
1486,
-2829,
2245,
344,
-2968,
-3130,
-3064,
1663,
304,
-1738,
-2808,
1241,
1064,
3793,
3356,
-758,
-2137,
-2854,
2050,
1930,
-3645,
2679,
3580,
663,
2388,
-1559,
842,
-2718,
-61,
-387,
546,
1904,
2734,
1247,
1046,
-1736,
178,
-1736,
447,
-2027,
-3392,
3563,
-1186,
-354,
-1517,
-396,
1554,
-1130,
2991,
-1849,
2257,
-2655,
2582,
-1555,
2351,
-2757,
-2419,
-3068,
-632,
-31,
2158,
2365,
2942,
1338,
-1122,
1063,
-2610,
-1150,
-1012,
3845,
-2913,
1760,
-2072,
391,
-1330,
263,
2603,
208,
2389,
2070,
-1422,
2466,
3489,
5043,
-489,
-1235,
-874,
2389,
779,
-1468,
1504,
3212,
-5841,
-1414,
1838,
48,
1049,
1068,
3383,
-1366,
595,
-1170,
-371,
-1896,
-5590,
2874,
-2092,
3469,
-1534,
683,
3152,
4755,
955,
-2127,
2141,
1851,
-2777,
-2190,
-3004,
2260,
-2687,
-270,
993,
2514,
475,
4361,
289,
3205,
3502,
3783,
-1396,
5024,
3295,
-1135,
945,
3463,
-2845,
-385,
4923,
-1181,
-949,
1962,
-3189,
-2629,
1340,
-4270,
-912,
-3162,
3007,
-886,
30,
1223,
761,
2354,
-1022,
-94,
-1744,
-2056,
-150,
4283,
-2034,
748,
550,
2065,
354,
96,
1741,
1288,
2443,
-1974,
-2925,
5918,
838,
805,
-763,
-1213,
2678,
-1868,
-5019,
-1082,
-323,
-2031,
-100,
-725,
4582,
-2463,
-2726,
-4226,
3029,
3913,
3317,
857,
-4328,
332,
-3981,
-2302,
1479,
-9351,
1010,
945,
1260,
-1060,
2016,
5373,
1997,
-2335,
-2731,
-1743,
4188,
-1856,
3713,
6519,
1645,
-1534,
-1639,
117,
-5332,
-2701,
-790,
-1899,
4472,
-5394,
806,
8228,
-1107,
-3592,
-5077,
-1958,
-1320,
-5290,
2257,
2393,
-544,
2145,
571,
1201,
1661,
-6566,
-2838,
5288,
-2134,
413,
2726,
-63,
-855,
-2438,
2358,
-804,
2969,
1806,
-835,
-15,
-2458,
-902,
123,
-1416,
58,
-1538,
-970,
-2603,
-5659,
-1754,
2002,
-756,
4253,
793,
-2723,
52,
2470,
701,
-2867,
4218,
855,
579,
-6686,
-2021,
1067,
-4312,
9069,
2194,
-846,
8569,
-3680,
-963,
-4110,
-2217,
1635,
3299,
-2054,
-2503,
-299,
1643,
4072,
872,
650,
-2452,
2825,
631,
4227,
-4275,
1180,
96,
-1291,
1939,
3592,
-2200,
3309,
6296,
1913,
207,
-433,
-3177,
-3825,
-4000,
1593,
2987,
3342,
2717,
-2369,
-1568,
4803,
-3484,
-2128,
4315,
973,
2318,
-599,
-524,
-5019,
3827,
859,
1018,
-2400,
617,
1789,
2055,
-1635,
-3213,
-2154,
-4844,
-2054,
3645,
-438,
-6428,
1512,
1548,
3673,
2471,
-2709,
3553,
-785,
2798,
-7705,
-1274,
2224,
-3196,
2590,
4706,
189,
-4789,
723,
6421,
-3803,
3419,
-6743,
776,
-5817,
795,
4082,
-2357,
-3784,
3348,
2840,
246,
-5210,
-1633,
-1490,
675,
-1706,
-3907,
-4590,
-951,
-7834,
3367,
589,
3472,
-2912,
-3110,
431,
-246,
-1486,
615,
-716,
1754,
3548,
2139,
1671,
1724,
1200,
2423,
-3814,
-7125,
6114,
523,
4476,
-6736,
-682,
-4961,
6082,
-112,
816,
1700,
-1221,
2187,
-2352,
2817,
3345,
2798,
-1376,
2527,
419,
-5550,
3405,
1760,
280,
-1978,
1591,
3036,
2501,
1635,
-714,
-52,
76,
-720,
-717,
1064,
-2690,
1150,
564,
955,
-1715,
-162,
-2096,
1444,
879,
-1115,
-568,
-2659,
2845,
-2012,
1094,
-2720,
658,
-2381,
2437,
1315,
-2900,
-2129,
-757,
1682,
56,
1363,
-210,
-2209,
-962,
-839,
1416,
176,
2186,
-1386,
-1930,
2661,
-947,
-527,
1664,
464,
369,
-2495,
1684,
2225,
2707,
1673,
2307,
1235,
2714,
-2033,
2906,
-2445,
-1809,
283,
242,
57,
2456,
2508,
-2273,
2712,
2327,
2027,
-1066,
1861,
2647,
1233,
-1728,
-2566,
-1451,
1613,
-610,
-2226,
-2736,
-1380,
-1318,
2294,
-1656,
-3589,
1239,
2175,
-1989,
-10,
32,
-2887,
-2231,
-1528,
-203,
-1972,
-2615,
592,
605,
-2220,
-599,
-1877,
-464,
-2212,
2824,
-1711,
232,
3054,
-1300,
918,
2201,
357,
-2120,
-810,
-2060,
1649,
2215,
2043,
4240,
-785,
663,
404,
3362,
2651,
-1766,
-1151,
-1739,
365,
734,
-1977,
-1768,
-3013,
-1558,
2285,
-833,
2234,
-210,
1219,
-296,
980,
-1152,
-588,
-2934,
1970,
3156,
1949,
3284,
1525,
-1540,
-985,
-2797,
-3034,
2972,
-1404,
-1447,
-511,
1851,
-2922,
840,
189,
-2744,
-1703,
-2176,
-795,
3913,
-107,
1479,
1232,
-3160,
1829,
1691,
3620,
-118,
-172,
-627,
-2386,
-808,
-2873,
883,
-37,
3295,
261,
3810,
2594,
2965,
-953,
-2804,
1293,
-2620,
1110,
524,
1536,
1560,
3276,
2824,
-4438,
1404,
-1040,
410,
-844,
-1187,
-1367,
-2111,
672,
-842,
-4142,
789,
2464,
-2012,
-2665,
3352,
2068,
-2196,
638,
930,
1829,
-2687,
702,
2922,
-2212,
-541,
53,
1547,
-1961,
4768,
1360,
-1401,
-357,
88,
1739,
-1081,
1108,
2542,
-1166,
-2114,
-1610,
-687,
-1891,
2024,
1758,
2224,
1432,
-793,
-961,
-31,
-811,
379,
-2116,
-1331,
1118,
-2517,
394,
-2364,
1007,
780,
-2121,
-664,
937,
-275,
-380,
-2008,
-2741,
2129,
-1871,
-1275,
-2601,
740,
-863,
256,
-1698,
1427,
-2849,
-2607,
2025,
-350,
-1777,
560,
-762,
1174,
3421,
-1652,
-2094,
1771,
2203,
1690,
1822,
2654,
854,
-1988,
579,
-2694,
2453,
-1339,
2752,
-2537,
-901,
-2471,
-2014,
3135,
2392,
1783,
-948,
-2489,
1648,
-3398,
-2523,
-1265,
2273,
1524,
-245,
570,
1709,
-2968,
-1251,
-1613,
3632,
827,
555,
-3004,
1687,
-2607,
1008,
588,
-1466,
-206,
-2552,
-1847,
-2264,
1155,
-1598,
1880,
-1868,
58,
-189,
2891,
-2367,
1532,
1177,
-532,
961,
-2394,
3051,
-2942,
-239,
1339,
-1626,
-395,
1530,
1058,
-2313,
-3040,
269,
2837,
662,
-1516,
1888,
-2472,
-1094,
126,
1656,
-1466,
2050,
2134,
512,
-1341,
2066,
-2874,
2862,
2882,
567,
1536,
2289,
1807,
-2508,
1844,
2181,
1186,
227,
776,
1197,
-2919,
-2745,
982,
-2368,
-2984,
744,
-215,
1416,
-624,
-1088,
274,
1917,
-1589,
497,
519,
-1998,
-1802,
768,
-1173,
739,
-2699,
1601,
-1881,
2189,
-443,
-132,
-1683,
110,
-2172,
-1548,
2734,
-121,
753,
690,
-139,
153,
-41,
-2862,
2305,
-11,
-1802,
1303,
1526,
2314,
-886,
-1462,
0,
-2968,
556,
1272,
2594,
21,
-1331,
-4,
281,
-2675,
2953,
-2374,
-3014,
2630,
2225,
775,
-3076,
1285,
-798,
813,
-1508,
2421,
-2651,
2894,
-1063,
-2705,
2075,
1622,
-920,
493,
-1595,
-1321,
-1238,
2857,
-708,
-2781,
-2066,
1449,
-382,
1586,
-291,
2588,
963,
272,
-3373,
-416,
-1283,
-3626,
2950,
-323,
2835,
-18,
-289,
917,
-2296,
-1321,
-1322,
573,
4427,
31,
-1190,
2949,
2417,
1333,
3587,
33,
-694,
2725,
1099,
-4099,
-1298,
-108,
-14,
-3676,
-1919,
-2422,
2829,
-2090,
2469,
3092,
2663,
-4040,
-576,
829,
-1450,
-4357,
-1304,
4261,
1297,
830,
3101,
855,
18,
2562,
-724,
3820,
-925,
-1513,
759,
-1895,
-3000,
-1147,
1998,
722,
585,
-1336,
2665,
1616,
-2999,
-3416,
1241,
1386,
-565,
-2939,
-1981,
410,
528,
-1690,
20,
-994,
-3072,
-1084,
1585,
-111,
-858,
4396,
3604,
-2034,
1657,
1496,
3005,
150,
-3041,
-4663,
-80,
-2394,
731,
-1739,
1804,
1012,
-226,
3183,
3672,
-3111,
-1530,
699,
3399,
598,
1390,
2742,
3634,
-2561,
497,
-4288,
-1380,
3173,
2217,
-4561,
-4230,
-2026,
174,
-1539,
3180,
-541,
-471,
-2944,
2255,
221,
2140,
1033,
-3662,
-2321,
-5576,
-1267,
144,
-2955,
2592,
918,
-642,
1759,
-247,
-1689,
3351,
-2622,
2584,
-1400,
5031,
2051,
1607,
174,
-3499,
-297,
-2295,
-4262,
-2438,
-5041,
747,
-137,
-2456,
-2289,
-3099,
1904,
-1985,
1586,
627,
2481,
-1723,
-3100,
-103,
5523,
-279,
1358,
-3325,
-103,
-2066,
1907,
-86,
2882,
-2876,
706,
-38,
-2306,
1978,
1258,
2247,
3972,
1139,
867,
2215,
1297,
1378,
5595,
-2982,
-486,
-783,
-2298,
-3459,
-5061,
-813,
-39,
-2627,
-931,
-2523,
1944,
3024,
-490,
-4376,
-2992,
-250,
-746,
-941,
4503,
1016,
4727,
-2176,
-730,
567,
2768,
354,
-883,
3031,
-1439,
176,
4812,
-1453,
4189,
-1938,
950,
-881,
-1105,
-5557,
-3994,
2462,
3875,
161,
147,
-611,
-2909,
4843,
-131,
-1936,
-1656,
5892,
2060,
-2262,
-654,
83,
4801,
-2649,
-226,
1635,
-1537,
2435,
1303,
4191,
1479,
317,
2326,
-727,
-3295,
-1513,
2111,
-4731,
2653,
-1195,
1657,
653,
-2996,
1070,
-3143,
420,
3102,
-2354,
-3637,
-326,
4023,
-1158,
557,
-509,
445,
4523,
-2357,
2838,
3921,
-3028,
-680,
-2587,
684,
-3817,
-665,
-2152,
2934,
531,
733,
1436,
-4298,
-2649,
-1221,
2820,
287,
4847,
-1509,
-5922,
1506,
2108,
3164,
-3513,
1577,
317,
-2882,
4538,
-582,
2367,
-108,
741,
3380,
2902,
3749,
327,
1005,
4301,
1968,
-2123,
4825,
2861,
-3701,
2251,
-1839,
-901,
-4522,
-323,
1630,
3629,
-3769,
2530,
2257,
1631,
-2912,
-798,
398,
230,
-695,
271,
-788,
-2737,
-1579,
-193,
-6163,
2457,
591,
-2285,
659,
-2101,
-1121,
517,
687,
-767,
2733,
1236,
2884,
-139,
1760,
-3652,
2191,
1006,
-1722,
231,
2947,
-1722,
-509,
947,
314,
2724,
-1398,
303,
848,
-755,
3610,
1376,
281,
-527,
2733,
-928,
-3313,
-867,
1504,
2879,
-2571,
811,
1206,
-1401,
-1316,
2036,
-862,
615,
486,
-1070,
1388,
-789,
660,
1116,
-1526,
2451,
-2891,
1282,
2365,
-315,
-3460,
1601,
-3606,
-1643,
-2911,
-2516,
2267,
1699,
1381,
1125,
2971,
-1529,
1214,
-1884,
418,
2794,
1521,
416,
954,
-2810,
2704,
-612,
-3380,
-240,
1050,
1510,
-2067,
1320,
401,
14,
-751,
-443,
179,
2778,
289,
-1370,
-3177,
-1636,
2783,
-2583,
2058,
668,
281,
1353,
-1669,
723,
1739,
1621,
-1944,
-2902,
2358,
3627,
3057,
-3246,
22,
1721,
1813,
-2475,
617,
-3379,
3022,
-2334,
1644,
-1769,
-3890,
-705,
300,
1319,
-736,
-3370,
3440,
1211,
-826,
-2367,
732,
-2291,
-1463,
1,
102,
-2297,
1282,
385,
-281,
-2381,
192,
-3776,
-1456,
271,
2279,
-1406,
1638,
2296,
-489,
2683,
-1566,
1153,
600,
-561,
1543,
-1599,
2367,
-2871,
-596,
4224,
-80,
54,
2100,
3013,
1001,
-1043,
301,
-2058,
3127,
2170,
-123,
1691,
-228,
-550,
-2174,
4183,
868,
-2608,
-129,
-2163,
2981,
3519,
-2615,
-784,
3944,
4930,
2271,
-980,
-2701,
-755,
-2878,
-718,
-436,
1246,
1842,
-1517,
-1512,
-1730,
-3160,
3063,
-193,
-1817,
869,
-3145,
-1624,
489,
2670,
2219,
-2567,
1938,
-1915,
1934,
-2396,
2963,
4502,
491,
-713,
2429,
-2630,
-3129,
113,
-2127,
1291,
733,
1218,
1027,
1541,
3219,
944,
-3533,
2371,
2714,
-2060,
-2311,
567,
-3416,
1242,
-3059,
1909,
3073,
-3589,
-1507,
1915,
-4671,
2017,
-2399,
-2418,
-2752,
1128,
1449,
935,
-2920,
-3278,
-54,
969,
2653,
-3020,
165,
-2209,
-2003,
2657,
283,
3308,
-1754,
-2353,
-958,
-1645,
1270,
3185,
-2442,
28,
1143,
-1641,
175,
2445,
597,
-1553,
3527,
2174,
-2547,
-184,
-2096,
-1539,
3269,
592,
-758,
3455,
-1273,
-2130,
189,
-2197,
-1471,
694,
-976,
-670,
-1070,
-265,
3136,
-3579,
-2236,
-1860,
-2932,
1898,
-1514,
1912,
447,
4077,
-2124,
-3021,
317,
659,
-1522,
-2037,
1335,
-1727,
784,
1905,
-2049,
3122,
1660,
3591,
-2239,
1966,
1721,
-29,
2070,
3717,
639,
-1932,
3779,
-75,
-2400,
1820,
-1698,
-3263,
1324,
4931,
591,
-3182,
2967,
866,
2655,
944,
3709,
-2610,
-205,
141,
2507,
3542,
-657,
-735,
-2751,
1618,
-1626,
1619,
-2757,
197,
80,
-239,
3252,
-1920,
1022,
-2957,
-606,
-14,
-2120,
-139,
-816,
-188,
-395,
1521,
2743,
-3560,
-1938,
1279,
1193,
-2146,
-2683,
-1216,
304,
2503,
1876,
196,
-803,
-2942,
-647,
-220,
-1728,
-3601,
-2721,
444,
-2061,
-1407,
4630,
3262,
228,
-2603,
34,
-2265,
2729,
328,
-153,
-2192,
837,
-1027,
-2826,
825,
-1629,
-1631,
382,
-252,
1730,
-1882,
1479,
-306,
-3019,
1734,
-1460,
-704,
933,
-2338,
1664,
36,
-2051,
1553,
-1874,
203,
2461,
-2229,
-36,
2039,
1459,
2134,
1222,
-133,
1068,
-1401,
1476,
1053,
-3869,
1167,
702,
-2075,
-3326,
2241,
-922,
-2959,
-1315,
-1633,
811,
2225,
489,
-3976,
616,
2202,
-2427,
-1654,
4482,
-949,
3151,
1716,
-3025,
9,
3015,
2928,
22,
-2322,
-799,
907,
-2307,
-2993,
-175,
-120,
868,
-692,
3299,
1991,
342,
-1624,
2831,
-2751,
1113,
1280,
-2863,
1875,
77,
-1262,
-1466,
-2459,
-1180,
719,
958,
1501,
4497,
-2815,
1785,
2072,
-203,
-1764,
-742,
438,
3272,
-5875,
5684,
-120,
-2732,
1308,
-138,
1557,
-4666,
-3763,
-3008,
-3190,
4076,
2036,
-1957,
-1134,
-2064,
4891,
3074,
1681,
-886,
-348,
2185,
-1337,
515,
9038,
4088,
-1549,
-3568,
1080,
1936,
1265,
460,
-3822,
2472,
769,
-702,
1900,
3779,
-3378,
-863,
1313,
-2209,
-4045,
-1083,
-1489,
5053,
1346,
-947,
2657,
2063,
-3344,
3013,
886,
769,
-2211,
2628,
1109,
-3804,
-4510,
218,
2600,
-1446,
1715,
-762,
-2612,
867,
-3163,
1671,
-4991,
-1814,
-2722,
1398,
889,
865,
752,
3028,
-472,
4712,
-589,
-2138,
1328,
2657,
3233,
1297,
2848,
2242,
-1499,
-3426,
-2793,
1039,
2015,
1743,
-978,
1809,
3341,
-1571,
802,
3246,
1787,
2301,
-164,
1420,
-4782,
-2240,
712,
1625,
1683,
1327,
-2011,
-598,
-1477,
6951,
-6047,
-922,
-15,
-172,
1477,
3340,
1099,
2461,
-316,
2250,
-4096,
-2216,
-1308,
3829,
-4395,
-2745,
961,
-5015,
-1117,
-2251,
1642,
1833,
390,
-87,
1267,
743,
1508,
1598,
4624,
232,
1836,
-2072,
-719,
2858,
-1620,
-1022,
506,
3791,
-431,
-293,
-610,
667,
-334,
4375,
533,
2650,
-2297,
-1505,
271,
2285,
-2094,
-5312,
2745,
2662,
-2763,
939,
1501,
1573,
4482,
678,
-1327,
2846,
-3859,
-3552,
-1393,
-3382,
1364,
5641,
-723,
522,
-2078,
979,
-3244,
-4870,
-2817,
2536,
676,
-976,
-148,
3481,
172,
1222,
-1490,
1491,
3563,
2981,
1013,
296,
2240,
344,
2133,
3023,
-1733,
3526,
-5871,
5791,
2818,
1380,
2612,
697,
-4465,
6463,
-1564,
672,
53,
-1889,
4149,
-1037,
449,
319,
3037,
-2807,
1099,
3624,
-811,
1953,
398,
-3040,
3845,
-1671,
-344,
-1831,
-2034,
-2222,
1176,
-250,
969,
2117,
2054,
-1469,
1424,
-136,
-2208,
-643,
-2791,
-32,
-1099,
-2472,
1820,
-2979,
1439,
-581,
-1574,
2411,
1956,
676,
-2188,
-2895,
429,
-1276,
-2234,
-2044,
-1087,
-328,
1034,
1958,
-2479,
2787,
-1130,
-1826,
-960,
2454,
947,
-2829,
-820,
1507,
1383,
2154,
-145,
523,
-1110,
-1700,
2380,
-554,
-2925,
2,
-2781,
2427,
-2428,
2699,
1360,
-876,
-179,
-958,
2141,
-835,
-3170,
-2460,
844,
-2067,
2290,
-2716,
-2310,
-3118,
-2853,
2165,
-1711,
-2678,
-2632,
-1580,
-2002,
-2308,
-2795,
2092,
-137,
2651,
1313,
1787,
-95,
1833,
-2216,
-240,
-580,
-2459,
-2237,
2052,
110,
-164,
2816,
-1247,
-158,
-2567,
-1228,
-407,
-1838,
-17,
-1373,
2942,
-1883,
-2661,
1492,
-1299,
2301,
-1334,
877,
-2705,
2330,
3282,
1602,
260,
106,
1290,
257,
503,
-2676,
-2824,
-314,
4033,
955,
2414,
3819,
-2855,
-895,
-1937,
1095,
-5620,
4039,
-1116,
552,
4900,
3230,
-3882,
-2783,
2320,
5252,
-3599,
-2342,
-592,
4271,
817,
5379,
-987,
2753,
-1222,
-2013,
2180,
-6034,
6556,
614,
-1839,
-2553,
-1977,
423,
-207,
-3828,
2273,
-1603,
-4028,
-1690,
-3039,
-4036,
-3039,
1584,
-1545,
535,
1167,
-66,
-600,
633,
-3629,
-1224,
3334,
1306,
-1720,
1479,
-5297,
2591,
-1378,
-1199,
2883,
1076,
2076,
-3859,
-931,
-2300,
5449,
729,
-800,
-1374,
3882,
-2240,
-1983,
1634,
1397,
2580,
3958,
-4804,
-433,
466,
5270,
2891,
4386,
3042,
2750,
1069,
4304,
-928,
1104,
-834,
-283,
2291,
1953,
-1189,
-1760,
151,
3809,
1497,
-2463,
37,
-1855,
-1665,
-7115,
1716,
5081,
2832,
-4430,
2528,
3672,
-4040,
-2680,
-1805,
-1824,
-4195,
-2347,
-2701,
2936;
