memory_initialization_radix=10;
memory_initialization_vector=
7002,
-1831,
-1076,
-2857,
-5391,
804,
-3294,
-2946,
2530,
-78,
5195,
-2408,
-2602,
9245,
10377,
-7702,
9697,
2274,
-2852,
-2994,
954,
770,
215,
2463,
3470,
-3379,
-10728,
-630,
-6353,
-1909,
-9026,
8656,
5269,
-1109,
-7362,
-3470,
3931,
-120,
7862,
11004,
3681,
-621,
6753,
8195,
-4253,
6234,
-10820,
5447,
-1661,
-4841,
-4103,
-10738,
-2217,
3630,
-3632,
-2783,
6423,
8559,
3363,
3928,
-5761,
4979,
-97,
-1451,
-3950,
-5199,
1394,
-4305,
600,
600,
-1496,
67,
2167,
152,
-9168,
-1458,
-6339,
1134,
-10155,
3662,
8076,
4284,
2537,
-2959,
-5437,
2631,
-4851,
-264,
-1318,
-4078,
-3565,
-130,
-6374,
3090,
-83,
1636,
-3847,
-1120,
-4701,
9577,
-10628,
-4324,
-3342,
-567,
2183,
-1152,
9633,
-7778,
3626,
4264,
-9319,
-2951,
-118,
5220,
1602,
8377,
-967,
-42,
-4716,
-7948,
-707,
3779,
-1262,
-7361,
9524,
-206,
-7264,
7059,
-1564,
-199,
8779,
8205,
-1343,
12919,
-3774,
-794,
4052,
1735,
7429,
7703,
4330,
-3908,
-2545,
1020,
-1418,
-4809,
6085,
582,
1712,
-4054,
-2787,
-2133,
5028,
-5763,
8910,
-2110,
-1193,
5693,
-3599,
-620,
-2498,
-874,
11693,
-2169,
-2011,
286,
-5581,
6017,
-9941,
1809,
-7714,
3668,
-1353,
-1382,
2289,
6080,
-3106,
-3004,
2969,
824,
-2543,
-6624,
1295,
-1918,
7029,
-4308,
-783,
-1643,
1300,
13473,
3814,
-3273,
-7711,
440,
749,
-2136,
5593,
2924,
7240,
-1063,
11673,
-2574,
-5288,
8810,
-2923,
-720,
-4249,
5681,
5796,
9460,
11052,
63,
2061,
-6050,
14503,
5686,
449,
616,
-3235,
10763,
-1221,
3750,
-6861,
-691,
-3186,
1696,
-3563,
-6203,
11265,
827,
1577,
1962,
-13379,
1958,
1224,
-2203,
-919,
1839,
-9200,
1525,
2323,
-450,
5726,
-3186,
-3144,
-1591,
-7748,
-2012,
-3519,
-7269,
1347,
488;
