memory_initialization_radix=10;
memory_initialization_vector=
-1785,
-2475,
-16428,
-830,
8473,
-1175,
287,
1581,
2390,
2098,
7074,
2528,
-6093,
-4859,
-4065,
-2694,
-775,
-3617,
-1577,
8286,
-1223,
-4168,
669,
3385,
3869,
-1995,
-1650,
-6701,
406,
-3984,
-492,
-5540,
-9196,
-539,
-4211,
-8307,
2331,
1517,
-2531,
-2404,
-9182,
4908,
-5839,
-3066,
2885,
-506,
-608,
-3572,
-5317,
-3053,
-5867,
2300,
3213,
4974,
6557,
-6193,
-295,
1625,
-901,
-4403,
65,
82,
1356,
5531,
824,
5951,
-2310,
14439,
1315,
13226,
-4235,
4728,
1601,
7370,
3385,
-1335,
-2220,
2828,
4832,
-3193,
3731,
13012,
10479,
3696,
2338,
-2850,
-2969,
12217,
2991,
133,
2007,
-787,
-2460,
-2768,
-8430,
-2184,
8814,
-5859,
5155,
6257,
4489,
-2343,
-23,
468,
137,
10150,
-7883,
-2543,
-6440,
2275,
333,
3479,
9090,
-3904,
-3718,
-3914,
-63,
2756,
-4140,
17114,
1819,
-1930,
-4391,
2529,
9661,
786,
5582,
-5021,
-7203,
12923,
2548,
-5412,
560,
-9532,
1168,
-7190,
-228,
-4969,
-5078,
1295,
-10798,
-2147,
-1468,
-3045,
4750,
-7080,
-1249,
-2813,
13354,
3959,
-3315,
-857,
5157,
1154,
-7846,
-8704,
242,
-4442,
6499,
-3080,
-9054,
2860,
549,
-3145,
935,
-7206,
-780,
3961,
-220,
1299,
12296,
220,
1666,
-1270,
-1085,
-5788,
1916,
-6108,
-680,
2018,
2961,
7920,
-9186,
10957,
2590,
-6511,
2998,
681,
-2585,
15108,
8895,
8909,
-56,
-3802,
9777,
-1014,
-7186,
-3309,
3465,
-9401,
-5381,
794,
693,
-4667,
2787,
1084,
-401,
-2302,
6577,
-1176,
-1570,
-2844,
1222,
-8235,
-2431,
-7142,
3789,
-982,
3406,
3962,
-824,
-2367,
5051,
8691,
164,
-5677,
-2837,
-8539,
-3766,
5163,
1018,
4482,
-1109,
-307,
2202,
-7842,
777,
-10035,
4948,
7724,
-4314,
-1908,
1204,
2376,
-561,
2785,
-6944,
2393,
-2621,
11185,
-97,
-8745;
