memory_initialization_radix=10;
memory_initialization_vector=
14574,
5768,
-600,
-6931,
-5355,
11702,
1360,
-9617,
-6799,
-5429,
11325,
-6416,
-12722,
-6672,
23,
4197,
-7982,
-12344,
-6746,
6131,
-4525,
-9244,
-6830,
4079,
7615,
-2018,
-6420,
-3831,
1187,
-1892,
-4023,
2249,
9588,
11823,
953,
-6054,
2638,
-728,
7100,
-11060,
-5035,
9037,
-73,
-4791,
-3914,
-3002,
86,
4058,
502,
-2032;
