memory_initialization_radix=10;
memory_initialization_vector=
-1797,
-1979,
3466,
-2704,
2659,
927,
-2638,
1195,
-20,
-2846,
-910,
1659,
1758,
-5343,
1102,
1189,
-2162,
-3419,
1046,
-3936,
1270,
1183,
-1503,
-3262,
-2963,
3175,
2453,
6742,
-1556,
3414,
2342,
-3320,
1360,
5875,
1451,
2418,
-5529,
-1120,
6462,
308,
1943,
1883,
-5096,
-2059,
1210,
7747,
-26,
-2037,
1876,
-1882,
-535,
-3646,
-3023,
-2202,
-304,
800,
3090,
-322,
1813,
2721,
3913,
-3671,
-1437,
-1816,
-22,
-4494,
-457,
2724,
1474,
1859,
3065,
2762,
-4660,
820,
-3391,
-295,
-340,
770,
255,
-4726,
-1732,
3120,
1061,
2361,
2476,
4417,
-2890,
-6745,
6879,
-592,
-168,
-3269,
-3889,
-371,
830,
4878,
7000,
3646,
-1582,
356,
-338,
-2092,
-3216,
-2357,
3334,
-567,
4174,
-3329,
1478,
-3342,
-678,
6495,
2176,
-3151,
-1525,
455,
3056,
1570,
2363,
1211,
2153,
-1478,
2094,
-907,
810,
-953,
-2663,
-134,
-1435,
-1957,
-2920,
-685,
-22,
1419,
2772,
1804,
1345,
899,
-2344,
-2536,
2290,
715,
-1312,
-572,
-2640,
-2152,
-1406,
-1576,
2167,
91,
228,
-2282,
-629,
2803,
-2160,
-1127,
827,
-1970,
-2121,
2730,
-90,
430,
-543,
-2453,
-2992,
460,
-2884,
-1653,
-1492,
140,
191,
1370,
1211,
548,
-1548,
-815,
547,
-2724,
995,
-648,
-2325,
1422,
1297,
1604,
-2834,
2663,
1015,
-3007,
-1532,
707,
-428,
1970,
-986,
-2199,
-1645,
-244,
-586,
-1957,
713,
1762,
-1871,
-2287,
1064,
-617,
35,
-2648,
-1914,
-1396,
9,
-2564,
-193,
470,
2763,
-912,
-987,
1181,
2063,
179,
-750,
-1318,
-1387,
-644,
-2109,
-1397,
2488,
1569,
1280,
-152,
2019,
916,
2441,
-926,
1114,
96,
-2974,
-2784,
1793,
2124,
-2958,
1613,
1578,
5126,
-1941,
-97,
1007,
2361,
-2117,
-2805,
-850,
3749,
693,
-5087,
1093,
-2222,
400,
-1551,
4015,
-1041,
1310,
1669,
-662,
2946,
3245,
-2908,
4495,
3751,
4795,
2942,
-110,
-291,
-3352,
2440,
-1755,
1380,
662,
-4136,
4920,
-2857,
-160,
3873,
118,
-1189,
-3359,
-612,
-1658,
-4317,
-337,
2078,
1618,
-1616,
856,
2813,
-2277,
-454,
2213,
2065,
1960,
2377,
-940,
-1408,
-510,
961,
2852,
6127,
719,
4450,
640,
5078,
-3652,
-2589,
-1189,
1935,
-594,
-1734,
-2276,
2911,
-2620,
869,
466,
1779,
2182,
406,
-4202,
-1918,
2081,
-2010,
-1176,
-1494,
-2052,
2700,
-2517,
-3149,
4543,
2388,
1471,
3112,
-1485,
1176,
2386,
2902,
50,
-2678,
-2170,
501,
-2131,
-874,
-826,
-753,
-1753,
-2200,
-706,
2382,
-414,
4293,
-2464,
-581,
-2023,
2039,
1231,
1452,
-134,
-6923,
-6664,
-935,
-3479,
1923,
1943,
-697,
4702,
5372,
-1987,
2666,
-416,
3343,
-3073,
1945,
-379,
789,
-3128,
4897,
3526,
-211,
-2519,
1727,
-3102,
3136,
1766,
-5693,
-1550,
800,
1589,
-2542,
1603,
4790,
3773,
2931,
1147,
3026,
961,
-425,
-2010,
-550,
1313,
-1127,
-1288,
2032,
1727,
-1578,
425,
-446,
2555,
856,
3646,
3364,
2901,
2128,
-2323,
2404,
3422,
4861,
1474,
98,
3840,
3348,
371,
-2392,
2595,
-102,
3057,
965,
2717,
-3619,
-2290,
5394,
547,
2813,
1157,
474,
1587,
4607,
1836,
-358,
1082,
-3054,
-4722,
-99,
-424,
4033,
-181,
-1816,
18,
2431,
4581,
-4120,
-1547,
-4067,
1234,
-561,
-1457,
1145,
565,
-2124,
4771,
-1299,
1295,
-166,
-2848,
1539,
2744,
1478,
1770,
-826,
-2301,
-4479,
3736,
-2657,
3959,
1507,
2132,
2386,
-1944,
-1378,
-1998,
-1195,
1795,
-2246,
-272,
66,
-596,
-1044,
-1172,
-1152,
-54,
-624,
-2226,
1499,
1349,
-648,
-365,
-2237,
-1242,
2619,
-1471,
-2092,
-2860,
2968,
-2108,
559,
2436,
1493,
1196,
-2977,
-1388,
2867,
-2319,
-1241,
-1771,
2626,
-3078,
-631,
-1934,
2249,
-608,
367,
1622,
-1711,
863,
-1222,
2843,
-187,
-1965,
1196,
-1261,
-1131,
-3349,
1626,
-1176,
1860,
-2194,
895,
2436,
147,
649,
-875,
315,
-2785,
3072,
2104,
1886,
-1431,
2513,
2141,
-2444,
-3120,
-2352,
-1261,
2268,
-3414,
3279,
2565,
943,
345,
-1753,
-882,
1388,
1068,
871,
1999,
1932,
1996,
-242,
-1085,
-1418,
-1534,
2684,
2215,
295,
2597,
-1553,
-1784,
-773,
1353,
2672,
1845,
510,
-1729,
2638,
2077,
1902,
1951,
-1318,
-791,
663,
-925,
-1764,
-977,
1549,
869,
1379,
-3093,
1447,
-3280,
4788,
-3060,
3994,
2394,
1925,
3515,
-2621,
-4349,
167,
485,
5633,
-6110,
441,
-3883,
-2073,
757,
1015,
1123,
-1606,
2024,
1990,
-1258,
4924,
-1732,
968,
6538,
322,
4874,
-3803,
3518,
2675,
-194,
-1307,
-2022,
-230,
-2719,
-1088,
773,
5449,
4088,
-5013,
-1386,
-1900,
2385,
91,
-3494,
468,
152,
2073,
-4897,
-129,
-890,
315,
-438,
1487,
-1011,
-4107,
2692,
-564,
-2491,
512,
-2820,
339,
-141,
166,
3783,
659,
-3858,
2028,
311,
33,
-2559,
-986,
2336,
-218,
262,
2229,
-2358,
2085,
-3356,
-3598,
977,
-1611,
2349,
-3729,
-3777,
-1902,
-866,
3670,
1044,
-4995,
-2081,
-314,
1359,
-1272,
2687,
436,
-345,
1937,
-1266,
-4991,
-2343,
3360,
84,
2806,
-3598,
-342,
1075,
-743,
3026,
5201,
-3990,
-523,
-319,
-3352,
-518,
301,
-2904,
3188,
2452,
5233,
-229,
2505,
-5175,
-4613,
-1718,
-316,
-2816,
2141,
3633,
-401,
3118,
-1466,
-613,
313,
-1954,
4685,
-1174,
10,
-2816,
-306,
-3933,
-821,
-4401,
3655,
-5362,
-980,
-2322,
3882,
-343,
-2310,
2902,
-1117,
-1127,
1552,
-2349,
2540,
822,
5131,
382,
2773,
2369,
2800,
3794,
-3693,
-1704,
-2919,
2294,
2724,
754,
2228,
-3326,
-1623,
769,
352,
1088,
1876,
2071,
3505,
-3051,
-2234,
1410,
4012,
-6442,
4103,
-2089,
3300,
1203,
-2117,
1181,
-1894,
2209,
-485,
5472,
5760,
-1183,
-1253,
-699,
-880,
2758,
-3492,
6269,
-207,
-1308,
-4361,
-2349,
7734,
-4133,
-1531,
-63,
320,
-1235,
1259,
-1348,
-2429,
618,
-3388,
3592,
2805,
-3820,
-3452,
3650,
-624,
-2223,
2642,
-2650,
-308,
1458,
1975,
2988,
-5100,
2229,
-4310,
-3041,
-2341,
-3281,
2527,
3456,
3875,
419,
-319,
630,
-1214,
-3742,
-3093,
801,
183,
1409,
-720,
3034,
2617,
-581,
-408,
728,
-1409,
-3579,
2218,
-2359,
-1077,
2776,
-3872,
-3150,
393,
-1004,
-14,
3040,
2447,
399,
-1641,
1440,
-2581,
-269,
374,
-2000,
-1059,
755,
-2530,
-1784,
4258,
-935,
2583,
348,
1183,
609,
2031,
165,
-2021,
2230,
-280,
1557,
3512,
-312,
-2555,
2212,
-1808,
-689,
758,
-62,
973,
2641,
-2213,
492,
-2340,
-2318,
1360,
3901,
2050,
-1125,
2239,
-1848,
-2839,
-955,
1525,
4277,
3531,
-839,
-3115,
1859,
1599,
2677,
-231,
1527,
-3838,
3202,
-1191,
-2393,
2206,
-2860,
2278,
2807,
-2142,
-82,
844,
3036,
-52,
1193,
-1818,
3794,
-1442,
-2877,
-2579,
2086,
2922,
3911,
-1489,
-3590,
1459,
-444,
-171,
-521,
648,
-1926,
-1288,
-2739,
-1205,
-2281,
858,
1296,
-1908,
-1248,
-3570,
1277,
-1115,
-1950,
1475,
-297,
4497,
454,
711,
-2212,
-1104,
333,
-1181,
3495,
-901,
-2939,
-467,
-845,
-2182,
393,
3071,
-2004,
2539,
-1174,
2240,
1331,
-2152,
-4150,
3475,
-2460,
-1207,
4175,
3023,
570,
2646,
3001,
5268,
-1429,
1512,
-4462,
3135,
-215,
-268,
1697,
-3332,
3038,
605,
1690,
549,
-1784,
-2152,
-2403,
-756,
-2093,
-1818,
3216,
7110,
-1577,
-1654,
4713,
-579,
-2423,
1362,
-1740,
1991,
857,
2106,
3590,
-1152,
-2753,
1342,
6022,
908,
1417,
5451,
-3190,
839,
2829,
-1769,
563,
-2167,
-2220,
-3333,
-5539,
-2396,
-1746,
1967,
1157,
-3689,
128,
-2406,
3331,
-3732,
-3555,
4863,
-475,
-2481,
-4005,
6495,
-215,
3676,
2354,
2621,
-2179,
-1344,
-3692,
-1865,
4068,
2422,
-1995,
-1740,
-4707,
1825,
-2783,
4325,
-2237,
-2565,
-1836,
-23,
-3093,
-3224,
288,
-1785,
-487,
1971,
-2178,
-1950,
549,
1865,
540,
-3789,
-1590,
-2503,
1825,
-2054,
3804,
-956,
3443,
-1214,
-2742,
-3708,
3999,
2624,
2848,
527,
-236,
729,
-1493,
-1288,
2589,
-1100,
2835,
391,
3042,
411,
1926,
-165,
230,
-831,
-1910,
-325,
-1819,
746,
-1990,
1945,
2558,
-137,
-1794,
-497,
1607,
-2669,
-791,
-328,
1016,
683,
-348,
3139,
-1039,
3482,
1565,
4260,
2019,
-1896,
2963,
492,
-947,
-876,
3922,
-1779,
2178,
3757,
-2661,
2955,
-1048,
1490,
2861,
2785,
1085,
-2413,
2093,
2947,
-3162,
-193,
1519,
2079,
1578,
-1909,
862,
981,
1766,
89,
-2314,
1938,
-501,
-1339,
-531,
2076,
2256,
-2369,
432,
-655,
-2254,
-1272,
126,
1946,
4755,
2468,
-2854,
-788,
-338,
-2447,
-1908,
1053,
214,
-2673,
-1498,
-827,
1510,
2826,
3445,
-3188,
-1251,
-5899,
2982,
1819,
1340,
4238,
7456,
-2162,
-892,
1792,
835,
553,
5107,
-959,
-2001,
3099,
-1891,
1604,
2493,
-3500,
-3085,
1795,
-1389,
-3968,
-744,
-2630,
-7358,
4487,
2829,
-1730,
412,
3062,
-3610,
1927,
4024,
-711,
-81,
1661,
-1851,
5534,
-1796,
1267,
-1056,
-627,
-1221,
-473,
1536,
1371,
2962,
729,
1974,
-2694,
481,
2828,
-1693,
3584,
-6066,
1587,
2773,
3719,
949,
-2628,
2732,
177,
-1164,
2125,
434,
5117,
-2130,
-1579,
-1697,
4523,
150,
3595,
-2916,
2259,
2446,
2638,
2568,
1234,
-736,
-3099,
-5241,
-450,
5803,
1928,
-1172,
-618,
-2436,
4200,
-4163,
2609,
-2197,
-2069,
3035,
1753,
-5579,
-172,
-1400,
1604,
2351,
3513,
-1097,
-6571,
2667,
1500,
-575,
1345,
125,
-2617,
530,
1268,
2092,
-1987,
1756,
-1793,
-945,
2896,
2339,
1391,
3139,
-5022,
-2655,
438,
3053,
-2804,
5820,
1187,
2207,
1068,
668,
-3693,
-222,
-2790,
-328,
-623,
-1491,
2690,
2862,
-472,
-2456,
3230,
-610,
-4757,
1886,
1205,
-731,
1402,
2032,
-1248,
-1795,
-1785,
-3791,
5531,
1125,
-3520,
1286,
2446,
5772,
3723,
2051,
-105,
-838,
-349,
678,
389,
1457,
-82,
-1990,
6295,
2585,
1181,
-588,
1263,
-3034,
549,
2497,
832,
5731,
2224,
-911,
1366,
886,
1394,
1894,
-1715,
-1578,
3790,
386,
5311,
-746,
861,
3629,
-2150,
-1702,
-1208,
372,
3623,
1288,
-4405,
959,
-651,
894,
-1347,
1212,
-2341,
1467,
-2191,
3014,
-1595,
-3531,
-2517,
-2011,
-4082,
-1509,
2733,
-3785,
-3096,
2126,
-2620,
-3340,
-1376,
6816,
-7437,
1597,
2192,
697,
2963,
-3335,
3665,
3033,
3,
-1970,
-3053,
3363,
-857,
-1368,
815,
-285,
-1384,
-301,
-1277,
-4022,
-1522,
1087,
127,
-2747,
-1516,
3166,
-554,
-3333,
1867,
881,
2215,
2057,
1558,
175,
2622,
-196,
-231,
-3048,
280,
-2400,
1176,
2610,
-1437,
291,
2658,
-386,
367,
2666,
3351,
2905,
-2626,
2354,
2892,
-4307,
1881,
424,
537,
224,
2901,
5201,
590,
-2516,
1684,
-1159,
-1977,
-2009,
-2776,
-498,
1733,
1166,
2107,
-2080,
3908,
3189,
469,
-1870,
527,
-1995,
-314,
-2209,
1599,
-2757,
2213,
-2469,
72,
-1738,
406,
4151,
967,
1291,
705,
-473,
1499,
-2748,
-913,
1025,
-983,
3028,
2672,
-383,
-4520,
-4923,
6399,
-1742,
-2052,
976,
-2860,
-3592,
-1719,
1519,
2010,
1306,
-406,
389,
1852,
-1501,
1751,
-1109,
3590,
-513,
-2141,
-1609,
-2387,
-1506,
1110,
2213,
2051,
323,
2061,
-732,
2836,
-1830,
1196,
-744,
3100,
-856,
2172,
4116,
1735,
1343,
1431,
-759,
-762,
-1984,
-214,
646,
197,
3457,
-2358,
-2578,
-329,
13,
5542,
-1646,
1983,
-1686,
5677,
1116,
1650,
929,
1250,
-2580,
1409,
425,
2115,
617,
-203,
-2620,
-415,
437,
3287,
2592,
-5852,
-2682,
172,
-351,
3157,
292,
-5585,
-3983,
2035,
5594,
1120,
2439,
-554,
-4037,
960,
2584,
-1134,
3040,
-1304,
-1,
-849,
1341,
-807,
4688,
274,
629,
3232,
25,
2887,
-1220,
-608,
3627,
2096,
683,
3334,
1994,
-4716,
-2376,
2515,
-309,
-1799,
3035,
-4773,
215,
796,
3529,
-912,
5193,
-466,
3016,
16,
4639,
-2859,
-2061,
-61,
-2141,
-2002,
7642,
-5739,
-1618,
-1910,
-2518,
3474,
-67,
-1289,
3465,
1499,
-4301,
2860,
1069,
846,
2938,
-620,
238,
-2014,
-5917,
-1981,
-2579,
-3774,
-2823,
1632,
-2861,
-1130,
2492,
-439,
451,
852,
-2619,
3273,
-232,
109,
-492,
-1751,
353,
1600,
-520,
571,
862,
-1645,
-1858,
1966,
450,
-988,
-1857,
252,
-2281,
-764,
2456,
-2237,
1994,
-613,
1284,
-2240,
1932,
-2709,
-1879,
-2079,
-296,
35,
1185,
81,
730,
-772,
-817,
-2690,
86,
-1509,
-794,
672,
-2961,
-1824,
-406,
-386,
-1820,
468,
-390,
2844,
2697,
-819,
2225,
1360,
-2243,
-1355,
-2143,
1007,
-2274,
-2517,
-547,
-973,
-1192,
-2975,
-136,
-3238,
1453,
-2475,
-2066,
2039,
-3650,
-1712,
2057,
-2163,
255,
422,
1205,
3935,
604,
3570,
-3631,
538,
3138,
1670,
-1438,
1381,
-2539,
-76,
4361,
3586,
1855,
709,
-216,
777,
-2825,
-1862,
-2426,
-401,
-1544,
1835,
-3156,
-172,
2220,
-507,
2848,
-2998,
-1835,
1195,
1393,
1252,
-2866,
-3066,
143,
-2611,
-1422,
-578,
4077,
-2655,
3585,
-1547,
1355,
-16,
832,
-3042,
-108,
648,
-2078,
2460,
-2108,
-1537,
2281,
-1055,
-1887,
-397,
-1207,
-1221,
-2547,
3978,
-876,
-732,
-2560,
1787,
-100,
-884,
2996,
315,
-1853,
-1028,
782,
-661,
-3449,
1444,
2953,
-2971,
3636,
605,
-103,
-1479,
2657,
-2533,
-298,
1290,
3916,
2675,
383,
-466,
-56,
749,
921,
1972,
-1830,
2655,
-195,
940,
-618,
-262,
2106,
-1456,
-1770,
-620,
-1053,
1012,
3516,
-2507,
-1251,
-863,
-2267,
3095,
794,
-3441,
-2357,
447,
-1154,
-462,
-10,
-968,
-35,
-7,
793,
-25,
-65,
-2995,
-1206,
-3708,
-1644,
1519,
-2128,
-1337,
982,
-752,
3568,
-1482,
1657,
-506,
-3477,
2688,
2823,
147,
3438,
1559,
1789,
-1963,
2103,
-602,
-81,
-1404,
-1021,
-33,
-1958,
632,
2920,
-1158,
2011,
1475,
-248,
1844,
284,
-1585,
267,
-169,
585,
2635,
2750,
-3256,
590,
-16,
-221,
2040,
-1047,
1174,
-2103,
-1158,
2763,
1699,
-1707,
-721,
787,
-678,
-855,
-2164,
113,
1241,
-1727,
-384,
1540,
1971,
-1731,
207,
-839,
292,
520,
1445,
-2439,
-756,
-1645,
-373,
-179,
-1858,
-113,
-741,
3520,
-2341,
-2001,
1498,
617,
1738,
-2494,
-2956,
2553,
1609,
-584,
1676,
-803,
-223,
321,
-2314,
-392,
-2630,
-1021,
-495,
-2186,
1268,
-3481,
-575,
-1133,
-441,
500,
-2301,
-243,
-409,
-1809,
309,
1469,
-2618,
359,
315,
-1603,
3143,
354,
1346,
-2123,
-2956,
1846,
2237,
3418,
2322,
-2380,
-3036,
-2424,
-1177,
2519,
2484,
831,
-1735,
-29,
3050,
-2816,
-2031,
-2628,
-957,
286,
711,
88,
-2140,
1524,
2381,
3164,
532,
-3037,
2506,
237,
10,
1506,
1437,
-667,
-4404,
-475,
2387,
-1558,
4355,
-1015,
1909,
1130,
-196,
-3123,
-98,
-255,
2264,
-2029,
-578,
2644,
1481,
-2419,
2932,
63,
-578,
1415,
4306,
-789,
3507,
218,
1004,
5563,
1503,
4001,
-928,
4280,
2518,
2053,
231,
-1178,
-4133,
-2889,
319,
-2464,
1991,
-2757,
-2558,
85,
-2319,
1635,
856,
2197,
-1144,
-1687,
-1954,
-4661,
345,
-964,
-724,
-378,
-3483,
-3285,
279,
-938,
3237,
2250,
791,
910,
885,
1999,
-1846,
-597,
-3049,
-1510,
2474,
-106,
2909,
4110,
680,
89,
-346,
2722,
817,
748,
-3885,
1630,
1022,
912,
2775,
1233,
-98,
-2237,
-1463,
260,
-357,
-1568,
-1052,
3937,
-292,
4140,
4645,
-669,
-3528,
-3446,
2429,
-124,
-2190,
-630,
4967,
907,
921,
4255,
1472,
3273,
-2426,
-4753,
3156,
-2483,
4406,
2385,
3027,
-75,
-19,
1438,
-2959,
2818,
1071,
3172,
302,
2177,
-3733,
-493,
-178,
1804,
1758,
1475,
3294,
5105,
2837,
-998,
638,
-922,
-1499,
1793,
-1686,
2068,
404,
-1594,
2948,
3058,
-2658,
2558,
1616,
-1886,
621,
-2663,
-233,
-3120,
-2839,
-1645,
3861,
1065,
-1511,
2359,
-578,
-2493,
2980,
-1494,
3093,
-3212,
-1993,
-3368,
-1934,
649,
-527,
-102,
-1129,
-985,
3738,
1229,
2524,
2477,
1498,
-5802,
685,
-3175,
-1107,
3703,
942,
1072,
-600,
3108,
-28,
-1993,
-696,
-611,
-3104,
1052,
32,
-1496,
-2934,
1717,
2195,
528,
2985,
1624,
2715,
-1200,
3793,
-2263,
-848,
-2115,
-2656,
-2896,
-3158,
-2335,
3213,
4807,
1447,
-438,
1640,
-2376,
1796,
-2332,
-2097,
2019,
-883,
-378,
529,
-820,
-2246,
2620,
639,
-847,
-1415,
-2802,
3387,
7090,
-402,
2411,
1348,
3101,
1699,
2326,
61,
2291,
445,
5396,
3557,
3133,
1309,
328,
-4453,
-3014,
1754,
-3776,
-597,
2448,
-1526,
71,
497,
-1883,
878,
872,
-1064,
-1126,
-508,
-1013,
-1153,
-2561,
-791,
1505,
-600,
4389,
962,
-1019,
4205,
1684,
-145,
1584,
-615,
-1941,
1703,
400,
1662,
-1626,
-2731,
-1473,
2428,
-5686,
-3564,
3627,
-2114,
90,
493,
-2550,
5995,
-2593,
1503,
3982,
427,
-2423,
-3242,
3693,
-1439,
-1452,
3165,
-3096,
76,
6284,
1701,
-2158,
-2056,
-1255,
-3792,
-2465,
-231,
2499,
1399,
-3014,
-4260,
6933,
492,
-3344,
-535,
1027,
3563,
-133,
3166,
3219,
-1779,
986,
685,
-1986,
-781,
-2049,
3123,
-1737,
2029,
7616,
1478,
-4303,
-2861,
-3998,
-439,
1190,
-2016,
526,
-2594,
2511,
303,
5510,
-1756,
-340,
1950,
-4257,
3678,
4326,
2006,
663,
5514,
1610,
-318,
1061,
2072,
1943,
-3757,
-756,
-514,
-1097,
3444,
320,
1510,
2888,
563,
-2896,
-1455,
4899,
255,
-2374,
-63,
-940,
-1729,
2300,
1556,
-982,
1668,
3770,
-1174,
-546,
4679,
-2202,
-715,
-5147,
3764,
-97,
-3300,
194,
-2133,
-1518,
2923,
-1243,
688,
2743,
-3033,
-871,
4816,
-719,
962,
-2416,
-1787,
1726,
-1316,
-266,
2625,
758,
-1061,
-1154,
-1969,
657,
58,
3861,
614,
-1175,
-911,
2313,
-1882,
1598,
4316,
-1016,
683,
-3194,
2755,
3896,
-1089,
-1923,
-2705,
159,
-710,
2349,
1345,
3161,
-1712,
4148,
-195,
-661,
-2712,
4442,
-2654,
3116,
-2669,
3640,
1692,
-2143,
-742,
-843,
1956,
302,
1681,
-168,
1120,
-2082,
-1341,
2758,
1874,
-1476,
-655,
-2000,
-2800,
-2566,
-3091,
-2247,
-1227,
1810,
2512,
1337,
-3620,
446,
-5089,
1566,
-101,
-1077,
2235,
4426;
