memory_initialization_radix=10;
memory_initialization_vector=
-3561,
-2956,
380,
-1927,
-2257,
1497,
899,
4488,
2554,
389,
962,
3143,
1562,
-370,
1959,
-399,
2048,
1858,
-2998,
-1251,
-2286,
1959,
1903,
2767,
-437,
3812,
-4540,
2510,
-1736,
-2116,
3796,
4036,
-2232,
5005,
3111,
3095,
-4546,
2265,
5113,
-1121,
-423,
-365,
451,
2641,
-117,
3141,
3080,
-412,
280,
-5907,
196,
3838,
-1808,
-2086,
276,
1370,
-2469,
-1549,
3486,
3195,
4868,
1984,
1872,
-3068,
-1928,
-1078,
-2444,
386,
2435,
1337,
3070,
3291,
856,
4146,
4071,
-576,
2050,
606,
4268,
-3545,
933,
184,
4797,
-4472,
-1893,
-3057,
732,
3260,
229,
4805,
-880,
-1195,
2161,
217,
-1147,
1906,
2338,
960,
-2591,
-3956,
4394,
-296,
3317,
-3129,
-616,
-1194,
-3460,
2058,
2812,
1748,
2011,
-1115,
5588,
-4594,
2896,
-2149,
2161,
619,
2734,
326,
3237,
-1444,
-1965,
2376,
3306,
-3165,
1461,
-67,
604,
-143,
2065,
1476,
-2531,
4327,
2215,
-3259,
-2030,
2682,
1696,
650,
-543,
2158,
2278,
-1593,
1182,
-587,
-544,
-3530,
1246,
-123,
3151,
-3918,
-3117,
-129,
-1254,
-260,
1819,
530,
954,
-306,
709,
-1115,
-567,
1028,
3139,
1616,
-2955,
1769,
2980,
2393,
-378,
732,
1938,
-1343,
2015,
-2317,
-1759,
467,
-3708,
-2037,
-791,
-1758,
-2155,
-1404,
-553,
-749,
-4502,
1028,
-2789,
1353,
-1408,
-1899,
-3752,
-1413,
680,
408,
490,
3723,
862,
935,
-2107,
-1119,
-1051,
4235,
-421,
1514,
432,
-3389,
1540,
742,
-3004,
866,
937,
-1082,
798,
2401,
-93,
-4940,
-3305,
565,
348,
-135,
1127,
-1621,
-3220,
-3722,
3721,
633,
1499,
616,
1023,
2357,
-3325,
3969,
-4140,
-1809,
1992,
1146,
102,
4153,
1102,
-3955,
1966,
-511,
-2555,
-1602,
1346,
3036,
1506,
-706,
-3160,
-393,
-2739,
-2869,
2184,
989,
2743,
-1029,
2721,
1832,
-2303,
-2591,
2552,
2757,
-1138,
1930,
-60,
7,
2139,
726,
-2229,
1572,
1525,
4480,
-1843,
2569,
-3492,
1732,
2654,
-2497,
-130,
1516,
2105,
-2533,
2091,
934,
863,
-1569,
-832,
-217,
-288,
2815,
-689,
887,
-1816,
-1319,
-3054,
1323,
-1843,
100,
-2638,
-1469,
47,
-257,
-2013,
1684,
-119,
789,
-1819,
667,
-2810,
2065,
-2588,
3271,
-2007,
1917,
1071,
3043,
2763,
1487,
-1895,
1080,
166,
-2198,
432,
2323,
59,
2182,
-1996,
-2259,
1596,
-61,
-226,
-1653,
831,
-718,
2039,
2915,
-3092,
615,
1574,
-2956,
2567,
284,
1936,
-2763,
1699,
-899,
-1337,
-1944,
911,
1451,
1942,
834,
-289,
-974,
-1129,
-1547,
290,
1443,
-1761,
2006,
-3297,
1914,
1645,
2531,
-2147,
-2002,
3349,
-1272,
2125,
4547,
38,
3692,
-184,
773,
-3907,
-1935,
-1925,
2370,
2661,
-460,
1029,
1628,
-2856,
858,
749,
-4931,
-2981,
-5436,
4217,
-4775,
415,
-2235,
3833,
-2375,
-711,
1163,
2702,
-5053,
3381,
941,
409,
2274,
4947,
-2230,
-2382,
1663,
-1131,
2638,
-63,
-1098,
978,
460,
-1206,
1700,
506,
4603,
3443,
1812,
4088,
-2076,
1521,
-1196,
2161,
-4115,
2204,
1257,
2003,
-2667,
-406,
851,
3326,
312,
1440,
-557,
-932,
570,
-2064,
1723,
-2432,
-1208,
17,
-3289,
2424,
-3410,
2250,
-2328,
1517,
-1696,
-2399,
2926,
3747,
-3265,
1346,
-3482,
1389,
-268,
667,
868,
1814,
-2666,
1371,
5025,
536,
1582,
-659,
-1748,
129,
3712,
1180,
-1852,
-1615,
-1212,
2337,
-778,
2744,
-1848,
1061,
115,
1908,
-2878,
-1230,
-4708,
-669,
1595,
2703,
1793,
3410,
4829,
1266,
4242,
1163,
2952,
-792,
-1065,
1887,
586,
626,
2284,
216,
-892,
-1483,
1153,
-3098,
836,
-2687,
1007,
-841,
1750,
-2350,
3274,
1836,
1307,
963,
-1134,
-858,
-110,
1686,
-1082,
-1988,
2495,
-2028,
1631,
3360,
4846,
897,
-3690,
-350,
-3999,
795,
4525,
-2593,
82,
-4105,
2213,
2840,
-3010,
1236,
2776,
-29,
-3455,
3198,
-2145,
-5448,
-3776,
-768,
-3179,
217,
207,
858,
4370,
-2650,
-2369,
2997,
-1498,
-3469,
2471,
475,
136,
-1258,
-3668,
-2098,
-2835,
974,
3510,
-932,
3912,
1212,
4235,
-191,
-1104,
4782,
-4825,
-161,
-1342,
3524,
728,
-17,
5130,
-3201,
-772,
-229,
-2281,
1214,
-3355,
865,
-2888,
-2070,
-2350,
563,
5279,
1938,
-3844,
4717,
-1575,
-4222,
-945,
-2037,
-679,
-401,
-2213,
-2694,
410,
-1579,
1255,
-397,
-2052,
27,
352,
-2801,
-1770,
-2384,
1192,
-1715,
-715,
-2818,
-1828,
2859,
1312,
1144,
1696,
-1149,
-893,
-582,
1764,
-1743,
2758,
-569,
1466,
172,
-1677,
1287,
-1492,
634,
2660,
2239,
2456,
-861,
1207,
-341,
2582,
1370,
-2408,
-2836,
2164,
-912,
-2111,
1759,
-752,
-2339,
-2647,
-2946,
329,
-229,
-1936,
2121,
-161,
-2411,
-151,
-592,
-2561,
238,
1428,
-1776,
-793,
-2958,
2722,
920,
-2301,
2007,
-820,
-2866,
-1654,
2538,
1635,
220,
684,
-1701,
2270,
-2076,
-608,
2429,
628,
-1062,
-536,
2667,
-326,
2574,
-1613,
-427,
-1191,
2511,
-2617,
-2172,
155,
2212,
123,
1904,
-1160,
-2787,
-644,
2501,
-807,
-2297,
-3115,
2465,
-2535,
-2989,
-1135,
-1753,
-1787,
-2043,
2607,
-842,
-1632,
-2526,
-2807,
-2127,
2843,
-1934,
6589,
-3558,
2326,
-392,
1951,
-1988,
-993,
-2236,
-2482,
-2054,
-7007,
-2807,
-3598,
178,
2841,
2109,
125,
3291,
35,
461,
-104,
-519,
3063,
2864,
1140,
4336,
3282,
-2930,
5070,
-1444,
4096,
467,
-199,
1738,
-336,
2067,
46,
1288,
6470,
-6264,
-2099,
-2273,
1095,
-2319,
412,
-383,
-434,
2384,
-2259,
-2814,
2612,
-7404,
1390,
4215,
2503,
293,
-284,
-3159,
-2389,
-802,
-214,
3584,
2666,
3474,
3906,
427,
-2055,
2407,
641,
-1329,
41,
-2093,
-2371,
-263,
-5234,
-2067,
1820,
1197,
1488,
-293,
441,
4493,
-2878,
812,
1439,
4455,
1267,
-5193,
1752,
753,
-2776,
-4228,
5859,
2809,
6576,
2520,
-588,
-732,
2380,
-1667,
-2743,
-1036,
1400,
-2180,
-4105,
488,
4315,
-2799,
1815,
656,
1016,
1173,
-1161,
-1006,
2376,
3267,
769,
413,
1927,
-2843,
-1820,
-4063,
2192,
1319,
-1596,
528,
-3416,
1385,
-1996,
-3671,
1198,
-3770,
4312,
2758,
30,
1041,
-2269,
1884,
-2134,
3248,
502,
-2173,
69,
-931,
-1615,
1019,
-3146,
2094,
-2680,
3804,
-3919,
615,
544,
-25,
-1045,
-4303,
2465,
3781,
1142,
3431,
1748,
-2627,
-380,
828,
-2423,
-1803,
-2763,
1005,
2886,
-1589,
2700,
-584,
-1829,
3841,
2717,
3536,
4123,
781,
-1388,
-976,
1297,
720,
-2036,
-1500,
-858,
-1555,
-294,
-2259,
1358,
459,
-1700,
-1296,
-885,
-60,
-369,
1186,
2356,
-59,
-3468,
5675,
-1192,
-1908,
775,
1977,
-1658,
592,
-1583,
4436,
-2026,
-2451,
-773,
4682,
-3763,
3234,
70,
3321,
-5719,
-382,
196,
-3729,
-94,
1605,
-3415,
1976,
-1894,
1035,
-288,
-79,
59,
-1211,
-735,
763,
2324,
-1832,
-1891,
4260,
-1864,
-2754,
3482,
1440,
-130,
-417,
-3473,
-6399,
4758,
-673,
-549,
267,
5859,
-1914,
-413,
-2722,
-1747,
-5,
2303,
3814,
-370,
-3446,
3813,
-385,
-1860,
-5304,
1622,
4672,
2067,
-1909,
770,
2994,
234,
-1932,
2374,
2278,
-1022,
-3714,
-2593,
-920,
-3073,
-387,
2364,
2211,
1815,
1043,
-2563,
769,
1858,
2652,
-1299,
-373,
-355,
2489,
6001,
2123,
1952,
1340,
-415,
2461,
-3237,
1348,
2396,
2182,
3751,
37,
1773,
-4414,
3520,
4151,
-2502,
2954,
92,
2967,
2218,
1060,
-1888,
5133,
3948,
-861,
498,
-1862,
2224,
3975,
-554,
-3668,
-3726,
-3430,
-709,
2245,
4820,
331,
-386,
-656,
307,
-841,
-2355,
1453,
-814,
-192,
1493,
666,
979,
-1544,
3300,
-1729,
-3139,
3296,
2424,
-2817,
1218,
-996,
-2661,
191,
895,
-1704,
938,
-492,
-2875,
-1518,
3103,
-1835,
-3907,
-540,
1373,
-1280,
-2719,
-3127,
2755,
77,
563,
-932,
2279,
312,
2840,
-2973,
-455,
-2872,
951,
987,
-2495,
-522,
-18,
1836,
1162,
-882,
-1688,
943,
-2177,
2151,
-871,
1806,
-78,
-626,
123,
46,
-1145,
2237,
-904,
165,
-1779,
2042,
-1148,
-1676,
-394,
-657,
1811,
-821,
929,
3121,
-929,
2562,
-1126,
1772,
659,
-2794,
1486,
-296,
552,
-61,
-1811,
1418,
2624,
-47,
895,
2861,
-848,
-1199,
-1477,
-2284,
2480,
3040,
-14,
518,
-2886,
1739,
1582,
1259,
1279,
-1379,
-2017,
-1089,
-17,
759,
151,
872,
-1606,
2786,
2665,
-1310,
-2943,
-3230,
-1064,
-170,
800,
581,
-1462,
-977,
1576,
-1723,
-575,
2263,
-2141,
1142,
-134,
2649,
-1071,
1172,
-1997,
-1480,
-171,
430,
-648,
1191,
802,
-2316,
2050,
1059,
2596,
449,
-2760,
-215,
-1863,
-3655,
3098,
62,
2009,
1726,
5885,
-2294,
-1254,
-3497,
-238,
-836,
4704,
5157,
-796,
586,
7511,
-3324,
-2477,
-1122,
-256,
2589,
1105,
-2730,
-428,
1115,
-892,
1948,
27,
-1734,
3349,
1465,
-1335,
978,
-1991,
-3992,
-2900,
375,
-696,
-5262,
1548,
-71,
3636,
-2552,
1694,
-1873,
-1434,
-969,
-3305,
1624,
4665,
-2097,
-1318,
-830,
1056,
-2806,
-3018,
4884,
-373,
4344,
-2395,
4953,
312,
-1896,
126,
2569,
2518,
245,
464,
-1625,
-4127,
808,
-1293,
4843,
-3169,
178,
-3396,
-366,
-6794,
-2865,
-2522,
88,
-3160,
2903,
-295,
3315,
2162,
700,
1537,
-3029,
4058,
1805,
1888,
-875,
-2609,
3509,
2053,
-5437,
4152,
1730,
1617,
-2180,
-1329,
-3044,
5161,
-2168,
3852,
-1875,
6874,
-737,
1970,
-1931,
942,
713,
-3040,
2782,
625,
-1371,
1224,
-871,
-1917,
-1601,
4337,
-2129,
1163,
104,
-2721,
1789,
1008,
1478,
1774,
2069,
630,
1424,
2518,
2096,
-1761,
2219,
-1004,
-1220,
1226,
-714,
-852,
-621,
-544,
3773,
2223,
-1414,
-2451,
-1281,
-267,
-1075,
539,
-1044,
657,
1208,
2593,
2455,
2177,
1771,
-1206,
2842,
-2053,
331,
-150,
2148,
-904,
-2662,
27,
1920,
-2397,
2107,
2413,
1102,
-2670,
-115,
1585,
543,
-1160,
-2107,
3504,
840,
2878,
-3230,
4075,
1170,
2088,
-559,
2706,
-2376,
236,
544,
-72,
-1268,
-2239,
-171,
2639,
770,
-2601,
-2924,
3921,
1100,
1518,
934,
4809,
821,
986,
1064,
-1287,
3083,
-3347,
-2244,
-1088,
-3536,
-407,
551,
1125,
-1828,
-569,
-2683,
3833,
89,
-2526,
557,
-1102,
3708,
-269,
879,
-3550,
-754,
-166,
-2270,
1199,
-2854,
-2231,
-1695,
-1181,
1605,
172,
440,
1548,
373,
-553,
980,
-3527,
-1198,
-3678,
1288,
571,
3575,
-3818,
-2513,
3364,
1636,
-645,
1799,
2065,
1952,
266,
973,
-1137,
-356,
-483,
-1844,
-2895,
1340,
123,
29,
399,
-1101,
-2494,
1552,
-3623,
-3149,
-65,
2384,
-762,
968,
1730,
1701,
-3725,
1002,
-1599,
1933,
-1606,
4061,
3782,
1923,
-719,
1487,
2744,
2215,
-1827,
1191,
1335,
-3027,
332,
1720,
2100,
-337,
1973,
898,
984,
1481,
1166,
2850,
-3239,
2440,
1825,
973,
421,
-1172,
2029,
1964,
2109,
-3787,
-2739,
1010,
1481,
-2953,
-2193,
-3233,
-2613,
-2404,
2207,
1764,
1202,
854,
-1845,
218,
-2296,
-956,
-2217,
-1547,
1402,
3353,
-859,
-2371,
-2106,
-431,
-1068,
-1349,
-1239,
-1734,
4224,
-1004,
-78,
3188,
-3119,
-1241,
-238,
-1128,
1820,
-153,
-89,
3085,
-1519,
1034,
-1449,
-1954,
-1998,
1896,
294,
-2268,
2451,
2038,
-2109,
1749,
2393,
-1532,
-163,
-2131,
2073,
-1140,
-85,
-1512,
3429,
-1596,
-1918,
-447,
-2240,
-713,
77,
-1354,
2288,
498,
-216,
-872,
-286,
2990,
2506,
-173,
2576,
2642,
2882,
2791,
-3076,
-2059,
-501,
-1061,
-729,
2851,
2448,
789,
-1376,
-1041,
641,
801,
-2354,
-2778,
-1148,
401,
2085,
1727,
-2422,
1181,
1145,
-823,
-2292,
-2639,
-1736,
2345,
-131,
382,
-281,
776,
-332,
2176,
-1076,
-261,
1116,
3222,
-1852,
862,
-803,
1381,
-2441,
-193,
-2572,
-1943,
1351,
2020,
-817,
-2096,
2315,
761,
-822,
-104,
261,
-2098,
-2242,
1503,
1764,
-2534,
-2377,
-2321,
-2441,
-2478,
-2547,
-59,
-2905,
-2467,
-2322,
-1248,
2039,
-3188,
-377,
-2024,
2814,
-2897,
-616,
-1233,
2268,
-1366,
1571,
1964,
-338,
793,
771,
2332,
3092,
42,
-229,
-3541,
2447,
2558,
1090,
5221,
-184,
-2794,
-3841,
-916,
1054,
-5255,
-28,
-1571,
-1772,
831,
332,
3421,
1122,
-1959,
1114,
-3459,
1064,
1187,
-2222,
6147,
-2271,
-3104,
3131,
-672,
-148,
1899,
920,
392,
-19,
-64,
-2656,
299,
1133,
2209,
-3501,
669,
1707,
-2402,
-1070,
-585,
3656,
346,
2652,
3170,
411,
-1798,
1022,
-888,
523,
-214,
3187,
-1161,
4488,
-3167,
1642,
1629,
3233,
3867,
1815,
-1275,
3431,
204,
5254,
2014,
-4201,
659,
4085,
-2806,
41,
-344,
-908,
-2022,
4712,
-556,
-510,
-2626,
2257,
3033,
531,
3490,
-787,
-1709,
2201,
-1678,
1104,
-2089,
2348,
4605,
1088,
2232,
-936,
1580,
240,
-1131,
-2886,
-795,
2407,
-748,
-2553,
3511,
4722,
-1210,
-1082,
-2490,
570,
-22,
-1835,
-1363,
1126,
1858,
1432,
474,
3108,
1013,
1904,
-348,
19,
-5007,
-2057,
-1458,
2629,
582,
7791,
416,
-195,
4300,
4014,
-2139,
1699,
1429,
938,
1427,
-2128,
458,
-2284,
-2714,
1306,
234,
2334,
-5632,
549,
1741,
-1415,
-362,
2650,
-1079,
2639,
-1642,
487,
2137,
-1909,
2756,
2450,
2365,
3261,
5630,
-2143,
2955,
-1729,
-2147,
-4999,
-927,
-1633,
-1596,
2105,
2714,
1683,
108,
26,
3105,
-1241,
2451,
-5768,
2114,
3304,
-1557,
2273,
2072,
1340,
-4414,
-2639,
-2548,
-3656,
2234,
4143,
-469,
-1802,
3452,
3433,
4113,
-3446,
-1010,
-1643,
2372,
1018,
1593,
3449,
1531,
-447,
-2219,
614,
866,
-839,
-2148,
1716,
3991,
-2235,
-2695,
-2060,
-2803,
2615,
33,
-5522,
-3638,
-565,
109,
-3664,
-268,
3231,
-7880,
460,
-1704,
1060,
1846,
-1902,
-1466,
-1193,
-3579,
-167,
-1593,
-1353,
2426,
-222,
-1972,
-5288,
410,
2818,
97,
3022,
-2037,
652,
-1830,
-3038,
-171,
5155,
1154,
3778,
-909,
4509,
-173,
-1459,
-1802,
-3368,
-1935,
-2586,
1054,
1085,
-7386,
668,
296,
-2953,
-1886,
-1272,
3014,
-2849,
-1346,
1338,
3448,
-2808,
-2965,
2267,
2082,
440,
2393,
-1541,
-2259,
701,
4665,
2360,
-2478,
-3703,
-1631,
-2572,
2229,
251,
1466,
-428,
4582,
-2171,
4672,
-1204,
-2642,
-3939,
2929,
-5663,
1795,
-4519,
-139,
-374,
-5258,
-4900,
-2315,
-419,
2356,
-2571,
3080,
142,
1412,
-4582,
-838,
1568,
-208,
-2674,
3060,
-1056,
4788,
-3338,
5324,
-4018,
2053,
-4286,
-1083,
-1009,
-2035,
1998,
2340,
-3175,
1847,
-3081,
647,
-5287,
-2034,
-2922,
-1204,
-115,
627,
2845,
-4739,
4238,
-2918,
-264,
-781,
-2043,
2356,
4884,
4379,
-621,
-372,
1502,
2714,
-2106,
1460,
3581,
-203,
-3216,
-513,
1498,
-343,
-1560,
-2662,
-1036,
1344,
-1181,
-1915,
1490,
-1651,
1701,
-632,
2088,
-969,
2675,
-2001,
506,
2118,
-152,
-2792,
1278,
-3839,
-62,
-3945,
-3017,
1388,
-389,
1241,
403,
713,
525,
2243,
-2097,
-2600,
-1096,
-179,
230,
539,
1771,
2382,
350,
1340,
-110,
2929,
-1597,
-217,
1139,
1215,
-1809,
2701,
-1713,
-2167,
1864,
2514,
1942,
-860,
-3537,
-65,
-1991,
1519,
2200,
675,
-1741,
-2075,
-3199,
-1343,
3945,
-2685,
993,
3077,
-98,
2374,
-2947,
-1168,
-1510,
3674,
-1232,
463,
-2428,
945,
1295,
3022,
-193,
-357,
-1011,
1134,
1947,
-2441,
-2801,
3947,
-3287,
727,
-1030,
-3427,
433,
-2763,
542,
-631,
-922,
2012,
1122,
-3727,
401,
-2286,
4121,
327,
1461,
2581,
1725,
160,
298,
3157,
-1831,
-1087,
-356,
1639,
-2149,
-1401,
345,
-13,
209,
2733,
-1775,
194,
2017,
317,
237,
2638,
-883,
2154,
-1091,
1187,
2657,
-769,
851,
-2085,
1399,
1173,
-2666,
2475,
-300,
-3023,
1237,
1069,
-916,
595,
-1948,
-3521,
-668,
-4,
684,
2084,
294,
-766,
-43,
-1786,
822,
1569,
-2474,
1438,
1392,
161,
2220,
-530,
-2808,
1027,
-36,
-1089,
858,
1855,
-1553,
-587,
-425,
1917,
1721,
32,
1154,
-1502,
-645,
-2255,
-498,
246,
-1538,
-2696,
1478,
-2764,
-1163,
343,
-1099,
-404,
1554,
742,
-87,
-2620,
1124,
957,
2784,
208,
-2395,
-1956,
-2315,
2110,
-1505,
3026,
1926,
-678,
-2382,
-1649,
1660,
-639,
2757,
-2057,
-787,
1621,
-571,
290,
1389,
-2833,
-349,
-2358,
-2836,
-2599,
-2999,
-2281,
3346,
-598,
-1681,
2088,
762,
-2981,
-1121,
-6,
413,
-568,
-1365,
2139,
-3334,
-2978,
1423,
-2564,
3198,
4033,
-1906,
-2006,
2001,
-601,
-245,
-2604,
3630,
-603,
-2075,
-279,
-1444,
-1702,
-756,
-1387,
1822,
1379,
-2031,
47,
1350,
1079,
1533,
5431,
2002,
1066,
-4166,
396,
-1174,
165,
409,
2081,
4267,
337,
1931,
3645,
3239,
2335,
-347,
1233,
-2615,
-3727,
3561,
1703,
-2707,
826,
3012,
-1001,
-3044,
-1662,
1626,
2140,
-3263,
583,
2429,
-2829,
-2391,
2535,
2974,
-3114,
4017,
-1900,
931,
-348,
2359,
-812,
-1804,
-623,
-2827,
-5152,
4982,
-2907,
689,
1702,
368,
1839,
4061,
-577,
2730,
-2924,
1017,
-1793,
-795,
-3074,
-4086,
4955,
-5464,
-3848,
0,
-1356,
1656,
3535,
-2606,
-519,
361,
-1189,
-343,
2459,
2598,
1782,
3,
2545,
-4490,
2177,
-5452,
-2294,
1817,
-2309,
760,
679,
153,
-3387,
1831,
3134,
892,
-1279,
3494,
1409,
-2777,
-2539,
-1039,
-2788,
4652,
3335,
672,
3889,
3200,
-2800,
-1784,
-2453,
626,
1732,
2888,
-1834,
3211,
-2554,
2564,
1273,
-61,
-1331,
2217,
-611,
1136,
-196,
2369,
-2919,
-3042,
631,
2767,
1536,
1835,
-1182,
-451,
-1140,
2650,
-2440,
881,
679,
-2491,
268,
2552,
-1519,
-1667,
2944,
1605,
2127,
-1344,
-1286,
2373,
-796,
3218,
253,
-329,
-1669,
1957,
1399,
3343,
-1866,
1650,
3136,
-1461,
1033,
129,
-1579,
-1620,
1940,
3672,
-1743,
-619,
2636,
-2332,
-1933,
1169,
3377,
3353,
-710,
3268,
-1543,
-2834,
3304,
-734,
2231,
-3068,
2933,
2298,
-3340,
2655,
-690,
2898,
2966,
-2526,
2971,
1730,
1365,
-2440,
2306,
-32,
935,
-602,
3933,
-650,
-3228,
1992,
2229,
562,
-1098,
-808,
1639,
-615,
-1028,
180,
628,
-2338,
-1887,
-2080,
-492,
-251;
