memory_initialization_radix=10;
memory_initialization_vector=
-1761,
1366,
1529,
2472,
1570,
379,
1139,
-453,
-878,
1339,
-1405,
-305,
-2747,
-1633,
-6,
1242,
1727,
869,
1414,
1060,
-3571,
-2197,
1806,
-653,
382,
-1303,
-3085,
499,
-2121,
-379,
991,
1292,
2006,
2186,
-1719,
2190,
1238,
3635,
1611,
-1247,
-2097,
-3277,
1787,
473,
319,
-1657,
109,
-343,
-1946,
-1470,
14,
-1889,
1444,
-1255,
-1875,
270,
570,
2158,
1192,
-1591,
-300,
2665,
-238,
-776,
1369,
-1866,
-2037,
349,
-895,
811,
-1782,
1546,
486,
291,
-819,
-1151,
-201,
-537,
-617,
-1040,
253,
720,
-521,
1058,
-81,
-508,
911,
-1491,
283,
1386,
-309,
1599,
-267,
-2102,
239,
-522,
780,
-225,
-2018,
327,
1152,
-225,
539,
-1112,
70,
-1095,
-964,
-2868,
-852,
3243,
-2125,
-3148,
-2284,
-1698,
1187,
-754,
1075,
-839,
1182,
-834,
117,
1679,
-2200,
435,
383,
-11,
-2121,
-2405,
748,
2044,
123,
1537,
1038,
1104,
1652,
231,
2666,
-893,
1975,
-857,
-2640,
-1476,
726,
-520,
1134,
-2602,
1508,
-1015,
289,
246,
712,
256,
-103,
141,
2177,
1591,
486,
2086,
460,
1305,
480,
-1482,
-1473,
1102,
-979,
1301,
-1326,
780,
-880,
1699,
2105,
-1221,
-348,
-309,
718,
789,
1461,
557,
1500,
768,
-1803,
727,
-1208,
-411,
-465,
-525,
926,
2246,
1440,
732,
-21,
-247,
1734,
-683,
729,
102,
1476,
700,
-104,
734,
256,
198,
887,
1409,
-573,
1552,
988,
1403,
-2058,
-2921,
2257,
728,
248,
-1299,
-531,
-634,
-610,
420,
44,
-871,
658,
-2335,
146,
226,
-8,
-290,
-9,
-735,
1567,
-946,
848,
-300,
-437,
177,
-281,
1231,
1263,
-1266,
-2976,
-3811,
114,
211,
-1947,
1610,
51,
1713,
3000,
2177,
1217,
-1155,
718,
1280,
1322,
-973,
-898,
1458,
4251,
457,
1295,
-1493,
-1579,
275,
-2377,
-576,
469,
1612,
2440,
-2154,
514,
-1884,
1226,
-1444,
-396,
675,
-1195,
-1096,
-2952,
-581,
-2572,
-1097,
0,
-360,
87,
-2421,
563,
2342,
2725,
3700,
970,
2824,
1054,
-994,
811,
413,
839,
-2187,
-1874,
418,
243,
-71,
-71,
-657,
421,
969,
1526,
543,
840,
329,
90,
-760,
2576,
178,
-1081,
-493,
709,
3412,
-2000,
-168,
-514,
2163,
-737,
-2327,
-1361,
-919,
-475,
-898,
2824,
1919,
294,
2074,
-1085,
3686,
-92,
552,
1237,
-191,
-1378,
-3230,
196,
-2078,
769,
2222,
-1302,
-1640,
-384,
163,
789,
-2597,
-17,
558,
-92,
-825,
1083,
-225,
-1605,
-622,
-1275,
-2898,
-1223,
993,
2428,
127,
-2660,
-118,
-1371,
130,
2070,
-2443,
-710,
-1067,
1447,
-2475,
-1183,
-1657,
1401,
361,
2479,
1826,
408,
-226,
-292,
425,
-2462,
-2698,
-110,
-386,
86,
-1540,
-701,
-2918,
861,
3077,
-1476,
-76,
-1066,
1093,
1210,
-1276,
-2020,
177,
886,
3150,
245,
310,
-2458,
369,
2155,
1924,
2745,
2261,
-972,
457,
2308,
2691,
924,
-201,
136,
735,
1520,
1779,
1107,
-2346,
-1810,
1305,
-948,
889,
693,
-483,
2490,
-653,
1838,
2594,
353,
349,
-894,
1351,
-212,
-1119,
1084,
604,
2866,
-828,
549,
-56,
-2311,
127,
-1305,
432,
839,
551,
1212,
-2004,
-2788,
23,
-2076,
1073,
43,
-136,
944,
709,
1293,
1077,
1881,
854,
-1028,
610,
-516,
853,
850,
-1150,
31,
474,
1736,
1025,
-1582,
-250,
-30,
356,
-913,
-282,
283,
1074,
55,
1766,
840,
-478,
-409,
857,
-1179,
117,
1349,
-1787,
1637,
-589,
665,
-390,
-1769,
850,
-185,
-1632,
-1161,
2396,
935,
-284,
800,
-1069,
-501,
-1266,
530,
-168,
82,
910,
-1580,
1725,
1265,
1151,
3651,
2558,
-1325,
-1714,
2261,
-727,
1296,
-987,
-1242,
-1948,
-4698,
-1272,
1771,
1817,
1499,
2050,
4410,
128,
440,
-443,
723,
1542,
-1665,
1653,
2042,
1619,
416,
37,
-1666,
2557,
556,
1311,
-257,
-764,
2312,
1394,
1281,
741,
-522,
1341,
1677,
-1141,
-206,
1691,
1785,
872,
-65,
-528,
317,
2860,
1912,
-227,
1612,
702,
-1306,
-818,
-340,
-1389,
-482,
1467,
1597,
1037,
759,
88,
-571,
2158,
391,
1047,
1348,
-470,
-129,
-1591,
509,
-1395,
356,
-126,
365,
-768,
-1910,
2139,
1579,
801,
-1557,
-1383,
-1250,
-985,
-1529,
2096,
-442,
546,
-190,
-446,
-108,
632,
-19,
-1624,
418,
-2200,
-689,
-161,
-1525,
-2991,
-893,
-293,
1567,
-1784,
-1025,
1327,
845,
-935,
18,
-687,
254,
574,
-1519,
-2169,
-599,
-1232,
1295,
996,
-109,
2674,
1744,
-275,
-443,
408,
983,
678,
-790,
-1405,
-2534,
-451,
-182,
229,
24,
-2608,
-1412,
296,
1731,
-937,
-3165,
-1782,
998,
-744,
-289,
-662,
-296,
-2360,
1353,
301,
-1279,
1820,
816,
3,
-738,
-1234,
-210,
373,
1895,
-966,
-1387,
-4441,
-1417,
-121,
-1137,
202,
654,
3368,
2691,
-182,
-1976,
-149,
1987,
-1782,
27,
-2231,
-563,
353,
-224,
2489,
1262,
1110,
921,
372,
-2509,
-1077,
209,
333,
-687,
-2214,
-1940,
28,
-656,
1900,
-1825,
-2032,
-1814,
-535,
1881,
153,
-1018,
-1113,
-1598,
-50,
-2072,
-174,
-2267,
900,
1888,
-765,
-1348,
-415,
1391,
390,
-3507,
-2241,
245,
992,
998,
-873,
-1656,
-1379,
-826,
-2110,
253,
-1651,
1900,
-911,
1578,
289,
-1475,
-320,
-9,
1046,
-3129,
-774,
216,
-911,
599,
-1086,
-2796,
133,
-1244,
1659,
-2369,
659,
95,
-1868,
723,
-2253,
-1166,
-2262,
-1211,
346,
-1871,
2001,
-854,
1382,
1246,
6,
-969,
-2150,
-704,
-1886,
-2256,
-2035,
1419,
1962,
2352,
-3467,
-2443,
1570,
372,
1233,
-2606,
-650,
-1019,
1400,
-1268,
-1178,
-322,
360,
-25,
619,
203,
1315,
-2178,
-3677,
-1761,
888,
771,
-957,
-4803,
-4117,
-225,
2875,
4747,
2377,
2636,
-1312,
-2833,
-195,
3534,
3196,
1951,
3511,
1591,
-107,
6170,
848,
-80,
1087,
-887,
-431,
164,
1041,
-1760,
-1912,
362,
519,
1406,
-2381,
1391,
3330,
600,
-1187,
1471,
1796,
450,
1029,
996,
3024,
1481,
1112,
1020,
2386,
-621,
1486,
1022,
-958,
-243,
-2399,
-1072,
-508,
2268,
-867,
251,
-737,
1386,
1232,
1609,
1244,
-231,
1511,
2177,
-2013,
988,
-937,
533,
1413,
53,
-2098,
-1670,
1938,
847,
-981,
-206,
-1390,
-284,
314,
-1633,
742,
-778,
-400,
-1918,
-7,
-1331,
1009,
-1033,
788,
835,
-2945,
689,
1575,
536,
3583,
-1100,
1242,
222,
-193,
1688,
1493,
-2608,
-2406,
-1850,
1518,
1681,
-1852,
1605,
-1043,
194,
2198,
147,
2317,
11,
-135,
100,
1376,
617,
1044,
640,
-968,
-3112,
279,
852,
325,
-2874,
-3229,
-3466,
3373,
-653,
-1331,
65,
1023,
2851,
344,
2353,
-313,
1154,
543,
-2105,
628,
780,
-957,
695,
-2128,
-499,
-2158,
-1702,
1190,
477,
17,
-1756,
1894,
1416,
-88,
-928,
-1308,
1606,
-1092,
744,
-1506,
69,
-2127,
177,
-1005,
-885,
416,
-2246,
-290,
-2280,
-784,
-2012,
-1586,
177,
553,
711,
-1796,
19,
-375,
2773,
135,
2351,
3590,
-350,
-1330,
1383,
1835,
1638,
-294,
1189,
2459,
1199,
174,
-355,
-682,
1563,
-518,
527,
-416,
-1326,
966,
984,
1219,
-37,
-557,
-1608,
1622,
-824,
1873,
-635,
4335,
-3682,
-3891,
-1610,
-1296,
-1460,
-3977,
1050,
-352,
287,
-1753,
-921,
-211,
-208,
1326,
-1964,
-188,
-1563,
1106,
-2172,
-1926,
2859,
2325,
-299,
-665,
580,
2606,
-1773,
891,
-1309,
768,
473,
-170,
-554,
1703,
-1173,
323,
1826,
-549,
1084,
-1243,
319,
768,
-478,
840,
-80,
89,
1055,
3001,
3507,
-431,
-609,
1022,
2561,
-469,
1983,
-502,
733,
65,
2914,
1215,
-1509,
1295,
-261,
-1792,
1126,
-370,
939,
1481,
2448,
1084,
2173,
-181,
468,
2687,
-1730,
-1393,
1302,
1146,
1667,
-180,
-2237,
-797,
-39,
-167,
-1216,
-568,
652,
-712,
-769,
954,
776,
-1010,
-1084,
-388,
2610,
-1394,
-105,
1614,
438,
-2210,
-705,
-1754,
2667,
1326,
-329,
-585,
-2066,
108,
-1075,
1469,
1103,
-898,
-332,
-361,
2153,
3419,
458,
-1921,
-1633,
551,
1846,
441,
632,
1043,
684,
-910,
1245,
1785,
971,
-2173,
2839,
2008,
2005,
120,
1044,
-740,
1355,
-2316,
62,
51,
1564,
-2493,
-2087,
-1179,
45,
-319,
-228,
1610,
2380,
2011,
-819,
-2119,
1359,
-195,
128,
-1343,
465,
-1014,
-800,
-3753,
-3468,
-3423,
41,
-1038,
248,
572,
1793,
-377,
586,
2838,
4264,
-184,
-397,
2391,
177,
-2736,
-2283,
629,
3116,
-636,
622,
440,
-1276,
-1068,
-5118,
-3526,
2895,
1046,
-389,
-3787,
-2170,
2950,
2061,
2018,
1654,
2602,
3798,
998,
-705,
-3004,
1976,
1497,
-811,
-1871,
-242,
-1592,
1553,
1420,
-2899,
-4119,
-1564,
-2482,
-1068,
859,
1779,
2606,
1087,
-1007,
60,
1851,
4035,
962,
-1419,
1162,
-753,
1810,
-759,
-1163,
-399,
1436,
796,
-1286,
-156,
694,
2048,
616,
1124,
-1966,
-206,
-960,
2530,
-540,
-1349,
-141,
-313,
1800,
-1659,
921,
-157,
-947,
-1041,
491,
626,
-1067,
-1491,
-847,
-773,
-804,
-923,
183,
2148,
1887,
1839,
888,
-677,
95,
-62,
624,
1705,
-994,
1325,
196,
557,
730,
391,
-1199,
-2220,
-1133,
-513,
84,
1203,
-355,
1945,
-395,
-3388,
-246,
-1182,
1948,
-2452,
-4583,
-5568,
1477,
-1519,
-853,
-1203,
-1655,
-641,
715,
1912,
-450,
1090,
-2374,
60,
2985,
3237,
1171,
-979,
574,
-1283,
-307,
254,
884,
1268,
451,
-1973,
1528,
-182,
2151,
-1240,
-1192,
434,
-2219,
-2712,
-2401,
-734,
-2451,
398,
-1284,
-1911,
-898,
-1988,
-561,
150,
-804,
-359,
2003,
306,
1172,
-1657,
95,
283,
1392,
-1516,
-1213,
-760,
-220,
-948,
953,
-2171,
-514,
1047,
-1704,
682,
893,
-28,
992,
310,
-586,
-2979,
-2007,
436,
753,
815,
-862,
976,
1785,
2463,
1118,
-263,
542,
778,
1979,
1901,
582,
164,
2721,
-417,
264,
210,
887,
-271,
1028,
905,
1963,
3599,
1185,
1317,
762,
493,
971,
1648,
272,
-651,
332,
1741,
-1835,
-2751,
-364,
-1739,
667,
-1354,
-856,
1380,
-663,
-1133,
-125,
-1445,
894,
1077,
-958,
-603,
230,
-1233,
793,
-1400,
1992,
2315,
241,
-1165,
-476,
-762,
696,
-679,
820,
1985,
1671,
-677,
-1694,
-2583,
591,
2159,
1012,
2438,
3351,
2930,
1484,
1091,
-239,
3360,
1160,
2704,
1457,
527,
-1096,
1797,
-1754,
-1978,
-418,
-2828,
518,
-631,
-690,
-544,
285,
-1061,
-1436,
601,
-1284,
-730,
-1331,
740,
2536,
1267,
46,
4861,
1623,
2128,
2037,
1105,
640,
1263,
1729,
1742,
-2275,
-879,
-383,
236,
-1594,
-3881,
-3721,
-1199,
-654,
-226,
-75,
1622,
2678,
-828,
1371,
-823,
-845,
-211,
-170,
-37,
2509,
-787,
-1266,
61,
-840,
2759,
-103,
28,
-1740,
-530,
2558,
1092,
1303,
-393,
3404,
1658,
-241,
2314,
1530,
-34,
1748,
-2008,
-4044,
-675,
1503,
742,
-1593,
-1464,
345,
-566,
776,
3356,
104,
-1861,
1034,
1891,
4009,
-2411,
-1564,
137,
166,
3086,
2247,
2457,
659,
-231,
1155,
-481,
-837,
1043,
1733,
429,
-2159,
-716,
-1492,
-194,
1272,
-2564,
376,
-319,
132,
687,
-1698,
-1096,
-552,
700,
-44,
2354,
3832,
759,
-603,
427,
2419,
3273,
20,
1144,
2324,
312,
-3065,
430,
7,
607,
-2787,
-1713,
-799,
763,
1269,
-1955,
-2297,
971,
1248,
1738,
-275,
-2062,
1232,
-258,
1058,
761,
-579,
372,
-265,
-776,
1973,
-29,
-100,
-2090,
-1520,
-3540,
-2030,
-913,
1946,
2507,
1426,
3080,
-707,
-121,
-1711,
-578,
-1418,
-871,
-2307,
-2149,
-2115,
-614,
-1345,
399,
-2272,
-819,
-1535,
2413,
-767,
-49,
664,
560,
455,
1158,
1179,
899,
1603,
1694,
387,
-903,
-519,
149,
2840,
38,
600,
1137,
-1025,
-1452,
43,
-759,
844,
-793,
364,
921,
-907,
-809,
1730,
632,
2270,
-331,
376,
-490,
410,
641,
-1782,
1291,
-402,
868,
830,
-1382,
1378,
812,
359,
745,
-810,
894,
104,
-557,
-675,
926,
1806,
-1753,
-840,
746,
-232,
-1214,
1407,
-2586,
845,
2150,
-357,
-174,
-1984,
-2878,
-550,
325,
-1654,
263,
-802,
327,
-2530,
-2370,
-921,
-461,
77,
-2593,
-864,
-229,
763,
1925,
-536,
-858,
1977,
-48,
1493,
596,
-1679,
1479,
-1135,
-1084,
-2352,
360,
-1506,
815,
653,
-655,
1066,
1836,
-106,
2428,
-1491,
2905,
-315,
1558,
-625,
276,
508,
-1216,
628,
-1569,
-583,
-1163,
-1418,
-218,
-1062,
-921,
805,
-407,
880,
-770,
-709,
-319,
-625,
1755,
-1203,
1452,
-98,
292,
1009,
-398,
802,
758,
263,
1497,
-633,
542,
-2231,
-973,
-344,
55,
1372,
695,
-696,
-498,
1022,
-1177,
377,
-1083,
340,
504,
-377,
994,
-1428,
1130,
2978,
1839,
-5,
1237,
-744,
803,
176,
-224,
-1049,
-188,
-796,
208,
-248,
305,
-568,
-311,
928,
-538,
-1085,
-812,
1240,
2370,
37,
1105,
94,
-460,
-1163,
396,
89,
1272,
326,
-528,
982,
114,
-309,
823,
556,
396,
-527,
-336,
-1540,
-185,
784,
-1506,
-1726,
-839,
-1354,
641,
-227,
-1219,
-331,
1172,
164,
-1304,
906,
-1501,
-1766,
1351,
-426,
290,
279,
-813,
-1414,
-119,
-1398,
293,
-718,
1746,
-1246,
-1579,
-83,
-1150,
1520,
-1476,
-492,
810,
870,
-1430,
1208,
614,
-437,
-321,
-352,
422,
1054,
-838,
-1923,
1054,
551,
-319,
481,
-556,
-1455,
1043,
45,
-1206,
351,
996,
-343,
2960,
2337,
2308,
1753,
630,
-748,
-444,
-1219,
872,
-1444,
-1682,
1378,
-681,
-1440,
-1596,
93,
-329,
1456,
1678,
-2055,
-195,
93,
-1080,
-1841,
-1521,
606,
178,
-2857,
-1562,
413,
827,
-1448,
-579,
-1340,
-1199,
-751,
1661,
-822,
-250,
19,
-1084,
-1,
-1069,
1285,
-1032,
-1410,
-1771,
-1366,
-1434,
380,
-17,
-624,
-387,
-1179,
1493,
-363,
835,
1323,
752,
27,
-975,
860,
-609,
258,
-636,
-1761,
677,
-567,
-1306,
-1489,
-1295,
1296,
1419,
-1233,
-784,
-270,
766,
-853,
-1429,
1649,
1225,
684,
505,
-1852,
-210,
598,
-445,
-172,
2090,
-447,
-47,
1173,
1241,
-1025,
-2341,
-1783,
-2235,
-1114,
2099,
243,
429,
1920,
-360,
1375,
968,
1190,
-1078,
0,
-1569,
-31,
1527,
958,
118,
-419,
-249,
1438,
66,
-2053,
-140,
-566,
-145,
706,
2,
-692,
2081,
2407,
1020,
2135,
2991,
-354,
-924,
-2681,
460,
92,
1683,
-1528,
-23,
-2179,
-1467,
-1076,
-1384,
579,
-706,
-1576,
2244,
2208,
-931,
2907,
1629,
-267,
-1244,
446,
-303,
647,
724,
1335,
-1054,
450,
1158,
915,
2694,
-509,
-224,
1322,
-634,
-1158,
2151,
-137,
-828,
1494,
1387,
-994,
-148,
295,
-418,
1934,
-1624,
-656,
-210,
717,
-90,
849,
410,
-689,
-243,
728,
-794,
-780,
-487,
-324,
-258,
-1216,
-737,
-367,
535,
1473,
1218,
-642,
-1130,
-1591,
-1632,
-803,
327,
-943,
518,
-2774,
-2130,
-1030,
1123,
-523,
-2917,
-1514,
-945,
-797,
-2216,
-2931,
-2638,
-1494,
-2014,
-1688,
-466,
-1684,
-2020,
-832,
431,
-1994,
316,
-1188,
-653,
-1049,
1927,
583,
2550,
1564,
-913,
1496,
-87,
874,
444,
344,
319,
-868,
610,
1786,
261,
155,
1088,
955,
2186,
1340,
-1201,
-1101,
1348,
-251,
59,
1064,
-765,
1118,
1465,
1672,
-516,
-116,
-1066,
112,
-1583,
-175,
291,
1063,
461,
-699,
209,
1178,
-1107,
1384,
-1550,
375,
-766,
-649,
-1186,
457,
457,
962,
-1060,
1304,
1701,
1994,
369,
-1915,
-1554,
-1238,
120,
-172,
-484,
-935,
1468,
546,
-415,
2912,
280,
53,
883,
1759,
2104,
-67,
-202,
1105,
1413,
1842,
-806,
765,
1017,
744,
2930,
1069,
-859,
-225,
1146,
1261,
-1883,
-1522,
-1617,
625,
55,
-763,
42,
2079,
-407,
-2181,
63,
-1346,
433,
471,
1464,
1675,
-540,
-233,
1843,
783,
-685,
602,
1343,
-1659,
-1308,
-569,
-760,
718,
-160,
521,
-1077,
-888,
903,
-827,
-1063,
-596,
802,
-1567,
-953,
1093,
895,
-570,
-2774,
-660,
504,
-427,
-776,
-2796,
2594,
-1047,
262,
-1305,
27,
995,
-879,
-1020,
857,
-242,
923,
260,
-397,
-876,
-278,
2313,
560,
815,
757,
643,
1147,
-55,
-1802,
-743,
1962,
830,
-1576,
-313,
2260,
783,
1142,
102,
1427,
1800,
-940,
-494,
-1061,
-1545,
279,
564,
-420,
861,
1504,
-1043,
-1799,
555,
1251,
892,
-2871,
-2223,
1648,
1671,
-1223,
-1890,
-270,
424,
451,
-808,
-729,
-620,
1099,
-586,
-378,
655,
-316,
-225,
1411,
119,
56,
-2226,
884,
602,
12,
-1365,
-3087,
868,
-784,
-654,
-966,
442,
-1062,
-2367,
-1739,
-347,
384,
-999,
-134,
-1718,
-408,
-1631,
-197,
-667,
-647,
686,
-3896,
-491,
-324,
311,
-2131,
-1533,
-1396,
-305,
439,
446,
-4,
258,
-1346,
-394,
-112,
534,
532,
-1848,
227,
72,
-1516,
413,
95,
2664,
-623,
-994,
-250,
-55,
1045,
760,
-562,
735,
2116,
-1220,
-953,
1884,
1584,
-1821,
344,
1791,
956,
287,
-1774,
-905,
583,
-138,
-97,
2534,
1336,
-404,
830,
-687,
467,
3114,
759,
-2043,
-966,
-160,
2229,
-1678,
-2574,
-76,
-3146,
-2834,
-2377,
-2687,
-360,
3876,
-2433,
161,
-3345,
-2386,
513,
1841,
-1067,
-3183,
1840,
4088,
1314,
-532,
-3373,
2588,
3291,
726,
2011,
-826,
264,
1277,
-1467,
2171,
-173,
-1166,
-3397,
1340,
-31,
-1057,
1042,
487,
581,
1693,
1950,
259,
395,
-627,
-264,
-159,
1471,
-682,
1233,
-1531,
-140,
-1905,
-2079,
-1184,
-15,
478,
1271,
-1685,
946,
856,
1535,
173,
813,
1284,
557,
-245,
180,
-483,
-1662,
164,
574,
-1113,
-3383,
-2333,
-841,
-1400,
752,
-491,
504,
378,
-1526,
1612,
-362,
944,
-238,
-4133,
-2266,
-302,
663,
-912,
-2861,
-3766,
1206,
1861,
-925,
1860,
2904,
4745,
1191,
1579,
883,
3295,
-345,
-1055,
3205,
-19,
-1873,
-7189,
-5079,
-759,
-3,
1814,
939,
272,
-1232,
-1451,
3501,
3283,
2143,
-2582,
584,
255,
-1433,
-739,
-969,
-341,
-946,
-1751,
-567,
797,
1212,
1663,
1893,
615,
-448,
1626,
5,
-395,
2299,
335,
-1984,
-1298,
1381,
955,
481,
617,
293,
-1083,
-1629,
2455,
-95,
-779,
-477,
273,
2066,
666,
-2785,
-77,
2741,
274,
940,
315,
344,
-1800,
1238,
-1594,
-88,
3050,
1117,
-1980,
563,
1493,
768,
-3050,
-1667,
604,
34,
-1155,
-4346,
296,
-810,
-1019,
-1038,
547,
-182,
-90,
-59,
1354,
-22,
943,
2709,
1465,
-1057,
-1053,
-547,
-290,
136,
-1793,
-1150,
-1229,
196,
-952,
-3271,
2347,
88,
-1007,
1163,
6065,
3007,
-377,
-590,
-691,
1065,
1336,
-502,
-1545,
-1659,
1645,
193,
2053,
-795,
853,
2312,
-1077,
947,
-381,
-1776,
-2940,
71,
459,
-2184,
930,
749,
2797,
1013,
-3457,
-1370,
1083,
-1772,
-159,
1599,
2604,
-1428,
-1060,
2053,
289,
2549,
-2652,
-1395,
1841,
108,
1770,
-768,
1037,
-1280,
-2446,
-1981,
235,
835,
647,
-1583,
996,
155,
-2064,
871,
1432,
2127,
4128,
-547,
-1545,
-3593,
3464,
-84,
722,
-2999,
-408,
126,
-97,
-337,
-1791,
-2284,
1676,
-734,
-565,
-184,
-733,
-542,
1699,
835,
1414,
706,
111,
450,
1944,
-759,
3449,
-2541,
-1657,
1378,
-231,
2778,
-2126,
172,
2235,
-677,
-761,
-1094,
1231,
3943,
45,
-1084,
-1572,
-3417,
-1794,
1138,
895,
-999,
-2675,
83,
235,
-570,
2124,
-3181,
-256,
69,
-1960,
532,
613,
230,
-2094,
-2762,
-948,
2095,
-2250,
2284,
1283,
-1447,
-815,
-2405,
693,
-117,
1326,
-3119,
364,
841,
2846,
1446,
-3147,
-422,
-1875,
2578,
-487,
1569,
-857,
-2121,
1223,
119,
-2,
-1111,
-138,
372,
2319,
2041,
-50,
664,
170,
-535,
209,
399,
196,
-850,
2198,
737,
-2732,
367,
-3307,
2374,
-452,
-1796,
-1079,
-1831,
240,
4177,
885,
-1327,
-1155,
-236,
-925,
745,
-1373,
-569,
234,
233,
1271,
-1520,
-1998,
-578,
-3863,
-4033,
-613,
1086,
-2570,
-1710,
-928,
317,
-586,
-1185,
-247,
-5332,
2292,
2904,
2066,
2269,
1680,
2093,
-392,
-3320,
-797,
1434,
-181,
-3498,
-5569,
-4111,
-2910,
-986,
-1322,
-2013,
-2434,
-1214,
1554,
480,
-1538,
-1496,
499,
-2551,
-1110,
-393,
-299,
138,
-142,
-1038,
-245,
-1847,
-1293,
167,
1615,
870,
1771,
-185,
-1917,
-2380,
2120,
617,
1215,
-1229,
-935,
2096,
-1021,
-1354,
591,
-599,
391,
1147,
-1504,
831,
-920,
-841,
1124,
-471,
-523,
126,
-920,
1011,
304,
-796,
-522,
-360,
679,
1436,
-499,
-1520,
251,
1501,
1308,
-1149,
-384,
2381,
1608,
663,
940,
-879,
191,
2391,
2695,
-2144,
-3715,
-2674,
-999,
-599,
-943,
-85,
-3410,
-883,
209,
2052,
120,
-1722,
-2645,
-2023,
585,
84,
832,
1813,
803,
847,
3257,
635,
788,
509,
253,
396,
-2429,
625,
1110,
-1557,
-3170,
-3376,
470,
1133,
-443,
-306,
793,
-386,
-1469,
-1032,
1191,
-1622,
823,
-1130,
284,
-518,
623,
275,
1319,
-329,
-2873,
544,
964,
106,
1175,
642,
270,
709,
1881,
-434,
1305,
-915,
-759,
1886,
-955,
237,
-549,
-1857,
590,
-173,
-1199,
-1251,
-489,
-2370,
-1579,
-2405,
-3437,
-3086,
-1822,
665,
-177,
-1791,
-1334,
-3179,
1867,
1649,
-2069,
-2567,
-1362,
-616,
-558,
-1013,
-563,
402,
759,
-505,
852,
-579,
-819,
-1526,
2048,
2260,
266,
2784,
-559,
1400,
150,
1351,
1092,
-1501,
1612,
-398,
1092,
941,
1080,
1229,
-987,
-314,
1023,
415,
-1608,
-1076,
1717,
432,
1844,
1656,
-701,
1581,
147,
1073,
-556,
1744,
-169,
735,
-1763,
1179,
800,
1964,
677,
7,
-1187,
-903,
-82,
1006,
-2250,
-2172,
-847,
1112,
15,
-611,
1032,
-673,
1289,
1166,
1615,
2066,
-505,
1530,
1834,
-1698,
78,
2036,
-590,
1332,
-550,
-2456,
-77,
2848,
2951,
-480,
581,
2493,
-696,
-757,
-790,
-681,
597,
-564,
-3003,
659,
-740,
1127,
183,
-2748,
13,
1878,
1274,
1142,
-1235,
-329,
26,
-1418,
998,
340,
-2957,
104,
112,
-1067,
2543,
-799,
2791,
2037,
557,
803,
1333,
1118,
334,
1727,
1315,
-1616,
818,
-531,
-286,
-427,
-1198,
342,
1113,
-1657,
-1703,
-1668,
-1794,
-543,
3209,
1600,
-234,
1056,
1994,
4078,
1112,
1745,
1856,
-2422,
654,
-1135,
1788,
-1913,
-795,
-1901,
-1019,
-1286,
-2246,
674,
321,
-1591,
-1418,
-2162,
2986,
2085,
89,
1300,
2946,
497,
1235,
578,
-1975,
-852,
-981,
443,
467,
-255,
1953,
330,
-666,
103,
-483,
-1022,
881,
1590,
633,
-340,
-2836,
1455,
-87,
-676,
-2253,
-213,
2296,
1136,
3460,
285,
-1149,
1940,
1802,
829,
777,
-2230,
-420,
-1087,
-679,
2482,
3174,
1153,
3592,
-1032,
1753,
1054,
1981,
2606,
-1613,
-1244,
226,
-713,
976,
-721,
-2005,
-3562,
2028,
1671,
447,
1890,
-1853,
254,
-1975,
-1160,
-307,
-1405,
-1051,
-529,
574,
-70,
-57,
912,
-3640,
523,
-1584,
-192,
-1406,
3066,
1449,
1138,
407,
680,
757,
-1142,
879,
-932,
2754,
2228,
-755,
490,
161,
-145,
70,
-32,
2157,
2136,
1523,
-863,
-1446,
141,
1920,
1522,
1000,
1853,
-1105,
264,
217,
580,
302,
529,
-1279,
836,
-934,
-1585,
-1441,
-504,
528,
-70,
-1401,
-1,
-1213,
-1681,
2246,
-60,
-905,
-768,
-1677,
-477,
491,
-291,
-705,
-655,
267,
1333,
11,
982,
-1219,
-1708,
-136,
-2434,
781,
2378,
315,
33,
-910,
-4169,
-1115,
-1189,
120,
-4029,
-936,
-939,
-783,
-1418,
-1456,
-774,
3056,
1918,
1917,
1392,
99,
2980,
1116,
-782,
-250,
559,
1456,
370,
42,
2509,
2815,
2657,
-322,
557,
3306,
3206,
2574,
825,
-101,
912,
-1096,
846,
175,
-978,
621,
1148,
289,
-221,
-1266,
665,
780,
-739,
1505,
-852,
1064,
1921,
2061,
-64,
547,
1118,
1249,
-67,
-910,
1334,
10,
2646,
1135,
-1242,
-1390,
-638,
724,
1183,
1365,
-870,
1585,
-506,
2138,
1141,
-493,
1860,
124,
-1330,
415,
280,
547,
433,
361,
904,
1913,
-1437,
995,
-954,
704,
1484,
175,
394,
88,
1733,
953,
-649,
751,
983,
697,
821,
685,
1313,
-476,
1825,
3186,
-397,
-69,
-440,
2243,
1101,
-1450,
-1701,
-918,
-96,
-1556,
528,
-81,
-2247,
-425,
213,
-1131,
-281,
622,
-791,
-1355,
687,
-2030,
-64,
-117,
1245,
54,
1067,
205,
259,
-1221,
928,
169,
22,
2075,
-1487,
948,
841,
228,
2451,
2030,
685,
-2748,
-630,
-413,
860,
-1202,
-3027,
-1260,
2299,
-1351,
-243,
-95,
-681,
-1701,
173,
-51,
-88,
-384,
-9,
1149,
457,
892,
-666,
238,
-1278,
-2056,
-546,
-1066,
-1643,
-2003,
818,
1275,
-1220,
550,
-793,
-1535,
229,
3957,
1307,
1163,
1108,
1577,
470,
-411,
1917,
1131,
2288,
2241,
-104,
2164,
-2489,
-1509,
596,
-1725,
744,
-247,
-2560,
2719,
-1390,
525,
-2029,
1065,
225,
-1466,
-183,
1816,
352,
-2079,
359,
-349,
323,
-1301,
-3185,
-1668,
-345,
332,
-2056,
-1907,
34,
772,
-414,
-2426,
-1376,
748,
-1079,
-3394,
-1890,
-1524,
1695,
-1972,
-1189,
-1280,
-1477,
-1357,
-1390,
-1282,
-1536,
333,
1922,
-5,
781,
-1627,
-1694,
2149,
624,
-2401,
-1936,
949,
809,
-2125,
-2801,
-69,
-1654,
-578,
-1223,
-607,
51,
600,
-58,
-575,
1822,
1172,
-1896,
425,
-342,
1389,
73,
839,
861,
1026,
1250,
1145,
-1088,
1604,
2168,
-1052,
-1090,
2154,
4540,
1194,
-3750,
-1409,
-226,
975,
-2221,
3,
-1707,
-859,
446,
1219,
567,
269,
-103,
2633,
768,
-1181,
-3392,
-2116,
1105,
1964,
-63,
325,
3965,
2628,
-1607,
-1088,
2786,
936,
-531,
-2304,
-1717,
-1755,
1225,
496,
-663,
-1963,
-1389,
423,
74,
124,
-401,
-4217,
3711,
5280,
-174,
-1841,
789,
1419,
-3465,
277,
-18,
217,
-1956,
-2919,
-49,
-65,
181,
-1698,
-455,
-997,
-1700,
808,
1886,
-1626,
-256,
-1561,
665,
-1082,
2384,
-1842,
-3436,
-2396,
-763,
347,
-1051,
-1957,
59,
-527,
1001,
-354,
-1705,
2313,
-479,
181,
305,
-389,
-1245,
582,
1000,
459,
-1696,
-1649,
-1956,
-1155,
-1959,
532,
855,
1355,
-1583,
183,
1139,
-107,
761,
1298,
849,
1128,
-963,
1949,
-696,
-1262,
-1746,
-5264,
1027,
-379,
-1862,
459,
-2006,
-1302,
369,
3130,
2617,
2261,
-1662,
-352,
-114,
2785,
4309,
-54,
-1809,
-1055,
592,
2527,
1740,
-3085,
-476,
-721,
1124,
535,
-583,
-1166,
-2593,
-924,
436,
879,
285,
-3333,
-3339,
-2492,
349,
625,
-1752,
809,
2502,
508,
-1023,
-213,
54,
1211,
-272,
-856,
-264,
-711,
516,
463,
1090,
-2268,
-1451,
-278,
2203,
-997,
-406,
-321,
-94,
388,
348,
477,
1377,
653,
-472,
-992,
1003,
1738,
-820,
-429,
1133,
-2194,
-421,
2795,
1615,
286,
-481,
-105,
2207,
339,
594,
1165,
-343,
1021,
1368,
-2862,
1580,
853,
112,
333,
633,
-1122,
-2126,
-2315,
-647,
-996,
1392,
368,
-1149,
-1899,
-2062,
726,
1825,
2371,
-865,
-583,
-759,
-3218,
-1911,
-640,
-2139,
-741,
-1870,
1629,
717,
-819,
978,
-845,
538,
347,
-1600,
-884,
-633,
1136,
-757,
-1656,
-694,
1293,
1154,
367,
-4,
-1486,
-854,
1824,
-712,
-985,
-1450,
-332,
-1044,
1076,
1188,
-1184,
45,
-284,
60,
-1396,
51,
-362,
-77,
-1,
-2546,
754,
525,
-445,
-2250,
-2582,
-68,
313,
-128,
-1085,
-1224,
-917,
-1390,
284,
928,
-1052,
-455,
60,
403,
-1312,
186,
62,
-1072,
1674,
1348,
560,
669,
-167,
-789,
3883,
-643,
-762,
-3085,
-810,
-2690,
-673,
-2781,
-844,
-1646,
645,
-507,
-2077,
-1230,
1205,
2537,
1369,
1532,
-487,
1529,
-982,
371,
2020,
2451,
-1263,
-856,
1227,
832,
-2909,
-1984,
2070,
974,
541,
-2120,
1854,
1618,
1216,
-1243,
647,
-870,
-2341,
-1445,
-1229,
743,
-1718,
-2309,
342,
3102,
2468,
-1366,
-1742,
991,
2103,
2595,
-1120,
507,
584,
-269,
-526,
140,
2757,
-226,
-2414,
-187,
1912,
-1590,
504,
987,
-1622,
-1233,
655,
-1548,
2013,
301,
-558,
-910,
-1426,
1837,
1871,
1159,
1021,
1463,
-826,
-1491,
264,
-574,
1545,
-2600,
-1102,
1578,
-1101,
-1326,
-1758,
-301,
2109,
2078,
-498,
-543,
1854,
-235,
-502,
-2974,
2421,
-1089,
592,
-458,
-573,
-699,
-1330,
-1847,
854,
838,
-1867,
-3318,
365,
-1360,
-1114,
-1399,
978,
-907,
-515,
1005,
-403,
-1560,
-604,
-1411,
-250,
-1329,
-125,
-897,
779,
1483,
-1249,
-1175,
251,
-1327,
-339,
928,
338,
-318,
562,
154,
-1129,
703,
-1040,
1295,
-1296,
-1121,
-1346,
1808,
-1446,
1374,
-1547,
537,
-715,
-1433,
-834,
1539,
758,
1165,
-1703,
159,
325,
202,
1069,
8,
160,
833,
-1289,
150,
-1134,
1145,
849,
244,
-1513,
-711,
1058,
-251,
-728,
-357,
-395,
-1556,
1268,
1635,
-1151,
-575,
-435,
-614,
1058,
384,
-54,
-1237,
828,
-701,
-1333,
-759,
-1603,
-1053,
-937,
-1360,
656,
1282,
-809,
-1566,
-761,
1304,
-1405,
195,
607,
481,
824,
80,
-909,
1130,
-144,
-53,
932,
-1303,
208,
-1400,
-508,
-1619,
1605,
-336,
428,
-436,
-1502,
-572,
-1252,
-807,
-22,
1432,
-1285,
-1681,
1345,
1492,
94,
-536,
-326,
-975,
-497,
398,
418,
748,
960,
-778,
-903,
-612,
123,
32,
1104,
150,
1259,
-478,
-1571,
805,
64,
-637,
709,
-415,
-10,
-1585,
883,
492,
-333,
186,
-252,
-518,
609,
-1063,
723,
-321,
-620,
-440,
1068,
-637,
-897,
-1051,
254,
126,
-306,
83,
-434,
1447,
496,
955,
309,
902,
-603,
550,
549,
1084,
-57,
-1736,
88,
-317,
-449,
-1455,
-70,
1306,
-50,
1197,
255,
709,
-1225,
132,
432,
781,
304,
802,
1343,
1011,
155,
1398,
-561,
54,
-394,
-1299,
1427,
69,
-1702,
-1467,
-98,
-1324,
-1340,
-1228,
-1293,
-523,
1653,
503,
1349,
-1202,
-522,
-615,
-1653,
282,
-521,
-595,
1613,
750,
-1083,
19,
791,
-642,
783,
1140,
374,
-995,
572,
-340,
-724,
-266,
-996,
-698,
-1065,
-1066,
885,
424,
228,
1034,
261,
396,
-1159,
-614,
-1321,
-608,
1361,
646,
1610,
253,
-721,
-1269,
-1368,
-658,
937,
1425,
1515,
-1204,
632,
815,
-1350,
605,
1451,
-1244,
1019,
1239,
359,
-445,
-23,
1305,
851,
1589,
-688,
213,
617,
623,
1495,
-488,
704,
-221,
-720,
474,
436,
-738,
581,
-24,
1586,
-924,
203,
248,
1166,
73,
-473,
1185,
1542,
1213,
334,
-1426,
576,
-1227,
1429,
-1340,
400,
-780,
-809,
-1515,
-16,
-1318,
1003,
-1112,
-410,
-721,
-353,
1001,
1387,
-375,
1611,
-407,
-128,
-481,
1038,
556,
1172,
932,
-384,
120,
351,
1368,
1101,
-26,
-680,
1528,
370,
-1418,
-576,
-958,
287,
-1595,
576,
415,
-950,
1448,
-602,
1246,
644,
-1539,
1363,
359,
414,
-137,
478,
464,
-128,
15,
-554,
1489,
-980,
827,
-1172,
-1603,
-391,
182,
-732,
69,
1068,
-1410,
-585,
-993,
290,
-169,
1513,
-1358,
-1003,
-463,
1245,
945,
-600,
1446,
-1485,
-1134,
-1501,
-1031,
-1013,
1119,
-1209,
-1719,
80,
-1212,
-841,
1344,
1053,
-189,
-1114,
647,
90,
455,
-1386,
-1365,
1071,
1352,
3326,
1626,
-253,
-182,
-1030,
3587,
3453,
-443,
-368,
-3801,
-3499,
-441,
-407,
-1381,
-7343,
-4771,
-2198,
840,
-1147,
-2641,
-437,
20,
2665,
1183,
613,
438,
2293,
-579,
169,
-1468,
-3322,
-1954,
-1040,
-972,
-31,
-2834,
-1305,
1907,
1118,
3267,
2124,
842,
308,
2460,
1723,
3420,
1318,
-158,
600,
2476,
-1516,
1812,
-1376,
-479,
2389,
-1027,
1392,
2175,
740,
-2023,
-2168,
-1218,
1687,
-526,
-898,
1471,
606,
-1052,
383,
1607,
1915,
414,
1096,
270,
540,
-279,
448,
-1310,
-1630,
1655,
357,
-1748,
840,
-1167,
-106,
126,
250,
65,
-784,
593,
1955,
-605,
-625,
985,
-161,
-598,
882,
-267,
2590,
616,
-1749,
778,
896,
-1531,
43,
3236,
-350,
533,
-214,
-1545,
2034,
895,
-2285,
-1320,
1435,
-1569,
-210,
228,
-718,
3235,
-1104,
-1304,
840,
394,
3228,
2227,
2658,
176,
-900,
132,
-3354,
-1287,
2296,
-852,
-1971,
-3211,
77,
2947,
1731,
83,
-926,
850,
495,
-2282,
2272,
2349,
1989,
-1027,
1233,
1702,
-1553,
773,
-1311,
-399,
1553,
1058,
990,
1626,
1143,
3516,
-1517,
798,
-264,
-216,
-38,
584,
1015,
1048,
-1284,
-433,
-811,
-834,
-498,
-873,
773,
-36,
819,
263,
360,
-2316,
1215,
1533,
650,
314,
-2873,
-1729,
447,
806,
-2400,
-3242,
-438,
1187,
11,
-591,
-177,
2022,
1287,
462,
-1030,
-1205,
-2194,
1301,
1541,
-565,
-101,
-6783,
417,
541,
2210,
-1300,
-1073,
36,
1494,
34,
-204,
4041,
-806,
1335,
1813,
-1463,
-1479,
880,
-887,
252,
-1397,
1154,
395,
253,
88,
-312,
1337,
36,
1434,
2614,
2311,
-2773,
-2067,
1630,
950,
908,
-3060,
-3294,
-1400,
-993,
1045,
1790,
-1212,
1716,
1773,
-192,
-3141,
-235,
2157,
3157,
144,
-1753,
325,
-535,
2451,
320,
1830,
-340,
-2636,
465,
-200,
230,
287,
-617,
-1248,
-1246,
642,
-1142,
-1813,
-513,
1086,
2101,
1723,
-3300,
336,
-1540,
-4032,
-1815,
-2751,
-615,
-3815,
-4554,
-1509,
732,
2218,
937,
919,
743,
1546,
2500,
3834,
3959,
1946,
2222,
-319,
-2602,
-1258,
55,
3428,
816,
-2349,
-1173,
503,
-976,
-652,
1340,
-1292,
-2542,
-654,
-133,
585,
-507,
350,
1214,
1384,
-1343,
-852,
-1202,
1633,
2599,
1433,
-1930,
800,
2468,
3362,
-345,
-1195,
514,
278,
2432,
-3461,
483,
1338,
-708,
401,
1514,
382,
1558,
1238,
-1006,
-298,
-2392,
-2809,
352,
3679,
-1377,
1335,
1484,
3045,
3498,
-1022,
1858,
-177,
880,
289,
-3378,
697,
-166,
-631,
400,
-551,
139,
1888,
1898,
2612,
-282,
-924,
576,
1646,
2391,
1,
1407,
630,
800,
1185,
672,
-3214,
1917,
1870,
964,
-1030,
-4512,
-4170,
-714,
1690,
-2193,
-829,
-1109,
-55,
1426,
289,
-77,
2440,
316,
-2203,
-1298,
-2092,
-1914,
-109,
219,
-711,
-2984,
-3270,
-1746,
-889,
-1474,
1220,
-2437,
-1691,
1291,
1632,
1342,
-1716,
-2350,
-936,
-613,
-1126,
-1410,
-2042,
-798,
590,
-842,
-2183,
-1377,
620,
2590,
1745,
-1718,
1071,
-2504,
837,
1880,
303,
-229,
1096,
-549,
-370,
247,
1039,
1451,
63,
2406,
2278,
1595,
-1970,
919,
-2200,
334,
-61,
-2425,
-1371,
-1425,
-228,
-2920,
-2490,
-924,
-739,
-1344,
1065,
-46,
-1291,
-1099,
-709,
-554,
-774,
-184,
-1068,
683,
50,
-45,
467,
417,
484,
-264,
2401,
271,
17,
-1,
-1705,
1235,
353,
511,
403,
-1267,
150,
-491,
1910,
871,
-643,
-1638,
-951,
941,
99,
-1510,
202,
-283,
47,
1017,
-888,
-1623,
2068,
-1366,
417,
-843,
-1412,
3365,
1513,
-717,
-860,
2335,
545,
1871,
211,
-570,
-1147,
2919,
4594,
1673,
75,
-418,
64,
131,
-785,
-2088,
-69,
-335,
1747,
-488,
21,
-2144,
-2101,
889,
99,
-416,
1449,
-715,
-1626,
-1193,
459,
2205,
-869,
72,
-5,
-246,
238,
-892,
680,
1248,
-253,
-1595,
-180,
770,
-465,
-1227,
-886,
-1813,
-674,
-285,
-925,
46,
1829,
-848,
-768,
2,
1286,
1637,
-314,
-1492,
-1149,
-1677,
-1677,
865,
-1747,
1268,
324,
2309,
214,
-273,
791,
-227,
-149,
-1004,
-327,
766,
2275,
1744,
-626,
883,
313,
581,
560,
-655,
502,
347,
-401,
1697,
743,
-444,
313,
414,
2522,
763,
-1328,
-895,
-370,
-31,
1523,
803,
-29,
1049,
-85,
-943,
-3333,
-491,
1317,
-738,
-1187,
-2603,
-446,
-1638,
315,
571,
-1937,
-536,
86,
-981,
1268,
-673,
1085,
1282,
1054,
460,
-36,
-395,
1075,
-101,
1060,
871,
-241,
621,
-1135,
18,
-761,
-704,
18,
198,
-1731,
201,
-283,
1616,
-1376,
1268,
-748,
-1296,
3952,
-5,
830,
562,
-1955,
-1696,
-1175,
582,
-307,
-1525,
-1983,
-1045,
1016,
163,
-758,
-1208,
3124,
-1526,
-4417,
-475,
-1851,
785,
-55,
-18,
-83,
-2198,
-2224,
-1187,
-1066,
-1920,
-1753,
-1550,
-2663,
300,
-1620,
-644,
-69,
-280,
-1026,
1580,
397,
445,
622,
-870,
2754,
2001,
-606,
697,
690,
1150,
-530,
-1367,
1985,
-1068,
1938,
-1880,
396,
2117,
-2042,
-1302,
-1092,
1091,
415,
47,
-351,
1148,
261,
-1918,
1154,
-918,
1155,
2696,
-953,
-18,
777,
1150,
987,
1138,
297,
45,
-601,
2737,
2860,
-1249,
1086,
-2363,
2588,
1618,
-653,
-297,
2517,
1664,
-2182,
154,
967,
2521,
-1505,
-1642,
1089,
1137,
3018,
140,
-453,
-334,
1417,
-3266,
2601,
657,
951,
-930,
-1743,
1653,
2214,
-459,
1160,
-1331,
2510,
-1302,
-1520,
-1371,
818,
3285,
-2213,
-1752,
-2287,
-2703,
-364,
-1007,
-1612,
-1633,
-1213,
277,
607,
-272,
778,
-2629,
-570,
-1485,
-1692,
-237,
959,
-524,
-1884,
-512,
1273,
-378,
340,
-362,
-799,
-1166,
-1918,
1201,
-857,
2044,
-566,
1255,
190,
1409,
1422,
738,
109,
298,
787,
-111,
-1277,
1186,
-795,
-11,
349,
535,
-1542,
-249,
1442,
-188,
-1331,
92,
1176,
6,
-853,
571,
-572,
257,
947,
-1471,
9,
-408,
1423,
-1785,
-580,
-431,
530,
99,
1242,
-1425,
-868,
1177,
-178,
-804,
-235,
647,
1593,
486,
1152,
-1239,
-376,
-679,
-1532,
240,
-159,
377,
48,
468,
-1019,
-94,
799,
-122,
-1739,
49,
807,
-1207,
854,
1611,
-1133,
906,
-54,
-1351,
-1623,
-1007,
-482,
-286,
120,
944,
740,
-882,
652,
1289,
398,
-785,
1075,
533,
1075,
-906,
-455,
-1300,
-976,
-965,
-68,
-918,
1124,
305,
-1537,
560,
1805,
-520,
57,
442,
-508,
-1653,
-1601,
515,
-445,
506,
547,
102,
-1245,
-357,
-1709,
302,
1265,
1115,
-182,
-180,
-1639,
1112,
-880,
1074,
297,
1240,
-1450,
-1027,
-761,
-1173,
-624,
-833,
-859,
-254,
288,
-1278,
1531,
-36,
1279,
668,
-276,
194,
286,
704,
45,
822,
1202,
-402,
1327,
-994,
120,
1601,
1710,
626,
327,
-753,
511,
891,
575,
339,
-1000,
735,
-1390,
-901,
973,
341,
-1213,
831,
-519,
371,
1319,
-336,
277,
1020,
-799,
-71,
1238,
693,
-774,
-1150,
-90,
540,
1371,
742,
-259,
-21,
1308,
-1728,
491,
-1523,
961,
876,
-840,
-1666,
107,
380,
757,
-1540,
1417,
890,
335,
1291,
366,
801,
-302,
-903,
467,
-970,
-868,
-1198,
-776,
1033,
1283,
902,
33,
-653,
-511,
-1488,
-1469,
194,
-1432,
-174,
-660,
-102,
901,
-486,
-324,
-1318,
322,
-539,
969,
280,
-61,
-491,
-986,
1504,
117,
1426,
-348,
1106,
-111,
1453,
-1556,
-93,
719,
-949,
-1142,
1356,
67,
-546,
-1604,
1122,
1617,
-472,
-553,
-1030,
-42,
3,
-1087,
1075,
-1308,
1142,
785,
-455,
-1188,
870,
1302,
590,
-1031,
964,
819,
238,
-1318,
-815,
-1473,
-685,
-80,
-1180,
1056,
1465,
513,
426,
948,
-914,
-1823,
54,
1169,
-946,
-1687,
925,
-7,
-1656,
442,
-477,
-766,
-1079,
-691,
1076,
93,
684,
-581,
1093,
678,
-1953,
1058,
-142,
1313,
-1002,
718,
-65,
123,
-1623,
-37,
-1822,
-679,
-600,
1519,
11,
398,
-802,
-1218,
-1419,
-624,
-228,
-400,
-1494,
153,
1288,
-334,
-1112,
1239,
-465,
1341,
-1294,
-944,
604,
-102,
-1818,
-731,
-961,
146,
-155,
-198,
-843,
-426,
1025,
-831,
-865,
-1025,
931,
-1115,
1145,
-1424,
-1508,
-136,
448,
628,
640,
-1134,
-1265,
867,
1518,
-86,
-1955,
-1889,
393,
-292,
1117,
-2281,
-1394,
332,
-772,
419,
-696,
-791,
-964,
-452,
975,
514,
1545,
76,
1470,
820,
-38,
298,
-1294,
-477,
-1002,
2766,
3795,
2871,
2703,
1377,
4388,
4416,
1045,
-46,
-2446,
-724,
660,
-1468,
-2491,
754,
2351,
1678,
2041,
-775,
2394,
2737,
2613,
749,
-818,
-1621,
629,
-2561,
414,
-1310,
-1151,
-842,
250,
-2587,
-4325,
6862,
1457,
573,
3601,
-1864,
7331,
747,
2738,
3034,
1285,
2018,
880,
102,
-1249,
365,
-435,
-1380,
-760,
-1775,
-867,
2307,
168,
-695,
687,
1008,
2071,
870,
-525,
-1134,
182,
2525,
445,
-1283,
1788,
371,
1681,
1691,
1900,
-609,
-388,
-793,
138,
58,
382,
-481,
-1603,
-725,
-1023,
-472,
-722,
-658,
1702,
-722,
-1705,
-1231,
2707,
2143,
-621,
1717,
-164,
460,
1690,
-179,
1180,
396,
930,
3606,
-1242,
-478,
-2681,
-3279,
2834,
-1355,
7,
-1661,
-1871,
1893,
1193,
2533,
-2830,
5225,
-1971,
2742,
383,
2006,
2379,
-348,
-4835,
798,
1629,
-4481,
-3742,
364,
-1682,
-527,
128,
337,
88,
408,
-1393,
1535,
2998,
268,
667,
808,
4643,
3420,
-743,
-543,
858,
-62,
1951,
2978,
1787,
-546,
-763,
2268,
-1891,
-2062,
1233,
3972,
1379,
232,
252,
2484,
2852,
3381,
-887,
-896,
-1618,
1718,
1892,
926,
1412,
772,
-951,
-362,
1714,
-1048,
-369,
41,
4109,
1502,
-326,
1214,
432,
3826,
591,
-310,
-323,
1347,
3314,
611,
-1559,
-1120,
1672,
124,
-718,
2117,
-1062,
-13,
595,
-208,
898,
-1298,
-885,
-2549,
-675,
1461,
-144,
35,
-2312,
393,
-402,
277,
-452,
-2825,
-4680,
82,
1860,
-2144,
-2173,
67,
1743,
-713,
1702,
-1675,
-60,
-27,
-1022,
343,
-1886,
-1149,
1651,
1229,
1022,
-2727,
1405,
1539,
1081,
721,
-1408,
2483,
-1754,
-2161,
163,
-188,
-336,
-2300,
-570,
708,
1283,
1546,
419,
2141,
-1091,
2743,
-1632,
649,
657,
-2762,
-2844,
-2075,
-7,
-1624,
-1453,
667,
717,
2764,
798,
-1429,
-2887,
832,
1309,
-105,
-996,
-1723,
735,
-1079,
-501,
-1685,
-2482,
754,
-2194,
-1237,
-2843,
-4159,
-2388,
-1843,
-2510,
631,
-264,
428,
378,
1252,
1101,
404,
294,
-202,
199,
1817,
1323,
5701,
2939,
2600,
723,
-1750,
-1794,
648,
234,
-1089,
398,
-1593,
1473,
-116,
-4052,
-2095,
-2595,
-2317,
881,
-1981,
-2207,
-70,
-112,
-1152,
-2552,
-3765,
640,
-1488,
154,
776,
2875,
251,
1154,
-73,
-3425,
1646,
2479,
-381,
-1327,
-2901,
-1516,
-757,
-1373,
-1487,
-4172,
-253,
-1180,
31,
-1531,
-1636,
-1516,
-2805,
-1280,
523,
-94,
943,
-41,
1482,
228,
-3277,
-402,
-2433,
-2264,
-3014,
-3241,
1886,
36,
1509,
430,
-1927,
-1939,
1665,
40,
916,
-1192,
1447,
-298,
1259,
1778,
-550,
1527,
-1344,
147,
-1343,
-331,
-1225,
302,
-396,
1114,
-3153,
-1182,
-369,
-2480,
-1526,
-4016,
-3528,
-2211,
468,
-2306,
-1406,
-1084,
1793,
2285,
-151,
872,
-430,
794,
3910,
2687,
-1640,
-4008,
1530,
-598,
327,
1368,
-853,
-2199,
-731,
612,
281,
1614,
3072,
-1983,
-352,
-998,
718,
107,
-386,
1014,
-1519,
-1741,
-800,
3206,
-401,
-474,
-1090,
762,
1890,
-2595,
990,
352,
808,
-1128,
-2184,
-3205,
-2178,
-1475,
615,
654,
-829,
1700,
1823,
1560,
1064,
155,
452,
1694,
-1413,
-1772,
553,
-321,
-251,
1497,
317,
-2505,
-2769,
1666,
-595,
-498,
437,
1762,
708,
1190,
-510,
-2646,
-1814,
-659,
-110,
533,
1642,
-1078,
-424,
1689,
-537,
-629,
40,
67,
-770,
-1688,
921,
215,
970,
-1494,
1204,
565,
-712,
325,
-2028,
913,
626,
135,
1225,
-1212,
577,
-3584,
-5747,
-1569,
2652,
1534,
-1787,
-2529,
462,
913,
242,
1290,
1062,
-991,
-3122,
202,
1482,
-267,
-357,
17,
2928,
277,
240,
1939,
381,
1179,
-417,
1824,
1513,
-1322,
-1170,
-361,
27,
2500,
2078,
179,
20,
1,
-116,
1186,
-946,
-796,
-764,
-661,
1040,
-772,
-1100,
-2747,
-919,
-474,
-296,
1060,
-745,
-941,
-79,
1744,
691,
600,
-2075,
1188,
346,
-804,
-586,
-380,
-1272,
1695,
-1079,
-2135,
-405,
1015,
756,
32,
-101,
-474,
1260,
555,
-2446,
399,
-339,
2868,
-946,
-2639,
-684,
119,
-582,
241,
-215,
624,
-555,
-409,
-61,
1474,
-624,
-1196,
-442,
-509,
-623,
-1169,
1613,
438,
1360,
-824,
2698,
-182,
-961,
-825,
165,
2807,
418,
-37,
-1841,
1017,
-1658,
1174,
797,
-920,
-834,
-2468,
2503,
617,
-1678,
-796,
-1136,
105,
-1965,
38,
1178,
-233,
-670,
1573,
195,
-1103,
-108,
-1443,
252,
271,
1415,
-275,
129,
597,
827,
234,
-1654,
810,
1413,
-763,
-1151,
-647,
1012,
-1527,
-29,
-786,
-1367,
-693,
-1031,
-366,
2676,
153,
1943,
-154,
-505,
247,
1366,
1676,
174,
-1993,
1579,
-201,
-406,
-998,
1509,
1904,
-1711,
1668,
-426,
734,
-1011,
2415,
4563,
755,
-3763,
-1162,
504,
-1162,
1206,
-1031,
523,
-2319,
1649,
610,
-623,
-2048,
2440,
756,
-1795,
-860,
266,
-2250,
-3931,
-421,
-255,
1376,
-147,
-178,
-1403,
429,
3365,
1223,
-917,
-917,
-492,
1621,
-615,
1124,
1210,
802,
-493,
-335,
-318,
-369,
769,
2436,
-736,
-1084,
491,
-2077,
-1376,
-899,
-767,
180,
244,
1451,
168,
233,
-3284,
-1977,
1478,
2129,
2833,
-1185,
-519,
-1010,
-392,
-822,
-1611,
1161,
-924,
374,
-8,
428,
-16,
-708,
-597,
-1779,
317,
415,
2013,
-1442,
-1209,
-1258,
1026,
1332,
-2062,
3130,
-3173,
1362,
2993,
660,
65,
-2288,
477,
-194,
-737,
1820,
-1645,
-1126,
1465,
1411,
3126,
2116,
-1006,
-885,
1508,
329,
-2724,
-3010,
-125,
-1817,
1212,
1851,
-775,
1913,
1292,
1485,
504,
105,
456,
-688,
-426,
-3917,
-508,
-1661,
987,
2119,
2620,
1446,
-1183,
3,
147,
821,
2019,
749,
-766,
-1569,
-579,
197,
412,
2357,
1454,
-601,
-2163,
1754,
-1194,
396,
-438,
-364,
-1908,
-720,
110,
733,
765,
-221,
677,
988,
1005,
-2018,
-1017,
1392,
-174,
1642,
579,
-1086,
-2812,
-912,
1027,
2383,
744,
-1204,
2074,
605,
291,
-1623,
436,
1879,
634,
-1460,
-810,
78,
879,
-351,
-1532,
-1362,
-501,
-142,
-669,
-776,
1041,
-985,
1068,
-1285,
-664,
-1878,
-2140,
-2495,
220,
1067,
-1008,
-312,
-458,
1713,
-1581,
-1322,
326,
-538,
-829,
1153,
1120,
837,
2298,
1121,
-1314,
552,
1410,
1315,
155,
-1236,
982,
-2174,
1094,
-157,
969,
-3594,
-355,
-2844,
-2158,
-318,
-1995,
105,
571,
2078,
-1034,
-49,
1954,
-2063,
353,
1086,
-184,
-1494,
654,
623,
1713,
1057,
86,
483,
4,
2311,
1459,
-181,
-219,
-509,
-1880,
1429,
244,
-606,
1153,
-419,
602,
3359,
895,
1116,
181,
-109,
33,
346,
-877,
-611,
-2396,
1261,
-489,
1340,
-460,
1103,
1454,
686,
-1796,
-1087,
-385,
-1486,
1131,
139,
-509,
705,
856,
-276,
198,
-814,
-931,
-1694,
178,
1069,
155,
-783,
542,
1482,
1533,
-1543,
-578,
-962,
845,
1057,
1678,
755,
-1123,
-1622,
24,
655,
886,
2337,
1130,
479,
-520,
1409,
1258,
-975,
-891,
-124,
1297,
1754,
1569,
-792,
363,
-128,
1414,
-2090,
-1456,
-637,
338,
-706,
22,
-1202,
-2965,
-1333,
-3569,
-1189,
2557,
795,
625,
-943,
1685,
-1200,
871,
-1576,
-2289,
-2636,
-417,
-472,
-156,
-366,
1069,
1988,
190,
426,
-1501,
140,
1344,
454,
-680,
-1581,
-1259,
1562,
-441,
1428,
-1924,
2055,
-1893,
-1311,
-481,
1231,
-1265,
714,
-115,
293,
-700,
-1598,
-2499,
-1175,
1727,
867,
-76,
-2267,
-403,
811,
-1262,
-1539,
907,
1065,
-209,
691,
2148,
-1114,
1220,
1869,
-725,
-904,
-764,
1441,
746,
2125,
3710,
1337,
-638,
270,
1173,
-1222,
-548,
-923,
-818,
594,
1609,
957,
1314,
1424,
16,
1012,
-1507,
1346,
123,
-1650,
-367,
314,
-1093,
609,
-226,
-1053,
-1197,
-702,
527,
-1079,
-2237,
-1383,
-909,
-1756,
-1750,
-1933,
-1163,
-1655,
770,
1108,
555,
111,
-297,
962,
470,
-1255,
1017,
-832,
8,
-875,
-717,
-1563,
-850,
-624,
-168,
1982,
-2341,
-2049,
-1948,
1614,
1662,
-1728,
-2036,
-1769,
-533,
921,
524,
161,
1062,
-1130,
-1345,
-2024,
501,
-328,
-440,
-845,
-2594,
1091,
-650,
-468,
-816,
612,
-657,
-1485,
68,
1165,
71,
-1808,
1408,
2026,
1047,
-218,
-848,
779,
810,
-594,
-2386,
1764,
-1417,
1632,
1067,
2063,
892,
470,
-89,
1393,
677,
-136,
-455,
-1830,
-128,
-568,
-589,
732,
-454,
1123,
-791,
377,
2344,
-1588,
-1383,
-1378,
-406,
-948,
-592,
1155,
1704,
129,
-1866,
1366,
-355,
223,
221,
-1821,
-228,
-1775,
953,
-1058,
584,
-1551,
-843,
-1446,
884,
839,
746,
1456,
1732,
-2548,
1643,
1916,
-340,
1986,
865,
1099,
-1681,
-1869,
-1370,
1384,
177,
560,
-393,
-800,
-1138,
-733,
352,
-544,
-1801,
-2218,
-157,
-1941,
-2173,
-1846,
-1872,
-541,
-1690,
-1161,
946,
-15,
-908,
648,
-1290,
-1470,
873,
788,
966,
594,
508,
-175,
-222,
574,
-1214,
359,
-1383,
1220,
310,
393,
-1132,
-1357,
-883,
1231,
1064,
-414,
-911,
-224,
989,
-1376,
1139,
-728,
-1298,
-334,
1677,
-622,
630,
-1513,
391,
1609,
-216,
1575,
1322,
806,
320,
934,
-1667,
-493,
855,
900,
1536,
1810,
1583,
2466,
1308,
1013,
604,
1668,
1068,
-1449,
-871,
-670,
2118,
214,
669,
297,
-712,
998,
-1024,
-874,
-2865,
-2406,
-2150,
-42,
605,
2031,
1066,
1316,
-1359,
1246,
-131,
-1612,
-374,
-1128,
-949,
2015,
-2122,
-1217,
-41,
164,
600,
500,
2380,
-1077,
-761,
600,
844,
577,
272,
-405,
816,
299,
-1014,
986,
-916,
-318,
604,
-5,
-280,
163,
586,
812,
-451,
1017,
1013,
-1083,
945,
-2136,
-281,
-1405,
1966,
2041,
977,
592,
-770,
-193,
943,
903,
474,
-1426,
85,
-1865,
-653,
-531,
1020,
400,
-1868,
1261,
2134,
-680,
1433,
-2095,
2086,
738,
-850,
-2731,
-523,
-469,
-725,
-1553,
55,
603,
-641,
-1862,
-853,
-1633,
2175,
944,
1597,
-232,
419,
-567,
-1267,
925,
-855,
1483,
13,
-874,
-169,
2104,
137,
-1085,
433,
-497,
-1299,
-1432,
1290,
1205,
-1753,
-1138,
-2170,
-259,
1412,
512,
-1201,
482,
1869,
-1018,
433,
1321,
-681,
1228,
-1288,
45,
1468,
-230,
340,
540,
45,
-865,
-1080,
34,
-608,
-1138,
-2214,
-1030,
-1872,
1198,
-1900,
728,
-1618,
412,
-1494,
-1635,
1311,
-1143,
-328,
827,
136,
-60,
-22,
1657,
179,
-2497,
-2242,
-2010,
1826,
-547,
-279,
-1953,
258,
-1049,
-40,
-1083,
1366,
1114,
-2482,
960,
-917,
-2141,
-970,
-2377,
1141,
458,
1009,
-2112,
-805,
-785,
-428,
-1143,
1421,
802,
-239,
-1321,
-1481,
-1003,
707,
598,
2301,
-3192,
-1681,
1953,
-598,
274,
-1773,
619,
-137,
-2087,
1581,
-528,
803,
190,
-648,
415,
-1396,
1065,
-1232,
678,
1310,
-2334,
830,
1673,
-840,
591,
563,
-1096,
1985,
1111,
-2697,
1131,
-577,
854,
39,
-1466,
1655,
-877,
219,
900,
-1972,
-663,
594,
-1015,
-1941,
-398,
-2073,
-746,
1095,
792,
1359,
-484,
831,
-81,
-89,
380,
-205,
53,
-208,
-414,
616,
-1226,
-826,
449,
315,
-578,
-1536,
316,
366,
1031,
14,
-2595,
-1622,
141,
-1541,
1504,
-178,
2931,
2281,
-367,
-1473,
1639,
-947,
-1603,
-413,
-401,
2007,
-963,
705,
2447,
2110,
1821,
2386,
-1580,
2604,
3212,
3615,
2028,
1160,
-1883,
-2159,
315,
1401,
-1195,
-1410,
1478,
1967,
-2525,
-396,
-932,
-4308,
-2437,
-2500,
-4396,
1707,
4569,
3021,
6440,
2410,
-915,
-6818,
3191,
-285,
847,
-1321,
-7437,
-671,
3429,
-524,
2646,
974,
-1738,
1538,
-1857,
2124,
749,
-2028,
359,
1185,
1853,
-433,
-129,
-3042,
-1456,
1229,
3482,
1811,
-575,
-2525,
-1718,
2818,
-344,
83,
-250,
116,
719,
1129,
511,
1582,
179,
659,
257,
824,
1167,
184,
531,
-1382,
-1057,
-2962,
-143,
307,
-1805,
54,
1118,
-2506,
-1493,
-137,
-943,
-1339,
1718,
711,
-340,
309,
-1039,
1016,
344,
1707,
-1998,
1329,
-1835,
-3440,
-1535,
1284,
1393,
-3808,
-3347,
520,
1262,
-559,
-3491,
-4206,
533,
-1029,
-2443,
3197,
-362,
245,
-2404,
730,
-908,
-3973,
174,
1232,
1706,
249,
-28,
2192,
837,
-984,
272,
2002,
3704,
378,
-2026,
-2130,
-512,
-772,
1029,
1821,
1627,
3072,
725,
1707,
-764,
2170,
3955,
-511,
713,
726,
1836,
987,
2014,
-1697,
1168,
-1325,
-81,
-1778,
722,
-354,
2902,
1771,
-1095,
1360,
2660,
2607,
1702,
-1209,
762,
1889,
809,
-493,
982,
-899,
142,
1944,
2948,
2414,
2280,
-1533,
-776,
1551,
1246,
770,
-2878,
-1154,
708,
-106,
-2371,
-4034,
164,
1594,
2435,
201,
-773,
-57,
-293,
-1285,
-59,
-1215,
1531,
-2342,
-3174,
-1250,
-474,
1942,
-131,
564,
2128,
104,
1757,
-1414,
-2056,
3193,
137,
661,
-566,
-695,
-226,
2113,
2860,
1776,
-322,
2359,
2200,
-1222,
924,
-1073,
-1584,
442,
-1221,
-523,
-2748,
150,
-104,
-557,
-358,
2707,
3319,
1230,
-2129,
-2809,
362,
-1501,
-708,
1006,
350,
-1485,
-644,
1402,
-3028,
-3466,
-4168,
-4301,
-1409,
-1620,
-1075,
-482,
-2485,
48,
372,
708,
1284,
-1264,
1453,
-364,
-3656,
1510,
997,
415,
-1647,
2443,
4028,
3703,
1491,
1698,
-438,
1638,
1263,
-2844,
-1203,
1628,
-1019,
5129,
401,
-4232,
-4444,
1930,
-2589,
609,
-413,
-285,
-4172,
1088,
1638,
-373,
4543,
3445,
1516,
638,
-547,
-4534,
-5698,
-1678,
966,
705,
-523,
-121,
24,
1063,
734,
841,
-1091,
911,
970,
-468,
-4882,
-971,
1087,
2495,
-1473,
128,
1035,
-100,
-681,
-1454,
-2761,
-2620,
-4209,
-371,
-3157,
-1312,
1794,
2481,
-933,
-102,
-748,
2792,
-429,
934,
796,
-2539,
-2467,
2114,
2465,
-894,
-2461,
-193,
2883,
-328,
-1671,
-1079,
-273,
-1821,
-66,
-1284,
1226,
-105,
-1796,
-606,
-1777,
-692,
-3085,
1300,
-1577,
-1971,
-1375,
-738,
2897,
856,
-1690,
-92,
2566,
2035,
217,
-453,
607,
-1568,
-2623,
-2094,
-78,
225,
649,
3372,
-270,
-3063,
-3297,
3709,
2159,
-608,
-2143,
-3355,
-729,
1497,
-156,
-3346,
-3894,
-894,
1517,
2761,
37,
141,
844,
-1189,
1630,
-297,
916,
-134,
-35,
-1033,
-525,
-2000,
-854,
-1062,
-1537,
-1704,
-321,
1976,
3960,
1628,
-618,
12,
1741,
34,
1133,
465,
3766,
2727,
-689,
-3382,
858,
1231,
5918,
738,
-1952,
-2390,
1247,
559,
2674,
707,
-639,
1373,
-2419,
-1003,
367,
56,
45,
-744,
164,
154,
-2121,
876,
-691,
-632,
1093,
583,
-2021,
-43,
-836,
-1351,
1328,
-905,
-1312,
1131,
1582,
-2148,
-872,
-1013,
497,
-412,
667,
-723,
1193,
914,
1229,
575,
-559,
-2059,
-1570,
900,
575,
-429,
-1116,
-1737,
975,
102,
246,
-919,
1388,
-944,
353,
-1484,
-464,
646,
-572,
-62,
1128,
372,
1428,
1204,
957,
3366,
629,
-179,
51,
105,
4663,
3534,
553,
2050,
410,
464,
5089,
2211,
1794,
1730,
464,
942,
970,
363,
-169,
-1100,
-1756,
-642,
353,
300,
1008,
-1420,
-1617,
1327,
-349,
-1793,
635,
868,
460,
-965,
-3024,
-2329,
814,
-515,
-1210,
-1414,
1101,
386,
1491,
1,
1811,
-308,
-737,
-372,
-68,
1942,
-631,
-55,
502,
-122,
-114,
-1878,
1838,
-1271,
-432,
-672,
1343,
-349,
-65,
928,
1770,
57,
403,
46,
-81,
-156,
1091,
750,
-1657,
-1104,
-869,
533,
-627,
591,
-1443,
476,
415,
566,
-1494,
-1790,
-96,
-2182,
-1093,
-220,
240,
248,
1640,
-598,
1725,
-695,
-1818,
-375,
506,
-1006,
-810,
-46,
-197,
-2291,
-857,
-77,
-798,
-428,
-692,
-3302,
-911,
825,
-1720,
-3553,
-1390,
-910,
-1705,
323,
-2066,
-944,
-1809,
293,
-540,
-911,
-2523,
-610,
-106,
1816,
-451,
677,
-1,
-1218,
-693,
795,
-3155,
837,
-179,
-1245,
467,
-2933,
-1685,
106,
-1490,
358,
1135,
-172,
1842,
977,
-1190,
843,
-1217,
224,
239,
594,
-485,
-1130,
-101,
1304,
1428,
1201,
489,
-51,
-1471,
-447,
1394,
-189,
-2226,
-1189,
1006,
-290,
798,
-1080,
-1797,
-997,
-511,
746,
-1198,
-1700,
-4056,
-1806,
1657,
703,
721,
2492,
1111,
-132,
-504,
-2316,
186,
1473,
-795,
-2767,
-519,
511,
-1101,
231,
-1609,
692,
-640,
-1555,
143,
1070,
294,
-2225,
-1306,
2236,
-1892,
-1539,
849,
-939,
544,
-2185,
-70,
1622,
-1313,
-1502,
-1317,
-61,
-1515,
-50,
-1942,
1026,
883,
424,
-2093,
-1438,
-255,
1212,
-1972,
-994,
1644,
1016,
727,
-419,
187,
2048,
-339,
2024,
2189,
170,
802,
-181,
711,
-449,
1054,
-1275,
-1769,
-606,
-2131,
-870,
-668,
-234,
-2220,
-811,
-2103,
-460,
367,
-2169,
-1354,
-407,
1326,
738,
1693,
-729,
-1080,
-1946,
-1425,
2652,
-101,
-823,
342,
-1827,
-668,
195,
-1609,
-999,
623,
-311,
-2111,
-917,
-475,
-740,
-6,
-3917,
-1242,
1978,
-1730,
-13,
-4331,
-943,
-238,
540,
412,
-1958,
-620,
25,
-2648,
185,
33,
-2844,
972,
-847,
1041,
1175,
-1890,
229,
-1812,
-17,
-152,
110,
-2114,
-1233,
-2211,
-754,
2767,
194,
1861,
339,
1708,
2507,
1726,
-282,
359,
-86,
-219,
-619,
3456,
1927,
1832,
3660,
1707,
1031,
1569,
-1258,
1254,
494,
1848,
-1,
-1769,
-1513,
-2108,
952,
1919,
-966,
101,
-810,
1840,
1385,
2312,
329,
960,
-2359,
-45,
1762,
-580,
542,
1476,
1316,
-95,
-180,
2264,
2276,
1419,
-1320,
-1278,
48,
2413,
2478,
-507,
-875,
-1703,
149,
-865,
40,
835,
1025,
10,
-705,
-2173,
369,
443,
-921,
803,
-474,
742,
796,
-1093,
212,
1179,
116,
1119,
300,
-1686,
-158,
-1813,
-1020,
2023,
285,
-1402,
-634,
-1567,
-799,
3154,
2306,
3376,
-213,
3385,
4517,
1612,
2370,
85,
1129,
287,
-1513,
1066,
-337,
1606,
963,
-205,
2994,
2590,
1145,
-615,
-683,
-328,
-90,
-644,
-2294,
-2043,
-1090,
1198,
2155,
1803,
-2325,
-2277,
1901,
1889,
2294,
1686,
584,
-2202,
392,
-509,
1401,
1414,
-3445,
-1402,
1387,
1297,
-909,
1607,
1961,
1157,
-300,
966,
-1050,
1074,
-1275,
319,
-25,
-1163,
-469,
31,
-613,
-233,
-547,
-1119,
-1406,
929,
995,
2495,
806,
614,
925,
-1191,
-816,
-522,
-543,
-736,
-2376,
-433,
-274,
673,
-384,
-1661,
410,
-1574,
-639,
1011,
700,
-2483,
-1774,
1746,
1569,
-320,
1018,
1171,
1310,
146,
578,
43,
85,
-2015,
-4325,
-2647,
-1703,
-1315,
-450,
-2979,
-910,
579,
-1770,
408,
445,
256,
-730,
1198,
1462,
3021,
-1999,
222,
-3732,
-1328,
-507,
-1162,
-1439,
802,
526,
771,
-364,
-985,
-822,
-1508,
-2925,
-3734,
1512,
-1783,
-153,
1661,
189,
-43,
533,
326,
975,
1654,
518,
627,
202,
-1200,
-103,
-399,
1728,
-2398,
-2777,
-1686,
998,
492,
246,
-656,
458,
2129,
2295,
123,
122,
-467,
3355,
2381,
810,
-2746,
-1398,
1879,
-2583,
-2844,
108,
-275,
239,
-242,
-3642,
-1197,
-2044,
-1,
1763,
2664,
-43,
1298,
978,
3137,
2125,
2078,
-902,
-1081,
1951,
851,
-73,
-415,
-1010,
-1012,
-867,
-64,
1025,
729,
-1149,
-1188,
-1774,
-602,
-1254,
1008,
1524,
240,
-446,
-995,
-36,
-2196,
2294,
935,
1419,
-2180,
-1754,
-709,
-163,
2083,
-1491,
-1251,
-2317,
-1207,
-1880,
-1218,
0,
429,
-128,
341,
-1409,
1830,
2915,
2039,
20,
-655,
1731,
182,
983,
2977,
-381,
-1503,
-1054,
91,
2958,
-570,
-3601,
-1039,
-687,
-629,
-2287,
-2114,
-3715,
2107,
-1638,
-583,
2018,
-250,
97,
563,
2425,
148,
-1555,
565,
664,
-1253,
-3664,
-1620,
574,
-792,
-732,
-4343,
-1088,
1253,
-555,
2365,
-504,
-4475,
-4896,
616,
-2635,
-1770,
287,
-3435,
509,
-2049,
924,
-226,
3496,
2301,
2072,
3470,
703,
2279,
2475,
629,
-1021,
-1829,
-1956,
357,
-773,
-1508,
-1708,
-519,
482,
853,
-639,
394,
-437,
-760,
1018,
1117,
-2481,
-2528,
1463,
-211,
1954,
520,
-1246,
-53,
1069,
-1889,
-3329,
-1365,
603,
-1040,
845,
1041,
1952,
-767,
101,
-4164,
358,
429,
208,
1610,
-2946,
-3531,
-229,
-2214,
-2336,
-2464,
-872,
-2995,
-2145,
609,
470,
-1634,
-2108,
749,
-27,
-1432,
-562,
1103,
-365,
-1818,
-674,
999,
947,
1183,
1075,
1273,
-807,
1202,
-2362,
-567,
786,
-693,
-493,
-1500,
576,
-1060,
639,
-549,
204,
190,
455,
1539,
-241,
1380,
-684,
-318,
1056,
-757,
-9,
198,
-1544,
-423,
-462,
-1424,
-1805,
420,
-1327,
-1395,
903,
179,
63,
-319,
1075,
1077,
3077,
1249,
-1370,
-1178,
-459,
-2700,
-625,
87,
-452,
254,
-5209,
-4067,
-2265,
246,
-2403,
-4222,
-5351,
-949,
968,
-1894,
591,
-707,
-343,
-30,
-919,
-262,
1900,
307,
1614,
-1617,
1701,
-211,
1926,
-351,
697,
9,
-1730,
-1567,
-734,
119,
581,
-835,
127,
1270,
1296,
-1065,
-1901,
1394,
-853,
-152,
-1343,
-50,
1534,
107,
1407,
376,
-1894,
229,
-412,
977,
-1851,
1154,
499,
1895,
1191,
-1370,
174,
888,
-216,
571,
81,
1278,
2222,
450,
955,
1035,
-1439,
-392,
1194,
621,
362,
-923,
-630,
-1322,
-167,
1636,
-1585,
-1247,
-532,
-1117,
-1896,
-2139,
399,
1690,
168,
611,
-1577,
2382,
989,
404,
1423,
-278,
930,
2807,
-615,
118,
-141,
1167,
3284,
196,
1341,
2671,
3404,
1196,
-532,
1367,
1442,
748,
196,
-739,
1946,
1397,
-3906,
-1506,
1023,
1038,
-1366,
-463,
-1690,
-1197,
-972,
2039,
1323,
-451,
-619,
1051,
-82,
-2130,
-17,
30,
1141,
372,
2541,
643,
1154,
2349,
478,
-1821,
-232,
1072,
-1711,
1099,
436,
661,
316,
-1450,
791,
2419,
-793,
-1154,
114,
-377,
567,
660,
1279,
3941,
927,
-633,
688,
772,
2320,
1591,
-687,
808,
-526,
-1422,
-1262,
4791,
4857,
-899,
-1764,
-751,
2224,
2123,
-61,
2316,
-848,
-1286,
-1236,
1474,
-192,
-1190,
-163,
-1537,
1870,
785,
-2317,
-1937,
-71,
-160,
-976,
876,
-143,
-327,
-839,
774,
-1008,
1436,
535,
285,
1232,
682,
561,
1772,
1148,
3606,
768,
-906,
1689,
2230,
52,
-1730,
-498,
-781,
136,
-1878,
217,
558,
-343,
388,
-2336,
-366,
-966,
-481,
-1400,
-3159,
-2639,
779,
764,
-254,
2203,
-2318,
-2266,
-406,
1466,
3979,
-1930,
-2586,
726,
-871,
337,
-119,
-587,
-1092,
-541,
-2104,
1976,
2634,
-1185,
-2510,
10,
-1399,
979,
248,
570,
1652,
-2562,
-2192,
-1317,
2871,
3201,
-1286,
-1004,
-1261,
501,
-2358,
-2360,
-979,
3180,
-566,
-633,
139,
2323,
1410,
338,
-608,
2050,
4023,
-886,
125,
1412,
1449,
-730,
1111,
-241,
4340,
669,
-3137,
773,
-332,
-1983,
-2115,
-1645,
-709,
-299,
-347,
-1476,
-63,
-2076,
-1219,
1339,
2332,
-758,
1451,
327,
-1877,
-1931,
-787,
-1293,
1387,
-459,
721,
864,
1155,
1174,
1875,
-137,
775,
-1393,
-154,
-625,
-111,
2285,
1227,
-1187,
-1513,
-2213,
-1719,
-889,
832,
-301,
-1451,
415,
-995,
-408,
864,
584,
1104,
954,
-877,
1101,
-1079,
-320,
190,
765,
-1848,
-72,
-1057,
-1376,
90,
-517,
325,
539,
1113,
665,
-1566,
-983,
-943,
1915,
2114,
1751,
-676,
-458,
-1123,
1204,
1350,
454,
917,
-319,
833,
-660,
1951,
-390,
492,
-973,
-1231,
-1008,
-5,
221,
-1649,
-278,
-1246,
1777,
-1868,
158,
1252,
-744,
837,
-1757,
1853,
219,
-491,
-298,
-263,
155,
644,
1265,
509,
1162,
2105,
266,
-66,
-1403,
-577,
-135,
48,
-1135,
203,
-1230,
1538,
2045,
-827,
1257,
-900,
-721,
990,
1312,
-528,
-19,
-1758,
-2616,
-933,
-1717,
533,
-1596,
612,
31,
56,
416,
-611,
953,
135,
1149,
474,
360,
1214,
805,
744,
1357,
-203,
103,
376,
-337,
-661,
-1514,
-1318,
1289,
297,
-1421,
105,
582,
336,
-1382,
13,
1006,
-4,
1674,
-621,
565,
-409,
410,
-1636,
46,
-1035,
613,
-619,
452,
-663,
-1206,
673,
1777,
989,
-2029,
-1213,
723,
-1940,
822,
-1590,
363,
46,
-1804,
-1863,
499,
-1123,
-239,
705,
1302,
2087,
1378,
-1489,
-1956,
-436,
1434,
1248,
-1634,
1036,
-510,
-108,
1139,
624,
-933,
-2284,
-1173,
-505,
1098,
-619,
-35,
-239,
-309,
1811,
9,
1194,
-179,
503,
-119,
56,
1303,
-25,
1504,
-577,
-465,
1603,
698,
-616,
-799,
-1339,
-20,
-485,
-877,
-660,
-934,
-1255,
-961,
417,
-1289,
-1197,
525,
1101,
1683,
-463,
2114,
1172,
-1452,
-314,
-150,
-253,
204,
716,
229,
-652,
-1775,
633,
-214,
1961,
-2402,
-363,
1591,
-1973,
-573,
-373,
-1605,
-122,
299,
1174,
1918,
2100,
468,
-1644,
-397,
190,
-795,
-1368,
-1238,
-833,
-1797,
-2837,
-191,
-421,
-909,
518,
-1117,
-1183,
1640,
2046,
1333,
476,
2716,
1397,
-233,
1483,
-1173,
862,
-323,
1167,
1169,
877,
52,
521,
1041,
611,
519,
1520,
1579,
2131,
-141,
-1286,
-539,
1029,
-1552,
-324,
-1085,
-1033,
345,
-1838,
-1592,
-650,
-1603,
-1442,
436,
581,
-971,
-1143,
71,
542,
1827,
536,
-624,
1572,
-46,
-939,
-1505,
-922,
-1974,
-55,
1067,
-362,
-1521,
179,
-953,
2206,
-59,
-1362,
-909,
1141,
515,
-2069,
476,
-1055,
1156,
505,
-323,
627,
2344,
-446,
229,
-2303,
-1779,
1116,
-1462,
-1541,
642,
650,
447,
1225,
205,
-1810,
-731,
-44,
-534,
-329,
678,
1128,
-389,
65,
588,
-625,
829,
511,
1531,
-742,
-2437,
-627,
226,
2026,
-1861,
-2544,
506,
149,
2118,
-1335,
-1639,
1519,
-844,
2008,
-1219,
-1589,
-4728,
-1247,
1939,
-2260,
-750,
-2826,
1124,
2718,
-381,
1040,
-1762,
1160,
2812,
942,
2243,
5411,
3966,
-1599,
1303,
914,
-2437,
502,
-1127,
-867,
1027,
2561,
3536,
-603,
1025,
437,
-2163,
677,
1253,
3077,
296,
3559,
-2139,
-1505,
1691,
2295,
-1410,
-893,
-818,
497,
-4228,
-1055,
-685,
292,
750,
-738,
917,
-781,
1384,
394,
1726,
1813,
-365,
851,
-306,
670,
1132,
592,
-930,
-461,
942,
2171,
132,
-168,
-398,
566,
-1107,
-1815,
734,
764,
80,
-1682,
-33,
-1161,
189,
-155,
-1706,
-473,
824,
2261,
-549,
-214,
-860,
1814,
678,
18,
173,
-2344,
412,
-2560,
-705,
-4460,
-761,
89,
187,
-2648,
-690,
-646,
4116,
1591,
1061,
2317,
8002,
4096,
3053,
2152,
53,
-2997,
-1588,
3476,
1507,
678,
-4878,
-4827,
236,
-2147,
-930,
-937,
1995,
-644,
2708,
4172,
1662,
3316,
-747,
-1175,
512,
321,
-156,
-14,
-734,
-1553,
1972,
-1012,
-690,
1190,
2691,
1186,
607,
-767,
3194,
895,
422,
260,
958,
-778,
1796,
-203,
-676,
557,
-651,
291,
-1462,
-1997,
-1729,
1221,
-1320,
861,
2364,
-10,
-1142,
19,
-750,
2714,
397,
779,
-1666,
-2250,
-1566,
-194,
63,
1155,
2137,
-351,
-135,
-1391,
-2227,
685,
595,
3253,
194,
-149,
-1417,
-759,
1189,
1364,
-2279,
-1188,
881,
-406,
-1521,
461,
811,
-1033,
846,
-528,
-941,
-1798,
-2045,
-2838,
-493,
-1613,
-4805,
-2281,
-1346,
810,
-1497,
426,
3534,
-1864,
-1787,
712,
-131,
-2003,
1011,
-244,
910,
1658,
-1239,
-1190,
265,
-882,
61,
-538,
-655,
689,
-153,
-2048,
-260,
-1020,
512,
-1104,
606,
-452,
1538,
1813,
2496,
3222,
2312,
-860,
1552,
10,
-560,
-325,
-501,
-2392,
1490,
-1494,
574,
-143,
-1114,
1370,
-1698,
-237,
-2182,
-1490,
235,
210,
2082,
-211,
-2896,
-3202,
-1197,
2097,
-377,
-3209,
-5260,
973,
-706,
-1924,
792,
1632,
1665,
-248,
-1871,
-682,
-2851,
-3299,
1895,
-737,
1009,
1697,
695,
2563,
-2752,
-2019,
667,
852,
236,
377,
1040,
1592,
776,
391,
-2184,
2105,
-2110,
-1898,
-498,
-39,
1442,
-3763,
-4243,
827,
-95,
-567,
-242,
1780,
2008,
1481,
-1619,
-3163,
-3392,
2247,
853,
-4,
1698,
-2352,
1120,
2336,
-1423,
406,
-3531,
-440,
800,
-1413,
734,
503,
701,
1393,
-257,
-856,
-347,
739,
-1166,
491,
-3425,
-4448,
-1544,
-1779,
-158,
-161,
-696,
-881,
-863,
-291,
-2364,
-65,
1726,
1475,
879,
-1115,
-1799,
2296,
-832,
-1178,
-2650,
-577,
-643,
-810,
-1172,
-1938,
-726,
-998,
-428,
-67,
2522,
1391,
-500,
-2138,
-1731,
-429,
-379,
-887,
726,
-362,
-1729,
-3522,
-2614,
876,
-359,
-140,
4345,
3310,
12,
429,
-2161,
67,
792,
-163,
-293,
806,
-152,
-3709,
-885,
-2355,
-500,
-3513,
-4084,
-3550,
-1342,
834,
-1481,
-3034,
419,
-960,
991,
-3758,
-2964,
-1471,
-3757,
-582,
1351,
1323,
-4122,
-2635,
2909,
1616,
-616,
-3030,
-2845,
1282,
-46,
-945,
-518,
-703,
-971,
-3873,
-2487,
937,
-1652,
1313,
-114,
931,
1396,
1638,
2623,
2975,
4414,
673,
2141,
-1266,
-980,
-1969,
-1003,
-1244,
-1238,
-7,
-74,
201,
-650,
-178,
-983,
-350,
-2280,
-1155,
104,
831,
-558,
1018,
1286,
1680,
260,
346,
-52,
217,
-718,
-1058,
1103,
-1404,
-634,
-241,
-1312,
665,
144,
1284,
-267,
-1938,
666,
817,
957,
-102,
1043,
1106,
-74,
75,
2597,
-409,
-1274,
-5068,
-5235,
2910,
1963,
437,
-2164,
-859,
1483,
-722,
-1366,
1187,
2967,
1969,
-1472,
393,
159,
2737,
3148,
-1469,
841,
1887,
369,
4031,
421,
395,
2402,
2116,
-1985,
-2047,
-3205,
22,
-2407,
41,
3,
-513,
-2693,
938,
1549,
-1188,
261,
-536,
1579,
71,
1000,
977,
-480,
1401,
922,
2349,
1698,
748,
127,
-1094,
-333,
-1235,
1013,
68,
-1473,
1171,
1479,
1181,
1621,
-368,
1315,
3177,
-537,
-797,
856,
229,
-954,
-85,
-451,
253,
-1411,
1073,
-722,
463,
-1193,
-2940,
-1551,
-1999,
1523,
973,
-2724,
-1027,
455,
-538,
-111,
-1322,
-2447,
-1345,
-1362,
-3226,
-2578,
-407,
-1531,
-1865,
3794,
3098,
2975,
1414,
1747,
-1986,
564,
-608,
-272,
2488,
-657,
2181,
147,
-1277,
-2818,
-33,
6917,
1462,
190,
1103,
-872,
-168,
505,
479,
-2497,
-2202,
994,
994,
-816,
-1080,
1324,
1849,
1813,
-1279,
575,
-910,
-302,
-2675,
290,
-1700,
-693,
3452,
1874,
-1950,
392,
-1291,
-2587,
-1537,
743,
-1714,
-4019,
-1124,
-1263,
-590,
-3629,
-3144,
-259,
-313,
4650,
527,
-2397,
-2011,
197,
560,
1816,
964,
-384,
1989,
61,
1317,
3233,
-242,
340,
1595,
-1203,
2212,
900,
-508,
1123,
789,
2624,
-867,
-2060,
-583,
846,
-3132,
1974,
-3062,
392,
-3931,
2330,
745,
-1047,
-1313,
-1460,
-833,
-670,
105,
-1199,
1516,
2178,
2459,
1813,
1354,
486,
-86,
-1123,
-2273,
2416,
-416,
271,
1137,
2107,
-835,
-3109,
-1877,
1788,
1489,
-1391,
660,
-316,
1401,
-57,
-24,
-1954,
-1823,
-1823,
281,
-107,
-2817,
1109,
-1052,
-1113,
467,
163,
1285,
1487,
614,
-743,
-1895,
189,
1409,
-1478,
-192,
-894,
2255,
-510,
-1498,
-300,
59,
-1059,
1255,
-420,
-14,
-473,
-1706,
-445,
-6,
2341,
-2610,
605,
24,
-1371,
-243,
-318,
2389,
1585,
-653,
-479,
805,
279,
432,
-704,
-152,
787,
1490,
444,
-750,
1307,
1548,
2821,
-1396,
-4259,
-416,
30,
1622,
3630,
-750,
-38,
-2766,
-536,
2372,
-165,
996,
-1966,
254,
-459,
-623,
269,
-2074,
-816,
3159,
959,
-897,
1362,
1328,
457,
2359,
-2314,
269,
312,
866,
3625,
4023,
3900,
-244,
-1525,
2025,
-1718,
-2543,
-2908,
-3166,
173,
-565,
-318,
-791,
328,
4245,
-775,
-2899,
1018,
-782,
1463,
657,
3341,
443,
-2885,
-2011,
1049,
3567,
975,
-698,
-3378,
-4463,
-1862,
2007,
3261,
851,
-270,
720,
1219,
987,
237,
-179,
3417,
1419,
2384,
1580,
-823,
309,
-1089,
-710,
532,
-1695,
-3498,
-501,
-398,
-1320,
2100,
1317,
950,
1129,
37,
-1280,
-2208,
-1157,
1013,
-736,
-918,
-26,
-1636,
-840,
963,
489,
1443,
967,
-634,
-121,
1967,
868,
2026,
849,
203,
-1806,
-959,
-1578,
-302,
1362,
-1315,
422,
-901,
-860,
-1531,
-1862,
-1028,
-5803,
-975,
635,
1780,
2576,
-2919,
-4875,
1029,
7644,
4490,
385,
-919,
1394,
510,
936,
99,
-808,
-1051,
-2435,
2600,
-864,
160,
2065,
1897,
1657,
101,
261,
89,
-1316,
-3562,
-2708,
1540,
-698,
2908,
32,
2406,
-818,
-1881,
581,
-1202,
-1119,
253,
-1672,
-3474,
-2574,
-1577,
-685,
613,
314,
-2517,
356,
-1922,
-1321,
-168,
-91,
-1093,
-1751,
-1630,
-1842,
570,
660,
-1064,
440,
-1922,
-1992,
203,
401,
-1558,
817,
1241,
-140,
835,
699,
-674,
-1040,
-987,
2189,
1973,
1249,
-803,
-705,
2538,
2856,
2163,
334,
-1592,
-236,
42,
-372,
-1087,
-51,
1212,
695,
823,
2132,
2822,
-610,
1576,
-778,
187,
1712,
358,
165,
-3158,
-2106,
-1580,
1659,
190,
422,
-3164,
2915,
659,
1843,
457,
-9,
3063,
-1194,
-322,
-1386,
-1725,
-577,
-7,
166,
-888,
-846,
-1163,
-2378,
1576,
67,
2533,
363,
-863,
469,
-629,
282,
-1919,
-573,
-689,
2099,
-1134,
401,
1402,
-1194,
-1300,
-121,
-839,
75,
-1499,
136,
1470,
2690,
291,
160,
1497,
2920,
2141,
1108,
343,
-1117,
-1337,
65,
123,
-829,
2120,
2706,
556,
-2571,
-1181,
332,
1985,
-2656,
-2914,
1021,
754,
3206,
1121,
-1734,
172,
2701,
-753,
1983,
-2477,
756,
198,
-1838,
3090,
4773,
-2096,
784,
4316,
1672,
830,
-771,
-1032,
-5599,
-2562,
-722,
1337,
3305,
-1351,
749,
780,
706,
3565,
-3120,
-2579,
447,
192,
-269,
-628,
-3678,
547,
-467,
2977,
1736,
-2194,
-1303,
420,
3867,
2482,
-2429,
1082,
-1155,
-721,
-127,
-1136,
2678,
1220,
1185,
1701,
84,
-2094,
2043,
-411,
750,
690,
-1822,
553,
-430,
371,
2425,
-2905,
-1802,
2143,
1804,
1148,
-2406,
-648,
460,
679,
-2599,
1543,
633,
2784,
1882,
-3523,
176,
-3,
-353,
238,
575,
-2936,
690,
2275,
3819,
132,
-1646,
-1607,
2202,
946,
-1707,
-1888,
-1430,
-739,
-569,
1185,
-690,
1966,
535,
1306,
-1303,
1912,
2570,
2948,
495,
-2324,
-1522,
3996,
580,
895,
4891,
-1404,
-2623,
2646,
2585,
985,
-3653,
-1370,
-196,
-1742,
-4943,
-3703,
4085,
-2189,
-2676,
-4442,
-792,
4901,
-702,
-589,
139,
302,
-3349,
1153,
783,
-1127,
-2277,
-1369,
-684,
1201,
1115,
-410,
-4289,
-1449,
-1869,
-2535,
-231,
-2091,
-1768,
-79,
-407,
4500,
1002,
98,
-1536,
1853,
232,
-3,
866,
172,
285,
-2864,
-1019,
-1743,
118,
458,
404,
-407,
-1938,
-4610,
-943,
1541,
699,
-2457,
-2595,
3728,
4304,
-175,
364,
694,
1030,
-1147,
254,
-864,
-2354,
-1237,
467,
225,
999,
1554,
-810,
1135,
667,
-144,
-1875,
-888,
865,
485,
-1179,
745,
1379,
2366,
705,
-1149,
231,
-1729,
799,
594,
420,
-1017,
969,
-2156,
-1232,
772,
-638,
-795,
-1048,
1192,
-1588,
-363,
-2075,
-1035,
-463,
-2461,
-5320,
-2978,
999,
1240,
1311,
-3949,
-1866,
23,
-475,
-462,
-1284,
613,
-2913,
-1450,
-300,
-1019,
1270,
-442,
-1519,
240,
-2916,
-2286,
2439,
1782,
-2197,
1708,
2053,
420,
1985,
-495,
-4895,
-829,
11,
-1324,
-1897,
-2591,
-167,
-1377,
-2366,
820,
1100,
-491,
-1358,
884,
245,
247,
1560,
300,
2348,
-329,
1353,
194,
376,
135,
1166,
-411,
-970,
63,
-520,
-731,
-1784,
-1300,
-484,
-149,
-1148,
1289,
1045,
844,
-247,
-552,
-1487,
-3380,
-1190,
1959,
284,
52,
-2266,
675,
1364,
710,
1293,
-291,
-1165,
-509,
325,
-1549,
-119,
-2296,
-1185,
933,
1610,
-967,
580,
1326,
-741,
3660,
5935,
1627,
-1022,
2533,
3147,
4821,
2320,
920,
-1099,
1827,
4259,
-838,
-1687,
-1188,
1659,
232,
-532,
2071,
649,
3642,
1238,
766,
-93,
-110,
1466,
269,
-264,
-41,
-1042,
279,
721,
-294,
466,
1290,
1597,
2125,
62,
-1717,
866,
1037,
2149,
-1340,
-1692,
-1255,
410,
1070,
1306,
29,
2913,
3611,
2741,
3101,
-1180,
-191,
416,
837,
3574,
592,
538,
207,
1253,
985,
-919,
-1263,
-1326,
1689,
441,
1290,
-1666,
951,
-1495,
575,
759,
-1023,
-2508,
-3324,
1608,
1044,
-1490,
-345,
2847,
4766,
2271,
-720,
3228,
-137,
-1626,
505,
429,
-1760,
-1254,
466,
-2352,
-270,
-1556,
1219,
-3853,
-234,
-583,
2025,
2925,
645,
-795,
-586,
2934,
2439,
-1672,
-2066,
-840,
2094,
-176,
1195,
95,
-1617,
3308,
-695,
-546,
1286,
-2743,
939,
1868,
-904,
-1619,
1011,
1841,
1822,
125,
2643,
1872,
78,
864,
-1506,
811,
656,
1127,
494,
-1536,
-687,
-690,
-688,
1931,
701,
1329,
-703,
1662,
1304,
125,
-1466,
-1647,
2843,
387,
172,
1086,
-1880,
1686,
186,
-719,
650,
142,
2560,
338,
-471,
-1641,
-2379,
1179,
97,
-1239,
452,
1225,
1029,
-495,
-2842,
-1351,
-327,
-861,
-1551,
1594,
1987,
-75,
-1131,
1558,
1765,
2728,
828,
-409,
4426,
-2494,
-3876,
-555,
1925,
-2644,
-1727,
1112,
920,
2691,
944,
-2030,
-2821,
-1205,
-1819,
-2293,
-6285,
-6190,
608,
-1665,
-3542,
-6455,
-6077,
-2944,
8,
3239,
865,
-520,
-2036,
-2734,
182,
-1369,
1339,
-440,
-1316,
-184,
282,
2715,
-2251,
-672,
3417,
1524,
-2700,
-2575,
-2025,
422,
1075,
2393,
-4054,
-1746,
-2689,
1978,
2372,
-3261,
-2352,
-339,
499,
-2158,
-1627,
1540,
2323,
233,
259,
776,
1610,
340,
1225,
1753,
-237,
-2407,
-2811,
972,
-1748,
233,
347,
-304,
-806,
1307,
-582,
-860,
-1174,
246,
287,
-1556,
-1301,
688,
-1453,
1150,
1586,
-1834,
-517,
-1097,
-1035,
357,
990,
1311,
-1296,
1160,
-710,
1363,
-360,
-1850,
1673,
-2144,
-284,
517,
-1681,
998,
-911,
642,
1408,
-544,
-739,
-1529,
-277,
1807,
2238,
-1152,
-651,
3350,
2999,
-1950,
-1131,
-3850,
1895,
3555,
2477,
2329,
-1903,
45,
3878,
1849,
-789,
-190,
-337,
-58,
-1865,
300,
1584,
-1819,
-1760,
-2268,
-3148,
-330,
-2327,
-413,
-1791,
-1395,
1237,
-451,
941,
-1436,
731,
-4564,
-3634,
-824,
532,
-850,
-39,
-1899,
1588,
-477,
-536,
-533,
-820,
-1527,
-2566,
-1003,
-484,
-1501,
-2705,
-724,
846,
16,
-1570,
-2764,
1802,
1317,
1394,
87,
104,
-359,
-243,
-11,
585,
-1913,
-2036,
-671,
1368,
-218,
-3960,
-1583,
-2461,
-1301,
-875,
-586,
-2335,
-129,
-1700,
-3,
-132,
-128,
-761,
-954,
-3304,
178,
97,
-379,
835,
1204,
2434,
161,
1454,
-145,
-439,
335,
24,
-1909,
613,
-941,
639,
2775,
1294,
1129,
-2334,
820,
4111,
2284,
-51,
931,
2334,
-1921,
-109,
382,
-1829,
-1959,
-72,
1038,
189,
-928,
248,
282,
-1097,
929,
52,
-1619,
-1741,
-484,
-1649,
-1753,
-2192,
3644,
373,
766,
1982,
-811,
737,
-222,
-1294,
-2098,
-2560,
-1591,
-455,
-248,
-2457,
288,
1782,
-739,
1679,
-2996,
-2806,
1392,
-498,
1546,
1185,
-1987,
-216,
855,
5042,
2311,
1657,
-1461,
1237,
1545,
989,
736,
257,
-1316,
1814,
982,
-406,
-1388,
-1991,
-391,
-2385,
824,
2888,
60,
-379,
-608,
2420,
-1638,
-1776,
-1556,
-353,
-3318,
-2196,
1566,
-321,
-2783,
-109,
-468,
-742,
214,
2536,
2049,
679,
-1952,
682,
2937,
-1207,
3171,
835,
580,
-160,
-407,
1668,
-216,
3783,
997,
-1972,
577,
-328,
3724,
-1636,
1929,
471,
-1808,
-678,
544,
752,
952,
-983,
822,
-2560,
1231,
2107,
882,
404,
-864,
1541,
559,
-647,
927,
2228,
-869,
-803,
337,
1910,
41,
-1785,
623,
1128,
653,
-513,
22,
565,
-1889,
-1769,
707,
2987,
2588,
166,
1183,
373,
-419,
-1060,
-1342,
2082,
860,
-2328,
893,
-66,
233,
779,
-708,
-824,
-121,
-871,
-1264,
-1564,
-1939,
-2928,
-1104,
-2423,
771,
3056,
-780,
-247,
411,
5474,
5459,
1412,
715,
2145,
1931,
639,
-258,
2660,
597,
-807,
773,
1960,
-1070,
-84,
1420,
-726,
-47,
260,
-1148,
-945,
-598,
-993,
-60,
-577,
-1539,
-80,
-1062,
-131,
-212,
-95,
-1332,
587,
-180,
1263,
-929,
566,
1472,
-208,
132,
-1666,
-183,
-905,
-890,
5,
-1365,
-1406,
-1155,
1115,
117,
-1429,
-1434,
-397,
900,
728,
-1311,
790,
199,
-1580,
-1538,
85,
-647,
-312,
639,
-418,
275,
52,
-605,
-701,
-546,
-1571,
1523,
-935,
-1226,
-1546,
-884,
922,
-1377,
-1574,
-228,
1527,
1030,
1516,
549,
-1519,
-183,
-1505,
-1357,
815,
-636,
-632,
225,
-1639,
758,
-673,
-1669,
255,
1160,
827,
-659,
-1112,
92,
-694,
1553,
1413,
133,
265,
-211,
926,
996,
21,
178,
780,
1033,
790,
273,
-1356,
425,
1432,
-305,
-905,
-225,
1321,
454,
277,
388,
33,
1451,
269,
529,
-508,
556,
-1608,
-893,
-1108,
-476,
-1071,
-1234,
-1066,
-897,
-455,
284,
-324,
-915,
-820,
-1350,
-759,
-66,
-154,
-786,
-1066,
685,
-1149,
1468,
684,
1582,
-645,
1225,
-1167,
-1056,
758,
-214,
34,
-1316,
521,
-1001,
-802,
-853,
839,
-1313,
-1174,
-1421,
616,
-937,
1189,
-591,
560,
-928,
1146,
-697,
1437,
-264,
1423,
-871,
1258,
-925,
461,
-585,
335,
-900,
428,
-949,
218,
-1047,
411,
1423,
1218,
1061,
949,
1091,
634,
1183,
-1605,
-180,
931,
-365,
106,
1382,
1096,
-711,
-234,
716,
302,
-1194,
-554,
-432,
-1245,
-25,
-1509,
-574,
-1089,
1367,
-188,
-1243,
-288,
885,
-533,
604,
-6,
-1165,
-748,
871,
-414,
-409,
-370,
1545,
384,
-1385,
-1010,
-1247,
-255,
668,
1084,
-203,
590,
5,
-409,
-24,
-595,
-1150,
816,
-628,
1396,
972,
-137,
1429,
853,
952,
1347,
404,
125,
970,
843,
1708,
1375,
1120,
-111,
400,
-239,
275,
-307,
1962,
-1068,
-181,
1299,
-1118,
442,
682,
1319,
1061,
-945,
600,
-940,
1135,
1344,
-1425,
1581,
405,
-915,
-426,
-1183,
-1644,
534,
-312,
974,
186,
625,
816,
1076,
586,
-206,
-1018,
918,
1292,
26,
-845,
-1613,
1045,
-1295,
-1528,
-656,
-1233,
371,
-534,
-1336,
-1489,
-957,
-1561,
-939,
-78,
1727,
720,
-647,
-1183,
-927,
-1250,
166,
-572,
1325,
973,
4,
48,
-22,
111,
1104,
-96,
286,
-201,
-1327,
367,
-1272,
-794,
1100,
1065,
-1447,
-1836,
-190,
531,
445,
86,
1165,
880,
1557,
-988,
1488,
-1400,
113,
323,
-1277,
-39,
-1175,
1231,
-274,
-815,
84,
497,
551,
1239,
981,
-1298,
1693,
-510,
-1110,
875,
-1455,
816,
-875,
528,
173,
-528,
1050,
-1347,
-1332,
1322,
-1055,
183,
-631,
-948,
988,
-52,
-1443,
-1075,
127,
1166,
81,
-1191,
-154,
239,
577,
663,
-1254,
-765,
948,
15,
-797,
-379,
339,
-1478,
191,
-84,
-764,
-177,
45,
1267,
877,
-290,
-749,
-1008,
-324,
98,
-324,
-752,
-4135,
285,
1063,
148,
-182,
693,
-479,
-464,
-1520,
3151,
1733,
-684,
1193,
-164,
-293,
2193,
-4107,
-2658,
-1,
-3683,
-2752,
366,
1843,
3105,
95,
-442,
-3091,
1393,
3943,
101,
264,
-1475,
-1067,
62,
787,
177,
-2217,
-2191,
-257,
-701,
-1377,
-2449,
9,
629,
-51,
-1149,
-1138,
2261,
1271,
957,
1648,
267,
1615,
-302,
1032,
-151,
-1623,
-637,
-1712,
-1721,
542,
-1179,
-1055,
-704,
-827,
-268,
-9,
588,
418,
-1052,
-565,
-1517,
1314,
972,
335,
-737,
1438,
-228,
1279,
1292,
1373,
-412,
1409,
1947,
-2539,
912,
1519,
1000,
-198,
157,
-1235,
-789,
1603,
2179,
-668,
-428,
-2732,
-1105,
-64,
339,
1208,
-1015,
239,
2316,
-2324,
-367,
2300,
526,
1634,
3971,
688,
2984,
2748,
-243,
140,
1910,
-496,
1340,
680,
-3115,
-1845,
3432,
1435,
-1667,
-734,
-1418,
2538,
2647,
-1639,
-1642,
686,
-3381,
-3224,
-2511,
-320,
2014,
-1580,
-821,
-1624,
762,
-720,
-575,
62,
140,
148,
726,
321,
1556,
1798,
804,
-178,
46,
-1517,
-2417,
-722,
123,
-1494,
-218,
-1617,
-873,
600,
-234,
-80,
742,
443,
-1815,
398,
534,
-247,
-877,
-929,
122,
-770,
-1050,
-904,
728,
553,
-2068,
215,
1417,
1956,
-832,
-3896,
673,
639,
50,
-1021,
-1469,
-951,
-2028,
1415,
1301,
3172,
1001,
506,
-1511,
1348,
-93,
2273,
3590,
834,
180,
-2200,
1784,
2013,
-554,
1425,
-1218,
2014,
-2170,
-1464,
-556,
-3176,
-786,
-1623,
-1212,
-338,
1260,
780,
-601,
-702,
419,
-442,
-540,
-2833,
-2738,
148,
-2123,
-1932,
-3079,
-327,
-800,
-19,
185,
1009,
1879,
-1166,
-324,
2990,
1112,
-429,
-653,
447,
-1820,
-1280,
1914,
-94,
-738,
2829,
2054,
695,
1369,
-1574,
-430,
-714,
1215,
30,
2703,
-1351,
-2327,
-483,
-1521,
-1236,
-2358,
222,
-1890,
-1641,
-967,
657,
-2133,
-2771,
1188,
2074,
1748,
-1028,
579,
789,
3086,
1029,
2642,
2777,
82,
-1414,
-1201,
230,
826,
-372,
-897,
-1372,
-2965,
98,
1485,
548,
961,
-162,
-1357,
1698,
-1357,
2152,
-405,
-1613,
295,
736,
-1219,
698,
-93,
3626,
406,
-3775,
-289,
565,
1461,
499,
-2281,
-361,
-938,
-101,
2858,
-248,
-141,
2302,
-1840,
584,
-1402,
-194,
939,
-267,
1030,
-269,
-3535,
-1293,
1791,
3512,
573,
-579,
315,
2843,
1895,
-2637,
-1635,
-703,
-1062,
254,
832,
-361,
-1668,
415,
-1125,
-1032,
1718,
-1701,
2667,
2040,
-845,
2361,
1553,
1399,
1704,
-3991,
724,
-994,
1006,
-591,
-2179,
434,
-715,
1267,
1051,
-814,
-478,
-194,
-222,
867,
-1591,
-993,
-2180,
682,
1868,
1676,
-970,
1458,
3608,
2241,
1987,
-1341,
373,
-59,
2485,
682,
-463,
-48;
