memory_initialization_radix=10;
memory_initialization_vector=
69,
-757,
320,
1040,
-3176,
-158,
-428,
-1881,
150,
-2139,
-637,
-1602,
-683,
-1402,
-1099,
1054,
1200,
-2451,
-1896,
-1187,
1443,
313,
2427,
1687,
-929,
-1349,
-63,
-214,
665,
3504,
-1103,
-188,
-3031,
-2402,
2355,
-2435,
-607,
-2263,
-2878,
-85,
-644,
-394,
-1640,
-2497,
-616,
-412,
988,
1810,
570,
-1536,
336,
412,
1042,
-1264,
-1756,
1322,
-2154,
1683,
-2079,
-630,
562,
548,
-365,
694,
-175,
-585,
-1880,
1041,
-24,
-1238,
974,
766,
386,
-1377,
-1081,
-253,
-563,
-1569,
-2061,
-613,
-1289,
-329,
-1630,
-579,
1581,
-678,
-1907,
242,
1578,
-121,
462,
1802,
612,
301,
-753,
269,
541,
-344,
679,
-613,
1736,
585,
2758,
1749,
1067,
346,
-550,
-90,
-927,
1410,
-1910,
108,
-1559,
-2918,
-2045,
-2818,
1343,
-2983,
-4208,
-872,
1108,
969,
312,
-2424,
242,
1329,
288,
-2027,
2710,
-1687,
-909,
803,
557,
-2855,
-2137,
558,
-428,
-2033,
923,
1659,
319,
1222,
1149,
-28,
-221,
-205,
-1,
1483,
1618,
797,
-1670,
-1013,
-247,
-1355,
205,
-1465,
505,
296,
-749,
109,
280,
-538,
389,
206,
-744,
1641,
-612,
-679,
-1600,
-718,
368,
590,
1101,
-1316,
821,
643,
2076,
-1245,
396,
-893,
1097,
713,
10,
-3580,
-615,
-1854,
89,
-453,
-1644,
-47,
1026,
-399,
782,
-849,
-234,
1481,
643,
1211,
-137,
105,
126,
-1490,
-1540,
-1521,
699,
1904,
-1978,
-1089,
2139,
-517,
1600,
-684,
-121,
425,
195,
1445,
788,
826,
2688,
-255,
1136,
-366,
-661,
-129,
244,
-1361,
899,
1069,
-720,
-312,
-251,
-203,
109,
-2352,
-3,
-459,
771,
-1827,
138,
205,
-907,
-891,
255,
457,
107,
597,
1635,
1325,
388,
409,
-991,
1460,
-1853,
-668,
-848,
-2304,
-216,
-529,
1781,
1180,
868,
358,
-401,
-556,
262,
-164,
460,
114,
1194,
628,
-631,
1622,
324,
704,
-262,
-186,
1301,
-357,
783,
3671,
837,
395,
-3495,
238,
273,
396,
-101,
-4739,
-1699,
-1132,
-408,
-533,
1334,
2141,
59,
-138,
1477,
3058,
2071,
-235,
-2289,
33,
596,
-687,
915,
-874,
-1393,
3198,
2201,
-406,
11,
-1896,
1362,
1361,
-765,
-692,
-764,
-1346,
819,
1127,
1154,
-1222,
237,
-2209,
-786,
-1497,
-3002,
-1968,
-88,
-1355,
-1722,
1895,
-281,
4357,
3,
1048,
674,
-3003,
2371,
449,
1858,
759,
-1196,
-1318,
-272,
1018,
535,
-3135,
-2467,
100,
-1268,
-39,
830,
-900,
-748,
-1680,
-535,
502,
1843,
1307,
278,
44,
1491,
2716,
-55,
982,
-1278,
-583,
248,
-1150,
1634,
168,
-1785,
-32,
-6,
-1412,
-336,
-909,
-1154,
-1331,
396,
372,
-1406,
14,
-200,
-1585,
2706,
69,
390,
4044,
-1235,
-412,
-1957,
2025,
923,
2049,
-1934,
-10,
22,
514,
-185,
-646,
-3144,
1538,
1420,
40,
974,
386,
2132,
1655,
1597,
263,
-1467,
-99,
1329,
-315,
-1939,
-474,
2047,
3019,
-902,
2622,
2214,
-187,
87,
-1312,
-808,
1302,
173,
34,
1136,
1908,
-1558,
-1484,
1860,
-123,
2822,
298,
1144,
374,
-3655,
-1385,
3031,
1811,
128,
-1603,
1881,
3206,
2270,
1358,
408,
-469,
3177,
-277,
-2708,
1574,
969,
2068,
-162,
-207,
3495,
-1654,
1826,
568,
1181,
936,
1104,
-1313,
509,
-204,
-2642,
-2267,
965,
-1514,
-1559,
74,
1549,
447,
-100,
-1443,
-2297,
1683,
-546,
-518,
849,
-1289,
-840,
1472,
-1224,
724,
-1418,
-699,
1279,
-1495,
964,
-907,
1486,
-991,
-949,
1400,
-672,
-800,
-1577,
1383,
-931,
-2151,
932,
956,
3653,
-1062,
-435,
2001,
1084,
-730,
-804,
-1130,
1510,
4028,
2896,
646,
3339,
3153,
271,
-648,
911,
347,
3166,
1167,
-1867,
-999,
1924,
1014,
465,
-513,
-325,
4114,
1423,
2459,
-418,
1410,
-394,
-717,
-1347,
1170,
-920,
-3604,
-1521,
2008,
2471,
303,
351,
1107,
-321,
-608,
-1578,
1535,
1745,
-1412,
699,
929,
-493,
427,
814,
433,
1025,
396,
-1216,
242,
-2092,
-906,
222,
-175,
-424,
-1882,
482,
-344,
-2666,
365,
3097,
264,
249,
-480,
702,
209,
1042,
-1103,
355,
-251,
1137,
2626,
-2137,
437,
1282,
-1601,
-533,
-891,
140,
3537,
769,
-423,
577,
452,
-434,
-588,
-1981,
-1956,
-270,
-1599,
801,
-1131,
-695,
-976,
1172,
1765,
656,
-796,
-550,
-1782,
2325,
-2057,
608,
-2749,
-5331,
-2408,
18,
91,
-812,
-867,
-1086,
-26,
1585,
659,
-514,
-2053,
-2225,
1266,
-2557,
765,
114,
-1460,
1372,
168,
-1716,
-55,
354,
-1020,
2369,
636,
-987,
-2320,
-190,
-781,
-674,
-970,
108,
115,
1541,
-705,
-1907,
-986,
987,
-27,
-894,
-1593,
-2012,
3145,
2116,
-975,
-2521,
-1786,
-51,
-1534,
-3060,
-2752,
871,
-1842,
919,
-257,
-1827,
-6080,
-3,
2184,
708,
-2934,
-1482,
1129,
2567,
3882,
3005,
-1055,
1977,
3235,
849,
-1906,
-482,
-32,
-3571,
-248,
-1199,
771,
-677,
-1223,
639,
-1067,
-545,
-1696,
107,
-1029,
471,
1328,
304,
-2134,
-1333,
835,
-875,
122,
-284,
-4365,
-2702,
-843,
1049,
-2584,
-5680,
-1652,
-722,
-645,
1040,
-1342,
603,
-724,
-177,
-1924,
205,
734,
508,
-3383,
1099,
918,
-369,
-2604,
-708,
2425,
1341,
-2987,
-400,
2659,
-476,
-3838,
-1391,
-646,
-1159,
641,
-893,
729,
1394,
-1430,
-2453,
-1961,
926,
-1261,
1820,
2281,
-494,
-3024,
580,
2757,
2103,
-2249,
-1060,
320,
-1174,
-787,
-4597,
-240,
-1498,
1017,
106,
-263,
159,
-2248,
-831,
-605,
-2264,
1063,
-4028,
2043,
1906,
-1425,
2009,
2070,
2580,
2450,
498,
766,
-1167,
3782,
1215,
-2621,
-648,
934,
1294,
2072,
1890,
2196,
-1418,
985,
1575,
1853,
-2344,
-1403,
1786,
-218,
-1192,
-2704,
835,
-1627,
221,
2720,
2473,
1645,
-1087,
539,
422,
644,
3130,
411,
-439,
1844,
1536,
-1009,
281,
-1574,
-2700,
-1007,
-155,
1640,
-268,
-995,
314,
-237,
131,
-819,
-307,
3420,
611,
805,
2126,
1638,
-93,
-2174,
-1383,
2345,
-1374,
1106,
-58,
1346,
-981,
-1450,
184,
26,
2358,
518,
240,
1265,
783,
1805,
73,
-342,
-133,
1957,
-935,
1199,
1144,
-37,
-241,
-1531,
1719,
1130,
330,
527,
1739,
-1165,
-724,
1282,
339,
-99,
-1365,
266,
614,
-1485,
659,
676,
-2377,
-501,
422,
-353,
1026,
-379,
-1719,
-584,
2226,
1345,
863,
1352,
-331,
-796,
-3420,
-3483,
-3130,
-930,
-2975,
-5446,
-3932,
-3770,
-2061,
-2870,
-1126,
279,
-1214,
1805,
-1843,
-269,
465,
313,
-56,
677,
-275,
1598,
-722,
1098,
626,
2175,
-1036,
-1952,
-438,
1638,
2265,
-115,
-189,
-717,
392,
-27,
-1338,
1945,
2468,
1791,
-1257,
354,
-1528,
192,
-1370,
-550,
114,
-913,
-757,
1040,
1243,
1100,
406,
672,
-34,
24,
624,
-1027,
1890,
415,
-1735,
1198,
-1487,
-35,
25,
-724,
1518,
-73,
-73,
498,
1017,
2522,
-187,
-1139,
3207,
2068,
-1135,
-455,
277,
1208,
1040,
-2645,
669,
2634,
-40,
2141,
693,
2780,
3830,
1244,
-569,
997,
-1109,
1152,
2007,
-2557,
1380,
1592,
1013,
-152,
-102,
-997,
1369,
1030,
1645,
337,
-1896,
3199,
-1565,
906,
207,
2217,
-358,
-3857,
-1273,
-294,
-656,
-2996,
-3042,
1387,
-784,
1305,
996,
-1306,
-43,
1439,
-1702,
859,
473,
-84,
679,
-801,
-730,
238,
-1760,
1438,
1321,
1569,
597,
1059,
69,
-907,
-558,
376,
-2235,
1884,
698,
-928,
67,
-870,
-407,
1149,
952,
1,
-1437,
-1961,
804,
483,
296,
-1534,
-453,
-1970,
-1466,
-1527,
-175,
1316,
1198,
438,
-307,
-476,
2122,
3251,
2416,
15,
-260,
-660,
-1689,
-2178,
-462,
-624,
2133,
-824,
1769,
-1911,
2971,
1381,
-2825,
715,
1519,
1034,
585,
-518,
767,
-648,
664,
-1429,
-2,
130,
765,
1290,
2055,
854,
-1790,
529,
1395,
2296,
3869,
913,
-1391,
1093,
869,
-1029,
-1330,
-2093,
2048,
2958,
-1697,
-2125,
-1385,
438,
-2127,
475,
-238,
-1892,
-2989,
646,
1188,
1588,
-583,
-1664,
-2478,
-1261,
-1447,
-1427,
-2991,
-696,
553,
-2044,
-1130,
-27,
1489,
1563,
-2087,
-1978,
1371,
436,
1289,
284,
838,
-1797,
-2594,
1606,
-243,
-1806,
-1654,
447,
-1178,
-186,
-1406,
-1500,
42,
461,
-2175,
1357,
3604,
3526,
1807,
-2227,
1235,
-839,
644,
1787,
1555,
-878,
-1550,
-1174,
274,
87,
-46,
-3349,
1649,
3872,
2365,
364,
-1424,
1337,
262,
-628,
-1066,
-741,
1264,
1404,
-2595,
-943,
1644,
984,
3251,
-1959,
-1116,
1306,
-683,
1171,
2632,
2510,
1958,
5399,
2419,
383,
2189,
-91,
-454,
2395,
-543,
-1550,
-960,
-3593,
-932,
-406,
-1941,
999,
4385,
2003,
632,
1278,
-589,
219,
-2764,
-1667,
2109,
169,
-2507,
2429,
1220,
-1606,
140,
-2857,
-982,
2671,
1681,
1765,
451,
-80,
-252,
1125,
1562,
966,
-909,
-598,
-371,
787,
517,
-383,
121,
868,
-1441,
-1539,
325,
-1390,
-1148,
-362,
-451,
793,
-689,
-46,
1770,
869,
-15,
1752,
412,
307,
-838,
-1289,
127,
-59,
-1205,
-736,
794,
-1476,
-108,
1271,
1683,
216,
-806,
-1136,
-2471,
-160,
62,
794,
1169,
219,
1423,
-1003,
133,
-959,
-347,
-3349,
-1844,
1042,
-997,
1709,
-1750,
-492,
-53,
-1414,
3825,
7966,
808,
465,
2101,
-1804,
337,
2378,
2248,
2235,
-828,
-1715,
-1189,
-2721,
-899,
3534,
989,
-900,
-10,
-274,
67,
-1276,
750,
-2123,
-1333,
-2844,
-1174,
3330,
-366,
-165,
1290,
1295,
-279,
506,
117,
1391,
1689,
-1176,
-1398,
-2183,
339,
1801,
56,
-2774,
1655,
-2039,
-931,
-455,
-1644,
2005,
2779,
-273,
611,
-1334,
1584,
1399,
963,
526,
-342,
567,
988,
-2184,
-1946,
-395,
-957,
2205,
904,
3721,
1565,
985,
-1177,
-157,
4257,
559,
-290,
-186,
2937,
2202,
1944,
-1423,
-1126,
1372,
40,
882,
-2885,
669,
2008,
2504,
271,
-2499,
805,
-1103,
-2727,
-309,
612,
-134,
-1942,
-3945,
1005,
-2022,
-1099,
-1991,
-648,
3378,
1069,
-237,
198,
823,
-1882,
1437,
1450,
455,
1915,
2914,
1470,
-582,
702,
-1142,
1486,
1830,
813,
-1442,
-271,
144,
1859,
898,
-249,
-624,
1458,
667,
-1251,
-10,
590,
-216,
-870,
-1185,
-3189,
-1747,
-1348,
-414,
-16,
-1498,
-929,
-1418,
128,
-282,
292,
-2154,
-977,
-117,
-1091,
2360,
1155,
-3832,
1762,
-915,
-1221,
1849,
-2127,
1223,
1870,
639,
-196,
683,
1347,
2710,
3703,
2536,
-231,
-1523,
1793,
2420,
784,
911,
-667,
-1292,
-4074,
3375,
3385,
-226,
-1751,
-2617,
-2558,
-2748,
-787,
574,
-117,
1310,
2795,
1983,
885,
-1414,
-2588,
813,
-1478,
2559,
-3153,
-2661,
-757,
1426,
1650,
-791,
-1564,
-740,
1747,
-582,
-291,
-4965,
-272,
-323,
1058,
-1194,
-372,
2397,
1416,
-1231,
-3408,
-1703,
542,
-42,
-1137,
-1686,
311,
-223,
-786,
-1090,
-274,
1535,
-3201,
565,
-1618,
697,
77,
-2596,
588,
-631,
886,
163,
-481,
1280,
168,
-1809,
-1663,
-1542,
568,
1089,
-1766,
-2482,
-63,
-168,
-478,
1122,
-1487,
-3544,
220,
-1053,
-653,
-2864,
-1731,
530,
1162,
454,
1054,
2063,
-418,
-464,
115,
-176,
-102,
-166,
-86,
-1704,
-2009,
2582,
366,
998,
-280,
-554,
2008,
1696,
-3646,
-3849,
1169,
-1487,
1069,
-2240,
-1636,
-1485,
-845,
2928,
1445,
-453,
-15,
-1508,
341,
377,
-861,
-17,
345,
-512,
258,
-1420,
464,
-2684,
1124,
-1009,
-984,
2098,
1557,
36,
-740,
-1930,
-240,
1089,
-140,
1194,
-682,
609,
-1470,
-2523,
1264,
-929,
1278,
3084,
-1409,
1503,
67,
1586,
587,
-780,
-290,
719,
-168,
737,
-1316,
-380,
1602,
581,
1927,
543,
382,
-1310,
-1032,
677,
970,
-353,
-1218,
-1278,
-1129,
-1121,
-192,
-818,
-426,
1693,
1128,
974,
-871,
-1074,
541,
-1408,
1428,
-543,
-928,
1682,
-125,
-1127,
-260,
385,
-696,
669,
-534,
379,
-1115,
-894,
-150,
409,
-628,
-1103,
-424,
17,
-103,
623,
697,
-1481,
-1160,
-1356,
-1131,
-568,
960,
-143,
-67,
-718,
-518,
-1579,
-705,
-660,
-13,
299,
-102,
963,
-1681,
1439,
1634,
349,
1591,
1140,
73,
285,
-1299,
644,
-474,
-1301,
-1346,
123,
246,
-353,
-239,
292,
-2270,
-718,
676,
495,
-485,
1017,
-508,
686,
620,
-1254,
1391,
1673,
-744,
-678,
-397,
-261,
1614,
-808,
1944,
1162,
330,
-1162,
-1337,
597,
-708,
1151,
13,
-136,
-103,
302,
1452,
543,
-75,
-123,
-1687,
-195,
292,
1526,
-357,
729,
358,
-561,
1326,
-710,
-207,
186,
9,
1926,
984,
-640,
-745,
-1970,
896,
1591,
-1213,
-653,
324,
-377,
-994,
-2031,
-391,
429,
-1302,
1712,
-1164,
1283,
-1271,
310,
2002,
694,
1803,
-900,
-857,
-1271,
-140,
1127,
-1048,
1275,
-1856,
1419,
275,
-989,
-699,
-1103,
-1006,
-2385,
338,
-1457,
1423,
-564,
-1232,
602,
-1555,
482,
1376,
-2571,
99,
-586,
58,
-1221,
-81,
-710,
-849,
-71,
1964,
2130,
-778,
-718,
48,
372,
-359,
-585,
1316,
-924,
1630,
630,
-65,
1299,
-379,
-1109,
1780,
1079,
-1555,
219,
581,
1233,
-785,
-292,
-738,
41,
-834,
-185,
1807,
1295,
1011,
1337,
-1058,
-1109,
-936,
-353,
-829,
705,
1148,
-1207,
-1258,
-455,
-155,
-784,
-1433,
247,
407,
-2662,
-1778,
1657,
-884,
-1875,
1182,
-1347,
-1392,
-1707,
-620,
1830,
-1588,
1144,
-329,
-835,
2004,
-82,
1303,
-806,
885,
-1504,
518,
-242,
-1350,
517,
234,
-802,
1386,
188,
358,
-862,
760,
2299,
-824,
922,
-130,
669,
-485,
1235,
509,
-2114,
-502,
1076,
-326,
1044,
942,
-1737,
1372,
721,
296,
1391,
-935,
-52,
1244,
-2397,
-1756,
-680,
-475,
2321,
-1445,
630,
-305,
497,
952,
550,
-420,
-1568,
-1282,
1817,
166,
295,
-2113,
594,
384,
598,
1495,
-1585,
1619,
1084,
-1342,
-466,
-352,
337,
610,
668,
-597,
-926,
-949,
-569,
68,
641,
-779,
659,
-1143,
-648,
-1004,
938,
182,
1526,
971,
-438,
552,
1423,
1339,
541,
-1365,
291,
2329,
2917,
-3398,
-1962,
877,
681,
-1514,
-174,
1165,
513,
-1123,
1613,
-23,
2046,
541,
-940,
613,
817,
98,
1549,
-487,
1914,
-341,
622,
395,
2117,
181,
-49,
1532,
-568,
542,
-1344,
168,
-919,
12,
235,
931,
60,
495,
1034,
-709,
-175,
-1166,
428,
873,
-949,
-832,
830,
1201,
134,
-822,
-633,
-408,
-847,
-650,
942,
789,
-1424,
-1464,
994,
-1357,
6,
801,
-132,
77,
49,
-891,
-330,
-1113,
-817,
138,
-620,
-790,
-471,
419,
1914,
1548,
920,
-1310,
854,
-1282,
1491,
-492,
902,
-1055,
260,
-1204,
772,
1556,
496,
-836,
527,
-303,
1657,
25,
-1593,
-452,
185,
-1506,
1154,
498,
62,
872,
-1223,
-811,
-541,
-703,
1546,
954,
-443,
-205,
240,
313,
239,
133,
-21,
-611,
-935,
-803,
1334,
-1411,
434,
-608,
-593,
1480,
-1813,
-132,
1262,
-291,
-84,
-588,
-1386,
-393,
-660,
850,
-305,
242,
-1488,
2192,
701,
-1048,
1280,
-966,
-56,
-765,
1577,
60,
676,
-631,
-701,
-1169,
101,
-107,
557,
-25,
136,
-1279,
1622,
643,
-992,
-1007,
-1012,
1478,
981,
359,
-1165,
-1044,
-1092,
-357,
-793,
-1145,
886,
1005,
1294,
1041,
-1065,
-195,
-410,
-1628,
1150,
-752,
910,
1011,
1426,
-233,
-779,
676,
-295,
-1356,
287,
-325,
-622,
-395,
645,
-682,
-18,
412,
-524,
-352,
1584,
-298,
-252,
1370,
-11,
537,
952,
-312,
-1718,
1002,
-389,
744,
1591,
-328,
-739,
-434,
317,
-757,
1112,
411,
-580,
232,
-1229,
1082,
-125,
312,
-1469,
-1804,
-1607,
741,
821,
1266,
1630,
-1518,
-1786,
578,
-472,
-1382,
704,
-1588,
-806,
308,
-1094,
255,
1141,
-1501,
-5,
-622,
351,
-773,
-1224,
1851,
687,
-870,
829,
-747,
1457,
-1470,
-967,
1740,
1144,
-597,
1584,
-1342,
-465,
-356,
401,
1224,
-128,
848,
-1446,
-1791,
1353,
-661,
-907,
1160,
865,
-1156,
-721,
-1485,
-1031,
-1421,
642,
-513,
-392,
519,
821,
-196,
738,
1001,
-636,
1274,
878,
-573,
-1114,
1571,
-995,
295,
545,
1129,
1552,
-661,
1516,
-249,
-43,
-1377,
-332,
-102,
840,
1128,
50,
-645,
-1253,
-739,
-1379,
-463,
-1570,
1478,
1059,
1325,
-1344,
523,
1142,
-800,
-623,
-1682,
129,
-429,
894,
-309,
519,
-181,
-714,
1462,
64,
770,
-877,
190,
-20,
127,
1588,
649,
1108,
-884,
1148,
255,
-1478,
509,
844,
978,
1521,
1270,
-220,
-1203,
287,
471,
149,
975,
-1534,
614,
-1430,
1340,
-1391,
-1053,
883,
117,
-1515,
-20,
-1330,
-79,
1156,
-1317,
1631,
-575,
69,
-1130,
-159,
-1455,
1617,
-445,
-467,
1251,
-869,
1145,
380,
842,
-1102,
-892,
-999,
-1282,
957,
140,
-815,
-1573,
954,
-750,
592,
-666,
-781,
-574,
729,
-1164,
-260,
-774,
1348,
-1615,
1784,
1556,
-208,
-71,
697,
713,
1144,
-1494,
1762,
-431,
-806,
1030,
1781,
3725,
-2324,
-2019,
-503,
121,
3592,
-290,
-1166,
-2465,
1706,
-1609,
-461,
658,
2417,
-4511,
-3667,
2590,
2666,
-2273,
-4516,
-4151,
-2056,
-64,
3058,
2283,
1983,
-4200,
-5293,
-2160,
1996,
-1700,
-1953,
-1009,
-2169,
-4053,
-3790,
-576,
-2218,
-1273,
-1536,
-1781,
467,
2878,
896,
-560,
1608,
-876,
1134,
2047,
1680,
59,
329,
-182,
1785,
-27,
-876,
-2169,
-820,
-1394,
1078,
-658,
-2042,
-418,
-365,
720,
-173,
95,
-605,
1406,
-291,
-882,
238,
-1392,
722,
-1009,
558,
29,
-1337,
-1664,
-539,
-1674,
-1504,
-133,
1255,
-1891,
1205,
1598,
108,
1935,
652,
-755,
497,
-546,
-1321,
559,
1296,
-2321,
-2949,
1155,
187,
1693,
-2430,
-1790,
-179,
1995,
205,
-1177,
622,
-2172,
-207,
1412,
-148,
-2684,
-1026,
-1163,
-1457,
2647,
-1569,
-4061,
-1990,
-1257,
-2381,
2183,
2407,
1767,
-1225,
-504,
-1136,
1457,
-644,
-40,
-1589,
-123,
983,
-1086,
-1499,
-76,
1184,
-1957,
-195,
-1564,
906,
716,
1328,
-713,
1398,
815,
942,
-763,
-1138,
-1633,
-1846,
-1456,
99,
-1520,
-2151,
811,
-1180,
380,
-1151,
703,
1419,
249,
-885,
-408,
-330,
1697,
389,
-1275,
99,
1175,
-403,
-558,
-765,
2790,
1651,
-2997,
-667,
1262,
-2934,
-640,
-2529,
-738,
622,
98,
-2641,
1353,
-319,
211,
-1813,
-342,
-25,
1446,
-3018,
-1084,
337,
240,
938,
-2141,
-4221,
-299,
1550,
-144,
-2981,
-3733,
-2177,
-1204,
-372,
-1109,
2163,
144,
-939,
1773,
501,
1644,
2740,
-150,
-400,
2917,
3974,
773,
-1564,
-781,
310,
-1210,
-912,
-207,
-218,
1318,
2390,
1516,
760,
-531,
-160,
2954,
-1571,
298,
887,
1744,
-604,
268,
-1208,
398,
-202,
581,
203,
-177,
-3708,
-3331,
-2704,
-1178,
633,
1310,
1364,
-4863,
-742,
2598,
2458,
1085,
-443,
1425,
283,
1276,
2233,
1462,
803,
544,
2548,
1106,
925,
1719,
658,
-2628,
3510,
4423,
-20,
-1152,
896,
594,
-1875,
-2493,
-907,
-1835,
219,
-450,
-1474,
-1094,
-2223,
1570,
-1795,
71,
426,
51,
1184,
1129,
106,
-1689,
-951,
-2292,
-2836,
345,
2488,
-641,
-2251,
-509,
-490,
3074,
-338,
-2511,
1404,
1336,
1073,
-723,
2587,
-873,
2000,
499,
-249,
1726,
59,
-402,
-696,
-3241,
-1438,
-3610,
-2470,
-507,
-1079,
454,
-597,
-467,
525,
2328,
2258,
1523,
1215,
890,
-2100,
999,
243,
-740,
-850,
-414,
848,
1098,
-1159,
-712,
1059,
-2101,
-4014,
173,
716,
1446,
-984,
-455,
-385,
1097,
985,
-179,
-933,
652,
-1798,
-2318,
1933,
-2025,
133,
-1182,
-620,
1484,
175,
-153,
-1131,
-1738,
1657,
900,
380,
55,
598,
1537,
-1895,
-5106,
-481,
-1441,
1651,
-96,
-1099,
323,
969,
672,
3296,
709,
89,
-2981,
-780,
-363,
-1130,
170,
-408,
-969,
1648,
1700,
-1628,
345,
1669,
-201,
1772,
1548,
327,
-538,
1454,
367,
-1322,
-1543,
669,
-933,
-252,
-331,
1355,
-482,
-776,
-33,
266,
1239,
-126,
-1346,
-1099,
-1422,
-972,
-1041,
-1609,
642,
-641,
-134,
714,
943,
-1006,
308,
-1428,
1131,
1144,
-1372,
-1136,
-611,
-263,
1177,
1034,
-1243,
542,
-1477,
-684,
-514,
-899,
1711,
455,
-1016,
1567,
-1455,
-913,
-476,
-1157,
-6,
378,
-948,
-1154,
-76,
-918,
1216,
201,
-1460,
-1641,
993,
-953,
-909,
-797,
-359,
439,
204,
1632,
727,
-807,
1001,
1340,
1321,
-936,
-1333,
-1246,
165,
92,
1508,
-705,
186,
124,
-1021,
-576,
-1110,
-1470,
1543,
-712,
-1909,
1889,
1000,
-61,
1775,
78,
-25,
389,
250,
364,
-1263,
-441,
-557,
484,
937,
-770,
-1463,
559,
-993,
456,
446,
-403,
398,
-1554,
-186,
-1289,
-777,
1537,
-1051,
-919,
461,
293,
-1352,
923,
690,
148,
751,
-563,
-396,
-1501,
-415,
1127,
-792,
570,
190,
182,
-346,
1270,
633,
-1008,
928,
-1107,
-1535,
1675,
922,
626,
-347,
-1383,
1279,
-1383,
-1581,
1253,
1244,
355,
829,
-771,
57,
-1310,
127,
-1703,
1129,
-1398,
120,
633,
-631,
147,
1519,
-765,
50,
-877,
1882,
1852,
1129,
304,
-1650,
-606,
-929,
-408,
114,
-1100,
-1009,
-199,
-1057,
42,
1751,
28,
620,
-1131,
-772,
-929,
1355,
227,
-322,
-1043,
13,
-1565,
1248,
100,
-750,
-869,
771,
-536,
-1387,
-204,
-1101,
-190,
1482,
-1428,
1409,
-814,
1944,
305,
-83,
662,
1268,
479,
-33,
-571,
264,
-454,
776,
-498,
-1063,
-971,
548,
-34,
781,
608,
936,
1437,
644,
-314,
554,
-73,
1443,
-610,
1333,
-213,
-161,
1581,
-1489,
-798,
-1606,
624,
-1169,
-486,
1324,
1208,
1606,
498,
1642,
-1540,
1040,
-933,
-747,
763,
1335,
225,
-573,
-1297,
-1348,
1215,
1056,
-868,
820,
138,
-959,
-281,
815,
-977,
179,
-1551,
1404,
331,
-1981,
-442,
1751,
58,
597,
-1337,
-1360,
334,
842,
-1180,
1005,
-90,
1412,
-80,
-1121,
224,
95,
532,
614,
-1575,
-1114,
-1365,
-1156,
-233,
1138,
-426,
-707,
-928,
-1303,
-468,
1702,
263,
1022,
364,
7,
-754,
-151,
813,
57,
1132,
881,
1052,
1384,
-1385,
-1277,
-1382,
-707,
669,
-1004,
282,
-253,
-318,
1557,
50,
-1472,
-290,
178,
-303,
-337,
1175,
-1267,
764,
736,
194,
-196,
471,
802,
-1501,
-651,
-1343,
-1471,
-735,
-692,
410,
-1508,
-112,
1560,
1035,
-1406,
216,
1068,
-599,
781,
1547,
778,
599,
1166,
-609,
1269,
-994,
124,
409,
-383,
-305,
-1541,
302,
-1345,
594,
1548,
-871,
-81,
-1435,
-785,
-759,
-606,
-1070,
538,
1713,
914,
816,
997,
-206,
-634,
-1643,
1736,
519,
-85,
-476,
-218,
-651,
77,
-1159,
409,
-71,
1220,
-379,
1485,
-583,
1204,
744,
1111,
-365,
2005,
365,
-1279,
-647,
-2132,
-308,
78,
2069,
1521,
-646,
-486,
-1769,
-1478,
2078,
380,
442,
1790,
-36,
1115,
1907,
-864,
609,
-83,
-1149,
-1082,
1035,
478,
-819,
893,
-1537,
-182,
-1731,
-642,
1202,
-494,
697,
1314,
647,
-225,
392,
-1437,
-247,
751,
5,
-804,
1281,
291,
730,
1395,
-1508,
-1309,
-650,
1695,
698,
-522,
532,
-1481,
-774,
1340,
6,
987,
-1043,
-1294,
-1116,
594,
66,
-631,
1050,
1979,
314,
69,
-1397,
535,
1442,
-1403,
143,
333,
-1640,
-1375,
-419,
1147,
199,
332,
1345,
-1155,
655,
-1359,
-744,
-441,
-907,
-705,
-1796,
-893,
953,
357,
-1479,
-240,
-2218,
-2743,
-691,
1322,
1395,
-1226,
382,
-89,
-19,
1329,
-515,
428,
-1098,
335,
604,
1932,
-310,
-1099,
-694,
2030,
612,
1418,
98,
426,
-949,
237,
1530,
-484,
223,
654,
1298,
294,
1780,
1351,
-477,
-146,
150,
-1307,
159,
-364,
1042,
1496,
1407,
1314,
606,
1717,
174,
-745,
-1301,
563,
-358,
1003,
-1361,
17,
-244,
821,
1133,
-132,
-1664,
1035,
1596,
706,
240,
-966,
-204,
-207,
-1424,
1732,
-28,
1149,
1209,
-37,
-524,
73,
1025,
-276,
-819,
506,
-760,
-352,
786,
-1405,
-909,
1938,
432,
-994,
-181,
488,
-175,
330,
556,
-769,
405,
-747,
-1351,
-35,
408,
214,
-883,
-648,
1223,
-53,
342,
577,
-1928,
-1295,
-931,
53,
-434,
-197,
-1530,
-1595,
-171,
163,
-178,
-1032,
308,
398,
-667,
-1011,
1390,
-292,
1594,
-719,
-456,
607,
1047,
1091,
-303,
-1702,
1748,
2076,
461,
-213,
-177,
797,
1680,
1076,
-559,
-1541,
380,
-1437,
-1907,
-1362,
130,
158,
821,
1216,
-1676,
288,
-358,
-349,
-1755,
-1540,
-288,
1391,
-924,
-1308,
931,
808,
1012,
1682,
797,
1022,
-1955,
-1382,
1305,
-1458,
1507,
-760,
385,
2093,
-673,
-58,
1610,
645,
-1138,
-814,
-217,
1442,
157,
533,
688,
1397,
1691,
257,
-496,
-402,
-854,
-1023,
1591,
-2584,
-955,
-667,
1485,
630,
-554,
-1276,
1000,
-1384,
1258,
1025,
-980,
-1311,
23,
-9,
-929,
679,
249,
-173,
867,
1751,
-676,
-1069,
-1673,
984,
-763,
-748,
-1263,
-1192,
-1638,
1406,
431,
-1951,
-777,
1389,
-322,
-2059,
-957,
992,
1486,
-1417,
-1281,
-1219,
33,
457,
1277,
1119,
206,
1456,
-858,
-1075,
632,
-15,
-381,
1218,
-419,
-1733,
-1664,
1041,
-112,
-434,
-2229,
-1494,
-488,
-1114,
-459,
-15,
49,
38,
-1103,
355,
489,
-592,
273,
961,
-1177,
-220,
-255,
-98,
-1314,
1956,
-164,
-1158,
-180,
-461,
373,
-1247,
443,
-1198,
-795,
-385,
-1013,
285,
1889,
-1739,
812,
3202,
2104,
-292,
-2618,
84,
1320,
-649,
226,
-1311,
1354,
2032,
1212,
-1702,
-449,
2737,
1072,
-625,
-3560,
1115,
1538,
2018,
-1938,
-2421,
-1178,
760,
736,
2673,
66,
-497,
-1077,
1511,
332,
1919,
1295,
1579,
-1565,
-3454,
-159,
829,
1462,
-1026,
-3612,
-700,
1421,
1077,
2697,
2210,
455,
-952,
3235,
-883,
-2179,
-2207,
-1063,
-1605,
-1330,
-1868,
168,
-4480,
-2513,
359,
45,
779,
-383,
-683,
1690,
702,
-807,
229,
1922,
-120,
-26,
144,
421,
-1515,
-573,
650,
652,
-1622,
-1223,
-71,
-1497,
-1285,
-140,
1616,
-1232,
1247,
543,
-921,
-450,
1178,
1016,
250,
-936,
-311,
-1462,
181,
-720,
-3244,
-1702,
1442,
659,
-1382,
1049,
4189,
4024,
3825,
1346,
4480,
4225,
694,
-2134,
359,
-734,
-7,
-3101,
-1243,
536,
471,
-271,
819,
-1858,
-1121,
-985,
-940,
-400,
384,
-3165,
-4630,
-5325,
-129,
584,
-972,
-1718,
-1732,
-969,
-215,
-836,
206,
-324,
2183,
944,
1594,
1866,
1371,
1780,
373,
638,
756,
-580,
-2137,
-506,
-326,
757,
-1043,
-155,
-1658,
200,
785,
1263,
698,
-612,
47,
-628,
-93,
1659,
2116,
1107,
-1998,
-1964,
1809,
1950,
-773,
261,
-1053,
2012,
-586,
-595,
-2656,
165,
744,
-2686,
-1425,
-113,
-1093,
-1893,
-3017,
-2915,
-1642,
298,
-93,
881,
-895,
-394,
-632,
2231,
1723,
-495,
546,
529,
-1251,
-3308,
769,
-1722,
82,
-1502,
-1965,
-975,
-1313,
-2623,
-727,
2739,
-80,
-367,
-2062,
2128,
594,
-573,
379,
1705,
4061,
-1029,
-2667,
-399,
-811,
-1355,
577,
1394,
-290,
-1053,
6,
537,
-1593,
873,
1704,
-1608,
1183,
-624,
-855,
312,
236,
-341,
-499,
1295,
-1090,
-1101,
-1696,
76,
1286,
-2304,
-2548,
-628,
-1515,
2225,
254,
-1366,
-844,
-2040,
-2672,
812,
-90,
108,
-1396,
-2415,
386,
3532,
-1365,
1171,
-1073,
2146,
-749,
1299,
-435,
-716,
989,
1334,
769,
-996,
-206,
-1180,
-3237,
-635,
-868,
-1533,
-4148,
-2501,
-1850,
-1525,
-2446,
-1435,
975,
1334,
-2083,
-8,
2097,
1321,
3240,
-1244,
128,
-383,
-118,
-151,
-1940,
3368,
-1102,
-1217,
-367,
-129,
903,
-2921,
-1689,
108,
2169,
-329,
-2102,
386,
67,
567,
-1407,
371,
1141,
-280,
-467,
264,
-874,
-3573,
-2784,
-2156,
925,
1392,
169,
1118,
-1065,
2402,
963,
2159,
2081,
2248,
-787,
-339,
412,
1586,
-694,
-1957,
1879,
-1274,
673,
330,
-848,
1063,
-2931,
-2648,
-1804,
1429,
-567,
-975,
546,
-1086,
620,
-982,
315,
1229,
35,
92,
-723,
-1169,
-265,
-1061,
-1508,
-1767,
-138,
-1302,
-1453,
-40,
1025,
2560,
558,
-833,
1116,
2512,
-191,
-1000,
-1840,
998,
-3075,
-2408,
-1267,
-1221,
-819,
-2106,
-1210,
333,
2001,
-2143,
-502,
-255,
-3178,
431,
825,
-244,
-355,
-1103,
-45,
-919,
-431,
-1490,
1814,
2741,
899,
1710,
-137,
1686,
669,
384,
-63,
2078,
902,
-152,
-283,
-768,
-3871,
-5148,
-801,
1821,
491,
2229,
131,
156,
720,
-361,
191,
-366,
142,
-1499,
-1021,
749,
208,
309,
-144,
-3062,
1408,
2758,
-447,
1742,
-914,
476,
2715,
568,
-157,
2511,
-987,
1181,
-1612,
-413,
1598,
-1327,
-1268,
1417,
-522,
1248,
-1452,
-601,
-281,
884,
98,
-350,
31,
1005,
1284,
1087,
-392,
-546,
-137,
-1330,
133,
-1656,
-602,
-780,
-1579,
1115,
876,
59,
520,
1242,
-406,
-1401,
655,
1127,
-817,
1451,
591,
-419,
-537,
-1759,
-96,
-1373,
-1121,
1106,
249,
-770,
-2065,
-985,
794,
192,
-2322,
-1144,
800,
-163,
-821,
209,
-1334,
-138,
-1657,
757,
300,
1042,
396,
3185,
445,
-3221,
-1097,
857,
2810,
649,
325,
-357,
-20,
-576,
2176,
611,
322,
-1174,
-1828,
-50,
-1741,
-521,
1558,
95,
1960,
-609,
-1107,
-167,
1324,
-432,
-139,
-1116,
969,
-1629,
-49,
952,
936,
5,
654,
-1450,
79,
-153,
-1282,
51,
-1332,
99,
395,
-203,
1177,
652,
446,
518,
898,
25,
-38,
-943,
274,
-1198,
-1070,
-1499,
-192,
349,
222,
1025,
-1266,
656,
-423,
-429,
84,
1535,
2201,
1198,
866,
71,
-784,
1777,
916,
785,
676,
-288,
583,
-1681,
-521,
-710,
368,
476,
-1512,
-1235,
-367,
2357,
1131,
-1043,
-484,
-1241,
-1106,
-1488,
1591,
1787,
1283,
146,
-2205,
1480,
-772,
-1034,
-958,
-1651,
1134,
753,
-1492,
-1195,
1225,
-216,
-91,
1179,
-326,
1266,
-26,
291,
-1300,
1413,
-219,
1779,
388,
1832,
-896,
634,
2028,
124,
1008,
291,
-591,
740,
1643,
-146,
-585,
-1151,
-1371,
-1747,
1205,
-685,
1812,
292,
-2312,
1450,
-304,
278,
-1004,
-1346,
-360,
446,
793,
-127,
193,
1172,
-565,
2949,
1247,
1194,
900,
29,
1491,
3713,
-636,
-227,
2269,
1838,
150,
235,
-968,
-73,
442,
2139,
1120,
-1158,
683,
-1049,
-1602,
1048,
-1419,
608,
2229,
261,
-2642,
-739,
-635,
-1919,
123,
-1754,
-1757,
1210,
-113,
-2723,
26,
225,
556,
1021,
-1622,
1324,
122,
-418,
-1767,
-774,
-24,
1127,
-219,
1504,
1281,
1960,
285,
669,
-699,
-2928,
-81,
-1788,
-2038,
68,
-1805,
1181,
1468,
-1218,
2092,
-486,
-1762,
-954,
-2293,
-519,
1736,
-1568,
1232,
-1760,
-592,
4629,
-832,
920,
1337,
169,
-1867,
-978,
-950,
1885,
-34,
-1920,
-1446,
811,
1855,
-193,
-583,
407,
970,
-838,
-397,
806,
1622,
131,
-546,
-203,
-423,
286,
49,
367,
516,
-317,
-1296,
-706,
2121,
1278,
237,
-525,
605,
964,
2898,
-1258,
932,
1457,
1103,
1572,
1259,
1344,
-1145,
-1450,
-510,
1030,
272,
-789,
-1031,
755,
-1727,
-50,
-2392,
-1804,
791,
-965,
-134,
-2351,
-2257,
2717,
5516,
3016,
-2179,
1894,
1757,
1035,
2686,
840,
2633,
-363,
398,
-1834,
-1169,
-506,
-2507,
1088,
1652,
611,
-884,
-4839,
-49,
-1648,
963,
-735,
237,
2432,
-617,
1750,
1612,
1148,
-2033,
-1701,
-838,
2046,
-128,
-2533,
1155,
1687,
1773,
2794,
-1610,
2072,
-780,
688,
539,
-2656,
-2008,
-1096,
-1630,
-3574,
-620,
-995,
-639,
-1356,
-1381,
1308,
-310,
-1619,
3733,
3096,
1560,
1045,
-255,
178,
-2046,
407,
488,
-898,
114,
-330,
-1486,
-1802,
-1161,
-381,
-288,
-2034,
-1319,
33,
832,
-1175,
-100,
-981,
562,
-1117,
852,
-675,
-1171,
453,
-1336,
-1917,
2335,
3640,
1163,
-1171,
771,
384,
-898,
-443,
1929,
4837,
606,
-3845,
-1657,
1308,
646,
-3779,
-3154,
-858,
914,
-4736,
1694,
1359,
785,
1507,
-148,
-1852,
928,
-2824,
1885,
-511,
-314,
-3541,
-1960,
-2657,
-3608,
762,
2740,
410,
-147,
2297,
1250,
-137,
-675,
2172,
541,
-1815,
-2192,
1040,
-1448,
-2166,
-1846,
-1437,
-1536,
-116,
1854,
479,
-915,
163,
1138,
1321,
-2634,
1262,
1539,
2087,
-388,
-909,
1589,
-594,
-1123,
-786,
352,
-145,
-1207,
749,
1537,
1260,
-1666,
-2617,
-1097,
-876,
-585,
-2047,
-3613,
1603,
890,
4543,
1975,
1083,
-514,
628,
-21,
-1032,
-1199,
-927,
626,
-766,
1073,
-454,
660,
-2041,
-279,
-373,
1571,
1558,
1661,
2153,
4231,
1710,
855,
71,
-2462,
-1022,
2974,
1968,
-4177,
1740,
1729,
-501,
1503,
1188,
2935,
928,
549,
-609,
-563,
-237,
-608,
-2044,
-84,
152,
-1688,
-3323,
226,
785,
434,
778,
2584,
3964,
1640,
-2740,
-950,
-145,
1273,
55,
180,
-2457,
-1137,
-1211,
-878,
-2536,
451,
1070,
890,
-1894,
-470,
-1453,
-583,
-192,
-363,
558,
-2498,
-778,
346,
-3291,
-1091,
-1759,
426,
1553,
-577,
493,
2077,
2415,
-307,
1598,
-177,
414,
728,
2459,
2909,
276,
-1612,
282,
-2379,
1316,
-1115,
-3003,
1652,
-1429,
-462,
-886,
-1379,
-86,
-2420,
1885,
6376,
-2238,
-1824,
-294,
-2022,
-2770,
745,
-737,
-1975,
-15,
2478,
1555,
920,
1202,
2361,
-524,
-321,
914,
1382,
-1278,
-2919,
-1137,
1416,
1619,
609,
1406,
1258,
1905,
-1639,
97,
-2398,
577,
2067,
-286,
-2811,
-1712,
-1608,
3628,
1037,
2038,
-1920,
-1407,
673,
1909,
-308,
-2378,
303,
453,
2719,
-1182,
-488,
922,
823,
3717,
-1529,
-1984,
1925,
2969,
-574,
-1117,
-1379,
2341,
207,
-1724,
-231,
1252,
442,
2966,
-1239,
-510,
-2383,
2398,
2427,
-428,
-1152,
1485,
1834,
-244,
777,
735,
36,
-3455,
-4467,
-1733,
-1789,
-541,
-1630,
2051,
1267,
-448,
-793,
-2385,
2915,
4652,
487,
-686,
-4660,
-863,
1564,
-588,
-195,
1666,
2079,
1478,
-1141,
86,
619,
-133,
357,
-306,
1213,
-331,
527,
71,
-1085,
-1616,
-1511,
-22,
1503,
1198,
727,
163,
1192,
1196,
391,
-99,
-211,
-1171,
922,
-191,
-1573,
-720,
-524,
-1807,
560,
-1538,
1513,
-1605,
-350,
-1155,
-1418,
-836,
-1213,
395,
-1072,
1175,
-1196,
843,
-1410,
-76,
-631,
-914,
1205,
-1563,
-92,
1245,
-1102,
195,
-1250,
822,
111,
-159,
-292,
-176,
649,
-602,
610,
-868,
-1064,
558,
1166,
-1121,
-811,
-1374,
781,
-452,
-1641,
333,
-241,
-41,
-1056,
-1505,
-1,
-563,
1193,
-926,
1153,
-215,
-130,
-686,
-650,
1419,
-789,
461,
-1026,
-1319,
603,
-1517,
445,
805,
-1138,
1464,
-915,
-237,
-666,
-1286,
722,
-174,
-488,
-1506,
1313,
505,
-764,
479,
520,
-576,
-93,
-624,
102,
-1347,
-1690,
1223,
953,
-1464,
47,
1390,
-1459,
-915,
1453,
-784,
688,
1403,
-175,
-856,
54,
826,
-1203,
707,
-883,
-137,
-853,
-876,
1087,
1488,
-1166,
77,
1209,
-925,
1187,
-996,
-1062,
368,
-808,
-1063,
1421,
-1160,
-1275,
-1628,
-1362,
-1091,
-1250,
1311,
-847,
733,
-909,
582,
-188,
-845,
-1495,
-1603,
588,
1292,
-641,
1168,
204,
-1435,
-1438,
-629,
-120,
753,
-161,
1050,
-992,
-702,
1565,
-95,
1539,
1186,
81,
-849,
-1409,
-334,
-343,
-731,
-46,
959,
9,
307,
-1173,
193,
-1085,
314,
924,
-180,
631,
-1190,
481,
-1063,
-45,
-51,
1327,
-429,
-1422,
-1257,
194,
-85,
-362,
-574,
-830,
-17,
-856,
1166,
-889,
-1649,
221,
-1306,
79,
-1144,
-1265,
1530,
-1055,
-1573,
178,
34,
-1357,
-1197,
-437,
-45,
1414,
-981,
964,
1318,
75,
1091,
-1295,
548,
155,
-306,
-149,
1538,
-1642,
1153,
-592,
-1,
1349,
-637,
1545,
-771,
-24,
-1539,
-1186,
-1520,
814,
397,
-79,
1188,
1319,
846,
1360,
-735,
255,
-184,
-198,
1374,
352,
159,
-1397,
-292,
-1241,
-326,
-1454,
-704,
-827,
1176,
-873,
524,
595,
-1614,
-932,
909,
-542,
327,
-754,
1327,
-741,
399,
-1016,
618,
-701,
-281,
-722,
-1127,
963,
1614,
427,
-15,
-1042,
610,
122,
1023,
-464,
14,
-252,
-161,
1488,
-972,
967,
1350,
-1426,
27,
-1111,
384,
-700,
-1341,
-1314,
190,
-559,
1384,
-1339,
669,
463,
795,
840,
164,
277,
1537,
887,
794,
1234,
1195,
-1321,
592,
1155,
70,
-157,
829,
-1387,
1164,
1537,
770,
-664,
-862,
-1015,
-1059,
812,
632,
-1589,
-1095,
-160,
181,
-731,
-1435,
894,
-1170,
-546,
253,
849,
575,
-1053,
-1230,
-1339,
316,
-1395,
-1598,
-521,
-627,
-1137,
128,
742,
-66,
1083,
-879,
-330,
1208,
-1305,
940,
17,
1224,
949,
1419,
789,
-1524,
858,
-1582,
1228,
1045,
-1647,
-710,
-685,
1238,
-1339,
-549,
1144,
-1236,
-2105,
-660,
-4637,
-4432,
-1378,
-3184,
-262,
-1703,
-469,
1085,
-1969,
3698,
5283,
3135,
-573,
2349,
3343,
1987,
514,
-4072,
957,
-184,
-3297,
-4056,
-919,
485,
606,
2079,
1453,
1585,
-17,
-4221,
223,
-122,
479,
-144,
-917,
-171,
-4086,
353,
-120,
3043,
-1776,
-2733,
23,
-237,
200,
163,
1373,
704,
-969,
-1142,
152,
1264,
273,
-1756,
1835,
268,
983,
555,
-2064,
-472,
-1130,
-260,
591,
1981,
828,
781,
19,
-709,
2137,
1984,
532,
297,
1175,
1017,
-1595,
-829,
-798,
310,
707,
-475,
1107,
1230,
783,
-595,
2188,
-927,
1783,
-853,
866,
1961,
-369,
633,
979,
-50,
-2342,
-639,
154,
405,
-1861,
-1025,
-39,
-3218,
35,
1753,
819,
3666,
-582,
430,
3212,
-1223,
1886,
-1136,
1056,
2292,
788,
-4712,
-3057,
-1161,
-314,
-1452,
589,
1808,
2409,
864,
109,
1652,
2459,
-2925,
134,
-351,
-3998,
-1163,
257,
-1128,
-2040,
-760,
-1023,
-795,
249,
2495,
3384,
139,
487,
2990,
23,
864,
-202,
199,
-577,
901,
890,
-142,
-555,
1789,
-118,
-2689,
734,
-175,
1605,
1409,
-242,
352,
-506,
-929,
-623,
1698,
1061,
745,
-78,
-2112,
656,
1138,
-481,
302,
-1966,
478,
-996,
2776,
-2577,
-269,
1572,
-212,
917,
126,
1494,
1970,
-722,
157,
-347,
2891,
2163,
992,
400,
-453,
1233,
-1003,
-1782,
1240,
1819,
419,
-2939,
-1309,
198,
616,
-2208,
-1835,
-195,
-2050,
-179,
-1443,
-106,
-1108,
-86,
-1288,
769,
2658,
2056,
-2974,
1750,
3451,
3983,
-891,
-1084,
-1586,
-2051,
-964,
393,
-425,
73,
65,
-664,
1860,
1468,
755,
-882,
2322,
3822,
691,
-606,
-663,
155,
-114,
2324,
-351,
-675,
-2095,
-2649,
-2437,
272,
-534,
1939,
-1215,
-1674,
205,
537,
3015,
570,
-821,
-449,
343,
-1647,
1311,
516,
-581,
-3021,
-1077,
2744,
-345,
-203,
2186,
921,
1112,
1763,
-214,
-440,
608,
1221,
276,
220,
2771,
2367,
1450,
-2063,
2490,
-142,
-5192,
-324,
-1772,
-1287,
1405,
409,
-398,
-1646,
-756,
2545,
200,
1078,
157,
32,
1204,
-989,
-937,
-2418,
1771,
1090,
1077,
945,
-1990,
3337,
-486,
-2252,
476,
1249,
-60,
-1255,
1101,
-410,
979,
-2840,
-1122,
2789,
1810,
-2686,
-2196,
-2981,
-1799,
-496,
-1340,
-1630,
411,
-54,
1742,
-2002,
-570,
123,
-1212,
4375,
2528,
2174,
-1678,
-987,
2190,
293,
310,
-2459,
1669,
1663,
2557,
-2420,
-872,
541,
-855,
1353,
74,
449,
647,
-1639,
423,
1462,
-1286,
947,
-338,
328,
-1478,
-5667,
2415,
2315,
1403,
-787,
-3458,
3787,
-371,
384,
180,
-2048,
302,
-1232,
1292,
7,
1747,
1723,
3594,
-2070,
567,
-135,
-721,
-554,
649,
2392,
-48,
-228,
56,
-453,
-835,
-771,
933,
-2930,
-3329,
-729,
-426,
-1717,
-2564,
-358,
-3465,
-3632,
-6931,
-2579,
-1955,
1692,
-558,
656,
1968,
2729,
818,
1306,
196,
1812,
-770,
964,
480,
-684,
-999,
-738,
-1708,
-1336,
-1758,
-1075,
1462,
-1701,
-1559,
-1305,
438,
820,
-1493,
590,
2161,
-1527,
473,
-1587,
998,
126,
-1436,
1004,
-2156,
2544,
-443,
-2195,
-1012,
-231,
180,
1896,
3085,
700,
-565,
504,
-2174,
945,
-645,
-1949,
-1968,
126,
-751,
1278,
-710,
-1656,
-220,
-232,
799,
-1949,
-2188,
378,
-2296,
1660,
-408,
-264,
-1720,
-201,
389,
503,
-516,
-1116,
1451,
-344,
23,
1493,
1376,
212,
982,
740,
1138,
-928,
-1057,
183,
522,
676,
183,
484,
924,
-1351,
-2228,
-415,
1549,
-130,
-1391,
-984,
-3603,
-564,
1096,
1383,
6051,
1162,
-2979,
2002,
2518,
-2041,
-2308,
-1332,
1613,
819,
-2194,
-1038,
-1097,
493,
423,
155,
1219,
744,
-2254,
1140,
128,
-3513,
-1270,
-2133,
555,
-1433,
-2065,
564,
-1156,
579,
453,
1440,
254,
-139,
-918,
-2637,
-380,
-1259,
1515,
-921,
296,
-894,
-1531,
557,
-969,
-1243,
-2132,
-419,
-281,
-70,
927,
-1585,
-1651,
-199,
-100,
-2177,
-1233,
-1142,
-744,
321,
134,
-2184,
1728,
-1617,
-1352,
-2484,
-940,
-1502,
-858,
-3614,
-4712,
-1895,
-3505,
-1309,
1384,
2542,
4291,
2192,
2,
-925,
-465,
-686,
580,
415,
2142,
-361,
1146,
-626,
-969,
1370,
1161,
-544,
-135,
1647,
432,
-353,
-3,
-857,
-7,
24,
194,
676,
1122,
-1137,
-1409,
193,
-487,
-1074,
-1537,
-1665,
-747,
740,
-1550,
-1877,
312,
352,
749,
-603,
-1165,
1204,
425,
-1053,
-783,
-700,
239,
-2002,
-2082,
34,
1691,
39,
1981,
1020,
-140,
2616,
-1094,
-1851,
-1761,
-1904,
269,
1932,
105,
3553,
1899,
2238,
409,
2283,
249,
2382,
382,
1500,
-908,
-2209,
-2455,
462,
1201,
-714,
-744,
-3247,
1045,
1956,
278,
133,
-2739,
1598,
163,
371,
2720,
843,
709,
-761,
141,
2015,
807,
-251,
2572,
2797,
1523,
3110,
-734,
1036,
-329,
-793,
97,
462,
-1198,
-2562,
-1353,
-1646,
-929,
-1167,
-601,
2919,
1977,
819,
547,
1016,
-241,
2117,
-1487,
2899,
-2341,
-1235,
1278,
252,
-700,
1699,
-2893,
955,
-961,
-66,
3164,
-971,
-276,
-2419,
-566,
685,
209,
1160,
65,
-683,
-146,
48,
-404,
-573,
918,
1969,
-300,
-795,
1629,
1477,
-177,
182,
242,
173,
1068,
717,
-28,
644,
-612,
503,
-1151,
1310,
2029,
491,
2723,
-385,
-348,
1110,
-688,
3156,
-470,
1405,
1313,
1550,
990,
-520,
978,
-111,
-872,
364,
-617,
-327,
41,
482,
-178,
1260,
1495,
877,
-811,
-750,
-801,
-1633,
-295,
277,
1571,
1359,
-827,
2423,
1310,
4233,
2282,
2092,
-2538,
-450,
266,
1706,
2145,
1071,
-624,
-326,
-1338,
-1151,
-656,
-1275,
-3525,
-5090,
-741,
-2421,
-994,
2129,
2243,
3423,
3171,
2989,
-77,
-474,
-1318,
1222,
-1416,
-948,
1274,
-18,
-2789,
28,
285,
-1014,
2116,
1189,
613,
1149,
635,
-2156,
924,
2204,
-2520,
1824,
-2809,
-2136,
14,
-3778,
-1864,
-2668,
-901,
-292,
-1835,
-895,
836,
-1239,
-380,
802,
624,
-684,
946,
711,
965,
-855,
-2460,
-1233,
940,
1050,
-1897,
782,
471,
503,
-714,
27,
-532,
-915,
-1156,
1190,
-2368,
-2199,
1430,
869,
478,
-463,
-1660,
191,
521,
-659,
-1408,
1348,
-1179,
-932,
1971,
-687,
2,
-990,
948,
531,
661,
-1518,
706,
912,
45,
309,
-2204,
-1356,
-1060,
-1582,
1167,
-1710,
282,
559,
-849,
2581,
898,
-956,
-761,
2972,
5429,
172,
-329,
84,
1169,
-327,
-2064,
1191,
-1578,
-651,
-712,
-3484,
-1901,
-451,
-1027,
-550,
-1820,
-1284,
308,
1533,
-1945,
-1722,
-722,
130,
801,
1045,
98,
767,
228,
-234,
-1831,
-822,
-1300,
-452,
942,
-628,
-265,
-2002,
384,
975,
-1280,
-705,
408,
-1789,
-1102,
1046,
741,
-1910,
-945,
35,
-2080,
-503,
95,
-724,
-2497,
-512,
783,
-463,
-848,
-1034,
-873,
-1494,
1583,
1245,
-2384,
-2591,
-361,
-407,
1780,
-795,
-2711,
-457,
-642,
2134,
-626,
61,
489,
2743,
1155,
103,
-1496,
-1448,
-267,
1260,
12,
2853,
2814,
-1933,
-672,
-543,
-1517,
-2307,
552,
1332,
-396,
-593,
651,
-654,
1938,
860,
-3849,
-2277,
-313,
90,
-58,
-213,
965,
-1719,
259,
-925,
-34,
691,
639,
-603,
-1420,
-320,
-870,
219,
-760,
1023,
556,
-1065,
-2496,
-104,
-1401,
120,
-2086,
2084,
462,
-553,
739,
217,
2592,
-1165,
-1772,
-1622,
295,
-670,
448,
-285,
564,
-316,
189,
1589,
-96,
2463,
-1153,
-970,
-761,
-1017,
315,
733,
-2669,
-1273,
1987,
1464,
-787,
-863,
1819,
610,
601,
-473,
-2387,
148,
-353,
2137,
1576,
-1244,
2236,
1238,
-142,
-645,
-996,
1577,
-703,
803,
4098,
1571,
-2506,
462,
2419,
-1531,
-2232,
-2377,
430,
-2664,
-2937,
-626,
-684,
747,
1460,
-786,
-488,
-733,
964,
-1065,
213,
1281,
-820,
-592,
-430,
-905,
-1371,
-864,
-1322,
612,
-841,
-1599,
131,
2909,
1515,
-296,
2770,
715,
-1114,
548,
-957,
1713,
-1006,
-253,
-792,
734,
-275,
-1109,
178,
1232,
2444,
-226,
2167,
-1635,
351,
1724,
-1663,
-200,
1249,
1651,
683,
-328,
1384,
744,
-515,
759,
1026,
765,
-663,
399,
696,
-1067,
-953,
-532,
-266,
1600,
475,
811,
861,
1022,
673,
-2834,
-995,
2077,
1903,
-785,
-40,
496,
-17,
-43,
-2157,
-1718,
-2030,
-680,
-1448,
-2956,
-2272,
506,
2253,
348,
-1773,
3357,
1388,
-950,
814,
773,
-2790,
-775,
926,
2408,
-762,
-2224,
-1137,
64,
2615,
340,
-523,
2168,
-347,
440,
-949,
2511,
3461,
469,
-798,
-1439,
-1815,
1291,
-2014,
-2437,
-2916,
-745,
-1703,
1265,
469,
2091,
110,
-797,
-1485,
730,
747,
-902,
-920,
-18,
998,
3066,
-325,
-643,
-1843,
1414,
1163,
-1473,
-2844,
1665,
1657,
1814,
-829,
-2704,
816,
1788,
3357,
166,
776,
635,
-981,
317,
-507,
372,
-768,
740,
3232,
1401,
806,
1003,
1350,
-1752,
-962,
-1321,
1325,
2316,
1810,
-422,
-689,
149,
-1107,
50,
1480,
662,
-1207,
306,
-1581,
-729,
1334,
-559,
648,
1277,
-832,
-628,
-1021,
502,
-210,
2892,
1235,
-244,
-731,
-772,
1420,
28,
-455,
916,
-708,
-1697,
-618,
-521,
1046,
-508,
-2188,
815,
-1848,
-912,
2983,
821,
2145,
-877,
-1936,
-252,
-475,
601,
-3633,
-2172,
-3008,
-2643,
1827,
-244,
2111,
647,
-295,
399,
909,
2388,
426,
285,
142,
-875,
1049,
121,
-791,
796,
-378,
489,
441,
1207,
712,
-667,
-940,
54,
504,
1755,
-1756,
-1921,
1927,
-458,
2110,
300,
110,
475,
984,
-1383,
785,
-749,
2226,
147,
-784,
-1391,
1640,
1751,
-2239,
-1769,
-1963,
231,
-1557,
-363,
328,
1675,
853,
908,
-434,
674,
-102,
-210,
-960,
-1216,
2306,
-858,
-2406,
-1345,
1178,
1408,
-1276,
557,
-1449,
-414,
2202,
-375,
-879,
-858,
787,
1719,
701,
-322,
1499,
-531,
1643,
998,
936,
601,
-2763,
-2644,
332,
209,
259,
-4362,
-4063,
-36,
1033,
-714,
422,
-1940,
1724,
-360,
-586,
2042,
-1133,
-259,
-820,
-1274,
2015,
455,
525,
1194,
-73,
187,
1264,
1421,
586,
2054,
-1388,
65,
909,
1398,
-605,
-526,
-1789,
-787,
-296,
-1190,
586,
-81,
1525,
-1406,
1686,
1380,
-2123,
919,
2296,
694,
-2095,
1030,
805,
2458,
3186,
-1525,
-869,
-1091,
2771,
411,
1190,
-1428,
203,
2376,
130,
397,
-1347,
727,
793,
-1931,
-1925,
98,
-965,
96,
8,
-431,
-204,
-416,
1188,
816,
-1278,
1138,
-1378,
156,
2630,
-1147,
1273,
-1052,
3743,
1948,
2028,
534,
835,
337,
1006,
37,
-14,
2645,
343,
-410,
505,
-529,
127,
-2002,
570,
-1267,
559,
250,
-465,
3045,
-478,
-770,
1666,
182,
1089,
-729,
426,
1646,
180,
-3816,
-1043,
-2125,
448,
-548,
537,
-2548,
-750,
1280,
2164,
-991,
-2057,
310,
960,
-1474,
430,
235,
-827,
-1318,
756,
-397,
-2046,
-405,
-349,
215,
-508,
-1508,
-2187,
1960,
-266,
-2255,
-587,
1698,
1761,
363,
-3214,
-1693,
1307,
1261,
544,
-1409,
1684,
1244,
1287,
657,
-708,
206,
-857,
1484,
-528,
-2238,
-1697,
597,
1401,
2663,
2177,
-36,
968,
1370,
995,
-298,
-4338,
-3171,
-389,
-2650,
-1584,
-4037,
-400,
-254,
944,
1059,
133,
1109,
1308,
2272,
1064,
1010,
613,
925,
2145,
2093,
886,
-760,
2198,
2089,
-351,
-2127,
443,
-61,
1048,
1084,
22,
-548,
-1622,
-1830,
869,
943,
1212,
-2787,
-862,
1836,
2117,
2411,
-1197,
134,
432,
214,
-2155,
1914,
-1020,
1313,
-231,
-245,
405,
470,
-1022,
-1159,
347,
53,
643,
-263,
-294,
-568,
-1204,
1583,
2035,
1835,
-499,
635,
2117,
-1418,
390,
-485,
1607,
361,
812,
937,
1158,
1762,
-606,
-1209,
570,
702,
-373,
1649,
1577,
-26,
496,
-1586,
225,
-543,
806,
129,
1734,
-75,
1344,
-1742,
-1585,
1522,
-587,
461,
1006,
-225,
448,
749,
518,
-26,
-1180,
915,
-614,
-15,
949,
-1138,
-972,
-267,
-402,
-1109,
1315,
-1085,
1616,
417,
-1746,
1192,
571,
-1384,
-1822,
331,
-1471,
-418,
-3216,
-371,
29,
-1253,
901,
108,
-2368,
-259,
-579,
-164,
1437,
-779,
336,
702,
-218,
640,
-303,
429,
-1933,
1319,
815,
542,
-538,
585,
171,
1658,
-1014,
-858,
-1037,
885,
1526,
691,
863,
975,
238,
-1497,
-467,
-1671,
-1360,
-357,
-322,
-1331,
-975,
232,
1879,
1134,
1057,
-1448,
1716,
293,
-655,
-1095,
795,
1043,
1009,
-711,
880,
-1436,
-1299,
-288,
650,
-1619,
-418,
365,
1033,
2316,
1793,
1784,
728,
825,
-490,
253,
1379,
-960,
-537,
797,
-602,
-706,
69,
724,
1101,
551,
2275,
1367,
198,
-1821,
-1119,
861,
396,
-1303,
-2170,
194,
789,
-326,
148,
-1091,
385,
891,
873,
-873,
1086,
-108,
152,
-843,
-822,
1061,
1518,
-501,
-533,
-1327,
-1616,
1652,
-1974,
303,
74,
-470,
1151,
1266,
1107,
-226,
-159,
611,
-302,
981,
-944,
1014,
1632,
-1055,
-1065,
-661,
-2082,
-648,
678,
-539,
754,
-2096,
-1228,
1450,
-1022,
980,
8,
433,
-820,
206,
-94,
764,
-666,
-1443,
137,
-1390,
-1470,
1615,
1900,
-673,
-514,
2153,
-118,
-925,
-838,
-288,
2127,
635,
-1789,
-294,
1700,
684,
232,
-1357,
-894,
-1293,
-857,
-959,
-1393,
865,
1400,
1151,
86,
1986,
226,
-1412,
-1681,
-1339,
2465,
-302,
384,
1390,
-123,
-1338,
537,
263,
-948,
-2076,
-1641,
-371,
1046,
360,
970,
-838,
-119,
1149,
-53,
-219,
-1884,
285,
790,
-1155,
-1402,
348,
-253,
2727,
2075,
-2103,
1513,
-322,
12,
-1836,
-645,
-786,
78,
291,
958,
2147,
-644,
266,
-1113,
-2103,
-552,
-1887,
-585,
-1351,
222,
472,
-380,
-1561,
-1216,
1444,
2851,
-49,
1160,
1295,
523,
-1266,
-2037,
233,
834,
-704,
-1163,
731,
-766,
-336,
-1908,
-1268,
272,
1465,
1784,
-1062,
-29,
-1221,
-1469,
792,
468,
1288,
-1364,
-1223,
-1080,
264,
-555,
77,
-149,
1941,
854,
-1079,
276,
552,
-1959,
-596,
1225,
-87,
1523,
-1936,
-447,
1583,
-662,
-2,
866,
2107,
1339,
-983,
-489,
-133,
-1863,
-2834,
-2543,
708,
-2544,
-2112,
-1495,
1490,
5957,
1004,
345,
1353,
73,
2054,
1404,
-1079,
34,
1197,
-3894,
-1134,
2314,
-859,
-3022,
-3099,
-1119,
423,
2581,
665,
1894,
-1083,
1048,
1131,
764,
-1863,
224,
508,
-583,
-2012,
-650,
1958,
1519,
692,
-124,
260,
732,
423,
3911,
797,
-48,
-2049,
-961,
-376,
-2134,
1684,
-1806,
-1296,
-504,
1865,
1954,
-1559,
-1792,
-806,
-520,
-1573,
1748,
79,
-135,
670,
154,
2761,
1220,
-312,
867,
-1038,
-811,
1086,
775,
81,
1536,
110,
338,
1517,
2255,
-925,
581,
1974,
2575,
-825,
1470,
-1959,
1096,
1021,
-2128,
364,
17,
-1253,
-2579,
2172,
-918,
-713,
4139,
-60,
-3556,
1049,
-620,
4606,
1109,
14,
1469,
1410,
3385,
1280,
-2011,
2147,
-2519,
1191,
2521,
-1094,
-1838,
-654,
-557,
201,
-800,
-181,
178,
-1442,
-2146,
1847,
3588,
-1470,
-2124,
-329,
548,
-952,
-1702,
-288,
-1337,
91,
-2132,
1462,
2355,
413,
-1793,
-536,
2622,
1278,
203,
947,
-1501,
867,
848,
665,
1083,
632,
107,
-685,
248,
-2420,
761,
1580,
749,
4,
-915,
-550,
-1272,
482,
563,
899,
-807,
-2124,
-695,
-267,
735,
-1006,
-419,
-3003,
-2087,
1952,
2386,
266,
-622,
76,
860,
3545,
1722,
1070,
1074,
-532,
-1384,
-2003,
-686,
-874,
1020,
-1738,
-253,
1844,
-19,
-839,
226,
247,
571,
730,
-1891,
-283,
-47,
-2568,
797,
-1869,
-501,
-819,
-31,
1244,
-2618,
-1312,
-1319,
-1619,
1548,
-359,
-587,
287,
1505,
3557,
-430,
-1789,
913,
-97,
958,
-1829,
452,
1345,
875,
-1084,
-71,
1621,
-1333,
1151,
2058,
466,
-1562,
102,
-1239,
-124,
-329,
-560,
-1156,
-1463,
-964,
-2370,
-276,
637,
2750,
582,
1530,
1316,
-1053,
2929,
2118,
549,
945,
26,
670,
-1380,
659,
-613,
-1492,
559,
-364,
-1205,
50,
-180,
430,
-2238,
1950,
-1682,
-1680,
-2324,
-597,
-762,
3934,
78,
358,
710,
1298,
2563,
147,
-1819,
-2406,
-767,
-2714,
-450,
1134,
-787,
-3511,
158,
2732,
728,
-1091,
1003,
-691,
2508,
2653,
-1649,
-1374,
-668,
3333,
1935,
-1625,
-1114,
-1673,
568,
2928,
1111,
1057,
57,
-1367,
-10,
-1011,
-1394,
-1223,
-2351,
671,
3017,
346,
688,
1133,
2753,
845,
-592,
-1748,
-1244,
1883,
179,
-321,
-456,
220,
2557,
967,
-653,
270,
-1839,
610,
434,
-102,
-713,
870,
796,
736,
1619,
805,
-909,
2787,
893,
583,
693,
-1412,
4509,
-764,
550,
1692,
-781,
2081,
-1757,
-433,
-571,
101,
-1419,
458,
-1459,
486,
1294,
-1500,
656,
-1415,
-523,
-711,
-2214,
-959,
-3291,
513,
-127,
2088,
-856,
-439,
755,
802,
3448,
84,
-2380,
-2816,
-1024,
1497,
-1497,
-1778,
-4108,
-807,
3058,
1059,
-3734,
-3774,
3031,
3250,
1060,
3908,
-183,
1267,
241,
3848,
544,
-460,
1862,
1503,
791,
-924,
-160,
-3172,
-1570,
-2232,
965,
2871,
-984,
-712,
32,
-2669,
398,
2181,
199,
-117,
1273,
2430,
4008,
4060,
997,
-2156,
1654,
-1646,
-1528,
-84,
-1136,
-784,
-3760,
-67,
-3320,
-1299,
400,
-2068,
-1512,
-718,
1909,
-214,
761,
-1018,
-1146,
-120,
-897,
-1542,
-2656,
1448,
-1111,
-289,
2677,
526,
-1759,
608,
1535,
81,
-139,
205,
-754,
-1091,
-836,
-1563,
838,
-226,
449,
1409,
1649,
-203,
-622,
-1075,
1740,
-991,
-446,
596,
882,
-662,
-469,
-223,
378,
1910,
-221,
1505,
-689,
-163,
329,
-1022,
1772,
1419,
793,
-981,
-1165,
1450,
3080,
2073,
1072,
956,
1834,
1014,
1388,
-432,
-989,
-778,
-1944,
-3425,
-1971,
-3330,
-2235,
-969,
-3164,
-182,
-1316,
-172,
-965,
1045,
210,
44,
2113,
-2413,
-1633,
2253,
1657,
-1776,
819,
383,
-1488,
375,
2296,
-38,
2584,
-375,
-679,
-1364,
826,
1150,
446,
-741,
-2082,
-2752,
-1564,
502,
223,
1099,
-482,
1205,
10,
-998,
780,
1201,
-130,
-1856,
-2505,
-822,
827,
-1591,
426,
-1662,
-717,
-198,
-604,
-359,
693,
-933,
406,
1250,
-1142,
2114,
1890,
2313,
866,
393,
3169,
44,
-1102,
-1649,
166,
-1603,
409,
-613,
-707,
1124,
-2927,
-2657,
170,
-949,
727,
608,
-268,
1667,
42,
-611,
-126,
828,
-472,
85,
171,
-407,
506,
-816,
1823,
568,
-229,
675,
2029,
-676,
543,
669,
463,
242,
467,
1012,
760,
-1143,
1207,
350,
200,
-371,
-1523,
784,
173,
708,
-465,
1939,
-785,
-1966,
1248,
471,
-280,
-372,
-501,
196,
330,
1517,
-446,
-1146,
1181,
351,
246,
393,
-755,
-260,
1040,
-946,
-883,
-2342,
-565,
-78,
2054,
47,
1111,
828,
-1108,
773,
-380,
0,
-225,
869,
1980,
-3205,
847,
-1349,
-130,
2198,
-1763,
96,
546,
902,
2608,
-283,
392,
-51,
501,
223,
-972,
-560,
1402,
1250,
250,
169,
2227,
2489,
907,
1821,
-567,
2711,
-2520,
738,
-706,
-2244,
-3288,
-413,
-1153,
-2764,
-2298,
-2221,
-823,
-527,
-1499,
211,
1273,
-628,
-2266,
-610,
1074,
3345,
-1916,
360,
-2699,
468,
-567,
-1022,
3287,
4024,
2537,
813,
-127,
-1540,
-1043,
-3955,
-1259,
909,
-772,
1223,
-1188,
1311,
2108,
-350,
-266,
-1323,
56,
1001,
-872,
-1556,
-83,
-5,
402,
538,
656,
3723,
2903,
-2594,
184,
-972,
-510,
-2639,
1606,
-188,
563,
706,
1310,
450,
-1888,
-1730,
-2405,
569,
1075,
-217,
-1302,
1887,
-1008,
849,
737,
2477,
168,
415,
-253,
1620,
1659,
750,
-1352,
-1229,
2244,
-606,
1449,
-1571,
679,
346,
-1069,
-1631,
-225,
3047,
248,
-1405,
-947,
1406,
721,
2541,
1034,
241,
-1344,
-2845,
1323,
-843,
-454,
-1942,
1107,
-958,
-2049,
-3224,
-1763,
-2132,
-1991,
-1301,
-2312,
-1278,
-2293,
3059,
1809,
2149,
1265,
-2173,
2155,
2065,
-992,
-2448,
964,
1237,
-454,
-2101,
-2419,
-1726,
-660,
-320,
-1510,
2364,
-635,
281,
1202,
4404,
-551,
2887,
-800,
68,
-1734,
578,
2061,
-1091,
-1917,
-1516,
-2003,
457,
1640,
798,
-795,
2046,
975,
-862,
877,
-207,
67,
553,
-2403,
-300,
478,
1850,
-817,
278,
-938,
986,
-1607,
10,
-1348,
-1166,
-1482,
987,
-1056,
-301,
82,
-173,
560,
1786,
535,
-1364,
-131,
157,
-701,
-285,
-279,
-503,
-1642,
-1207,
1860,
427,
1120,
929,
1294,
377,
-1563,
-1085,
-716,
-321,
-709,
192,
163,
-3352,
-104,
-637,
-3117,
-1645,
-1274,
-1875,
826,
-2738,
-1659,
-291,
891,
1619,
1330,
507,
415,
2436,
336,
-2549,
-33,
2060,
1565,
-1121,
478,
-1082,
-229,
416,
-281,
805,
-1317,
-1241,
-996,
-1050,
196,
-2180,
309,
-1080,
262,
-853,
-1422,
556,
321,
1197,
1224,
-1590,
-1617,
1647,
1360,
725,
-1737,
1614,
-1552,
-722,
763,
-1210,
-526,
1493,
148,
-257,
192,
2012,
3,
-26,
-734,
795,
1219,
695,
-1456,
-495,
1910,
1039,
989,
917,
-172,
29,
-823,
4,
-836,
-556,
-1675,
-1866,
973,
-26,
906,
2688,
-692,
145,
1623,
1639,
3260,
2090,
1400,
-577,
-1217,
-246,
-99,
-1419,
199,
575,
534,
1814,
1150,
550,
572,
908,
988,
2243,
-347,
1508,
1750,
-2074,
1047,
62,
-2363,
-1382,
91,
-341,
964,
-2136,
-429,
215,
-610,
-591,
688,
-775,
-1673,
-526,
-1023,
606,
-1125,
1437,
1930,
-521,
-268,
1290,
-1714,
1860,
1654,
757,
-406,
-1347,
1285,
1723,
-1160,
-1476,
1287,
-472,
896,
2871,
1922,
1523,
-935,
-1281,
2503,
-294,
2365,
-621,
962,
1274,
-2207,
1222,
842,
-570,
-3420,
-920,
586,
655,
-58,
-776,
1499,
139,
1345,
-747,
-1064,
-563,
565,
1162,
199,
365,
1204,
1194,
2189,
503,
2580,
-612,
376,
870,
-875,
-1634,
-83,
337,
-2373,
636,
-540,
-3501,
-3491,
-659,
600,
1665,
779,
-205,
1402,
-1305,
233,
842,
923,
609,
3277,
529,
-68,
1480,
1143,
1056,
-3273,
2238,
1433,
1297,
-2357,
1101,
2640,
1808,
-491,
-1411,
1055,
424,
1521,
-51,
1490,
-207,
-509,
-2268,
-1164,
1452,
-930,
-819,
1827,
91,
170,
717,
280,
124,
2796,
358,
-2323,
1044,
-281,
997,
-814,
1740,
639,
-626,
941,
625,
2698,
227,
-1135,
426,
1246,
16,
-3637,
2161,
-82,
-457,
-1895,
-4,
2473,
2096,
-2893,
-1620,
1471,
2177,
383,
378,
-937,
772,
2005,
2535,
-566,
2153,
2113,
433,
673,
569,
804,
-210,
-1175,
-961,
-385,
1119,
-808,
2202,
-2038,
1096,
-1371,
1847,
-662,
-1029,
558,
-593,
-2922,
-5674,
-1396,
-1577,
-1303,
-2891,
568,
1479,
351,
-801,
-1216,
1755,
1599,
1608,
-1885,
860,
3328,
-916,
-798,
355,
2664,
2422,
-1063,
400,
-1543,
-1586,
-2667,
-2461,
-1716,
915,
-163,
1113,
-266,
213,
3624,
4132,
1362,
-1635,
-1334,
-489,
827,
208,
-12,
-685,
-584,
267,
-1647,
-909,
-2614,
-2087,
584,
1281,
1625,
-794,
-995,
1377,
1357,
707,
-2488,
324,
899,
-690,
-1220,
-818,
-1304,
-621,
-318,
-918,
-1488,
-604,
1392,
-629,
1393,
-371,
1062,
-2044,
-852,
2083,
1473,
1867,
362,
-1559,
-736,
1111,
2200,
464,
318,
1225,
-1002,
907,
-710,
244,
1029,
-1412,
483,
-1570,
-1940,
1559,
-544,
-1788,
506,
-620,
-384,
653,
-1848,
-5766,
592,
1633,
1519,
1538,
-705,
591,
1145,
1699,
2583,
-706,
1132,
-236,
1734,
4195,
-2194,
-3647,
-1537,
95,
-54,
-122,
95,
1111,
1080,
-254,
-1809,
-1180,
-827,
-1141,
-445,
-854,
518,
510,
-1793,
-111,
-1722,
-180,
-1698,
-1158,
196,
-607,
-1281,
-1259,
-1324,
-716,
-534,
514,
897,
-2439,
1008,
1218,
1295,
466,
343,
441,
938,
1722,
-481,
1058,
-243,
778,
155,
547,
524,
-1662,
-1240,
-332,
-417,
1232,
-2715,
-2667,
-3129,
-1434,
-1082,
152,
-647,
2064,
2462,
-88,
-124,
3231,
1607,
754,
-601,
-289,
-683,
-506,
350,
-1023,
-517,
-219,
-965,
140,
-1722,
3813,
876,
3205,
-873,
281,
1529,
957,
2811,
840,
-427,
-66,
333,
-358,
-508,
377,
569,
345,
-387,
-2109,
-916,
282,
1361,
-410,
328,
1414,
825,
943,
-116,
-158,
-570,
1192,
-1375,
-1109,
19,
-437,
1364,
196,
-1294,
-1883,
1358,
-728,
1920,
1248,
1080,
814,
105,
508,
-844,
849,
1716,
-488,
3438,
1814,
340,
2341,
618,
866,
1016,
1787,
406,
-67,
638,
-1712,
-1100,
944,
-1189,
922,
-3473,
-1553,
335,
-572,
-2324,
-955,
299,
107,
-1892,
-1870,
-1420,
-286,
-1092,
1972,
1290,
2283,
714,
-1331,
2715,
2516,
1088,
707,
-1840,
1664,
1040,
-1262,
179,
-318,
-3834,
-906,
-696,
-882,
118,
73,
3328,
914,
129,
2423,
763,
-110,
570,
72,
1728,
-1482,
-878,
1484,
1053,
-172,
2055,
-2061,
-245,
-1159,
808,
1456,
-1388,
1088,
-1173,
1686,
3310,
1605,
734,
812,
1439,
1475,
-2299,
-2241,
2125,
1458,
1591,
-580,
-2609,
-931,
283,
2143,
1806,
-794,
-2,
-169,
1527,
-1049,
-1095,
-1368,
1215,
595,
154,
1854,
1493,
2954,
-817,
53,
120,
-601,
3902,
850,
-2188,
-331,
484,
-101,
1196,
-2605,
-1195,
-6,
-85,
-353,
-1165,
-923,
-1868,
-321,
-945,
-771,
26,
1913,
-568,
-362,
-82,
3089,
1002,
1770,
2895,
-439,
-1063,
90,
2196,
-454,
624,
-2922,
-404,
1785,
586,
-983,
278,
-30,
1024,
1275,
1471,
3932,
-2044,
-2055,
-2625,
-2063,
-2236,
-4731,
-1490,
-170,
1328,
2749,
1905,
588,
-225,
-700,
-747,
974,
3596,
3421,
1347,
-1138,
3157,
-1034,
-414,
1810,
259,
4255,
908,
1424,
359,
-4755,
1827,
673,
168,
-2975,
-991,
1582,
-456,
133,
3564,
1775,
-256,
-2055,
875,
638,
1222,
419,
1749,
3193,
3147,
1298,
-892,
979,
2275,
-3047,
61,
1003,
2853,
-13,
-1070,
-1385,
99,
1238,
-127,
-1637,
-781,
1331,
182,
-1107,
-1993,
1189,
-790,
1104,
-863,
-577,
-2350,
-616,
-1564,
-210,
-451,
-1387,
1948,
-1319,
-486,
902,
-1448,
-5,
-492,
232,
30,
-2439,
522,
376,
-198,
-1522,
-134,
-743,
-4444,
-2008,
3035,
3377,
600,
-2929,
3436,
-2653,
-149,
-1165,
235,
3222,
-1449,
-2538,
-155,
1236,
-654,
2663,
2573,
872,
1306,
-3517,
201,
1596,
-1549,
-2226,
743,
-518,
-2748,
-1909,
3470,
533,
83,
129,
-2476,
2677,
3179,
489,
713,
-597,
1606,
-213,
-3987,
325,
628,
-72,
-2211,
-1681,
-891,
1251,
1799,
1054,
1560,
-1943,
-176,
890,
826,
-218,
-2217,
374,
-1056,
-618,
-126,
-718,
698,
-1444,
917,
-162,
-111,
-1871,
306,
-269,
-1615,
428,
-1581,
-1802,
-37,
1721,
2354,
-2319,
-441,
-1660,
25,
505,
657,
-1200,
-244,
821,
1418,
-660,
453,
2013,
402,
-248,
1027,
-1261,
560,
-1127,
-3487,
-1312,
327,
-2006,
-3495,
-3896,
468,
-783,
-463,
-2016,
-1795,
3920,
2804,
-3262,
-2784,
4252,
4429,
-369,
-1300,
28,
-398,
-1055,
-1211,
-3883,
-1260,
1241,
-537,
852,
-129,
-974,
-202,
975,
329,
-2349,
-2758,
-1888,
-1673,
-693,
-1057,
-2600,
2246,
3857,
-74,
667,
-1171,
1074,
-1230,
1482,
-7,
1092,
-71,
-34,
790,
-570,
-2554,
618,
985,
-55,
578,
-92,
-1987,
1425,
-1947,
596,
92,
-598,
608,
1781,
3332,
137,
-2132,
-691,
143,
-1258,
562,
1205,
684,
-1066,
733,
159,
-1688,
168,
256,
-617,
-733,
-704,
392,
1953,
3031,
5382,
2210,
-3043,
689,
3302,
-1110,
-3532,
-2235,
1529,
680,
-3353,
-4141,
-383,
-2078,
-1476,
800,
-1186,
-1082,
-2022,
475,
141,
-363,
1055,
-1050,
-650,
-1644,
300,
-1557,
1461,
-925,
-2492,
-114,
-1010,
1713,
750,
-1020,
2292,
-1254,
203,
-1778,
-1028,
-634,
-739,
-1161,
-2719,
432,
2165,
1187,
-1308,
-2886,
2219,
-577,
-1389,
909,
-1942,
-948,
1181,
-1640,
1644,
-318,
-1032,
310,
943,
-1032,
-1165,
-1318,
117,
-492,
-1108,
773,
-94,
1227,
72,
-908,
-539,
-137,
1479,
-799,
1252,
255,
-1593,
-865,
-2007,
1289,
-359,
-2888,
1167,
-1326,
356,
-276,
-2765,
-4978,
-3559,
-442,
746,
-2174,
-916,
1576,
-2877,
-1916,
-867,
6397,
4418,
1970,
-1130,
2772,
-1765,
-531,
2429,
1385,
-3256,
685,
-1345,
731,
538,
-5226,
-6486,
-1816,
-1001,
-1164,
-2941,
-3270,
-4409,
383,
1086,
-925,
-2004,
250,
1678,
1095,
-713,
2724,
-1190,
711,
-1181,
-2035,
-2280,
143,
62,
741,
1183,
-3886,
324,
-1584,
-1841,
802,
81,
1723,
-1312,
505,
-142,
38,
4326,
-2137,
-907,
-736,
-1299,
2967,
-2708,
-2258,
-134,
748,
1213,
1341,
-1243,
-678,
567,
-702,
-1764,
365,
-1529,
35,
388,
-1973,
-1892,
-907,
-911,
1093,
-472,
-1240,
-596,
-1616,
1208,
-1254,
-2396,
38,
-1196,
-883,
353,
-770,
-1199,
56,
1154,
-1110,
1349,
533,
1196,
-279,
-363,
760,
-1548,
-212,
920,
-1956,
-3,
-222,
-1102,
842,
-722,
-2437,
-643,
-344,
-201,
1648,
2408,
33,
-2681,
-614,
2258,
-2055,
2030,
-2625,
-1834,
-291,
-61,
2409,
-1834,
-492,
149,
1457,
320,
-1644,
-694,
-2007,
-2646,
3437,
2698,
1400,
2273,
-1403,
-1193,
624,
-368,
1089,
-996,
-2006,
-2910,
-2711,
100,
-3823,
-2343,
-1518,
134,
312,
-1037,
-1747,
-873,
-1080,
1329,
-1427,
-1931,
-401,
-832,
-34,
-689,
222,
165,
-1021,
1630,
1235,
-686,
-1773,
-2127,
-923,
-1678,
926,
-1793,
-1125,
-207,
-466,
270,
-722,
1326,
-3,
335,
29,
999,
820,
400,
195,
-2102,
-2542,
-674,
-1202,
-561,
-2868,
-3548,
1873,
-192,
804,
-1185,
862,
2024,
438,
422,
341,
19,
2717,
-1208,
750,
-2167,
-29,
263,
566,
1093,
85,
-881,
2644,
1450,
-1967,
124,
-192,
967,
1261,
883,
288,
-1476,
1335,
-1487,
-2375,
-1550,
2208,
-2013,
710,
-1023,
1914,
-63,
-3106,
-1633,
-543,
49,
1058,
-814,
1220,
-794,
676,
-31,
-1164,
-1816,
-989,
-2050,
-74,
-69,
-302,
-1154,
-2831,
1114,
1518,
391,
-249,
-1408,
243,
1275,
-1420,
1760,
2444,
-11,
1565,
1,
1315,
-222,
1027,
824,
-1535,
3448,
-2874,
2561,
-528,
-652,
-558,
-2064,
597,
356,
-861,
898,
887,
1422,
-1058,
-593,
-724,
-413,
2082,
2562,
1256,
710,
421,
-2689,
375,
1253,
1475,
-5961,
914,
-1136,
1319,
-1209,
-1194,
-4350,
-1490,
-484,
-2338,
-4699,
-1575,
-987,
451,
1998,
1754,
1615,
-1186,
-1298,
3850,
-1474,
-1791,
-694,
2754,
3127,
3180,
1951,
-359,
2931,
-1867,
-350,
-923,
-1469,
1471,
2647,
909,
-43,
-2395,
-234,
1062,
-1003,
1624,
1470,
-2437,
8,
1932,
450,
941,
-591,
2033,
310,
2150,
-2104,
-144,
467,
-581,
1823,
-1938,
-1348,
-368,
3329,
2271,
-467,
-813,
1773,
2885,
1895,
2503,
-699,
2737,
1248,
-755,
95,
973,
2915,
1535,
147,
-928,
305,
-324,
3628,
-649,
-733,
-187,
-476,
2507,
487,
-1614,
610,
-466,
-1702,
-1530,
646,
-2312,
1157,
-1438,
498,
-1301,
2495,
1650,
-1591,
-1011,
383,
2058,
1741,
-3496,
1760,
-1982,
619,
261,
-345,
-406,
-216,
335,
1848,
1248,
922,
-1564,
4380,
4449,
2363,
-800,
-3013,
-1344,
-2053,
-1267,
-255,
985,
-1277,
-2667,
1254,
-259,
2016,
1099,
856,
996,
-1326,
555,
1329,
-1711,
-988,
-1067,
-3215,
-1344,
-2187,
-1494,
1765,
2017,
757,
-1828,
-565,
3004,
2553,
-92,
670,
1057,
3896,
-155,
2637,
444,
-1225,
1027,
1191,
3046,
2633,
-1765,
-1024,
-400,
4091,
4177,
-300,
-1605,
-1064,
1498,
1620,
1937,
-1393,
1509,
-1743,
-518,
1674,
1762,
210,
1897,
2410,
-816,
2083,
-1808,
1350,
1999,
794,
-334,
1107,
-434,
-1751,
-1482,
-1021,
-776,
-3447,
1512,
-1525,
-407,
-1512,
-1170,
-1118,
-276,
19,
-1244,
1769,
1128,
-1337,
-1063,
-1066,
589,
-984,
3293,
2058,
-565,
-4668,
-7640,
-3015,
-973,
-1890,
-8872,
-6611,
-20,
-863,
-2646,
655,
-2434,
2709,
1718,
1437,
-187,
1984,
1066,
529,
143,
-1579,
1984,
7,
-2776,
-2121,
3231,
3053,
3600,
-486,
1067,
2655,
2817,
2815,
1143,
750,
432,
46,
2173,
216,
-140,
-452,
2001,
109,
1031,
-82,
-875,
-569,
-1885,
-148,
-16,
1503,
500,
313,
1942,
3453,
1181,
2259,
-41,
-706,
1550,
1066,
119,
-745,
905,
454,
699,
-98,
-83,
1691,
-1030,
2458,
2819,
1334,
-1574,
-2885,
3311,
1681,
-411,
398,
-3386,
-1514,
1457,
1198,
817,
1814,
-21,
185,
97,
-390,
1538,
-1425,
-1684,
-401,
280,
379,
-1520,
-1568,
-223,
2753,
2765,
-1138,
3327,
3534,
4835,
141,
-21,
1986,
392,
-1374,
-1710,
-670,
-3572,
-2571,
-911,
1045,
-880,
-53,
-932,
-1954,
1818,
1611,
-764,
751,
-346,
1648,
85,
-394,
1420,
-617,
-1004,
928,
-2402,
-250,
649,
-2134,
1145,
-1526,
598,
1038,
380,
-844,
370,
3730,
1658,
1928,
-1757,
-2901,
-1384,
-54,
1638,
-1028,
-4756,
-1676,
282,
-801,
-402,
-864,
2733,
781,
-949,
-907,
-2265,
-1501,
1028,
864,
-137,
414,
689,
1012,
80,
-1494,
2151,
400,
2044,
-1712,
490,
331,
617,
-811,
398,
-1018,
1503,
1737,
635,
2142,
-343,
-656,
-780,
-245,
512,
1091,
2227,
1137,
-1510,
-1023,
-2037,
-3527,
-2182,
-823,
1853,
-2675,
-1621,
3085,
557,
-177,
-977,
297,
1033,
140,
99,
738,
-1649,
-1874,
1277,
1591,
596,
1044,
-1590,
-1224,
1796,
446,
-1084,
699,
3193,
-35,
-5117,
-5213,
968,
1440,
262,
-3648,
-4054,
-1526,
-1968,
-805,
-1934,
-2206,
-2397,
393,
-1194,
356,
1515,
-1153,
-793,
-2137,
-1176,
-1992,
-344,
1248,
-2398,
-2217,
-4428,
52,
631,
-1353,
-2037,
-3294,
77,
728,
-882,
1352,
2059,
-616,
421,
55,
1151,
568,
-294,
1143,
-1425,
7,
899,
1457,
447,
269,
-1405,
-1051,
3932,
2773,
-579,
-3415,
-988,
3260,
984,
-1385,
-2220,
-676,
578,
-1763,
1828,
-773,
2886,
2087,
1711,
-1354,
2467,
2880,
2453,
731,
-1366,
3293,
3491,
4028,
4958,
3170,
1554,
-3342,
-6927,
-4200,
-1145,
-2638,
-2743,
-3692,
-3467,
1048,
-1204,
-1961,
-2043,
-1743,
-1555,
4068,
4521,
3296,
-788,
-42,
1240,
1636,
-1724,
-3844,
-2143,
-141,
-2398,
-1085,
-627,
1530,
-390,
-968,
55,
786,
1276,
1135,
393,
3032,
2846,
-1267,
601,
1004,
-386,
-464,
-210,
-1085,
-943,
2330,
-652,
996,
-162,
895,
-294,
669,
-1508,
2534,
-747,
-948,
643,
-1510,
2016,
-205,
14,
-967,
-774,
-877,
1787,
-1179,
-160,
219,
-144,
-822,
-909,
-794,
-666,
334,
-3045,
-675,
1923,
-1482,
-98,
-286,
-1459,
-188,
1437,
386,
195,
676,
-633,
-97,
3112,
3145,
950,
-703,
46,
-1931,
-1856,
-422,
2214,
-1171,
-1146,
-1037,
-470,
1997,
-713,
-4167,
-168,
1167,
-2341,
-404,
-1137,
82,
501,
-2250,
-1615,
-1203,
2588,
1105,
1176,
2425,
-3170,
1856,
702,
-1384,
113,
-344,
-1142,
-1304,
-1422,
-1160,
728,
-93,
-1083,
166,
-690,
1249,
-51,
-1029,
1639,
-1619,
604,
604,
-224,
-1006,
1781,
-2542,
389,
1560,
579,
-849,
-6,
-974,
1940,
-1770,
-670,
1324,
619,
2871,
-490,
-1731,
1358,
1164,
-1530,
362,
-1636,
2479,
658,
1628,
1525,
326,
-358,
-862,
-3582,
-369,
-1042,
325,
-3020,
-2635,
349,
-859,
-1356,
-871,
-1581,
-452,
-465,
1350,
-391,
-1295,
-935,
-1286,
1289,
592,
-152,
-234,
692,
-2259,
786,
1082,
-1336,
1256,
1350,
5655,
2294,
-1809,
-1025,
-312,
2779,
-510,
62,
-1844,
417,
1313,
2514,
1144,
-1208,
-177,
33,
-1796,
178,
1277,
575,
1845,
-95,
-912,
871,
-408,
1465,
2168,
-554,
-806,
197,
-170,
-1141,
-877,
332,
-855,
-351,
1939,
2141,
-995,
-439,
1455,
228,
49,
-104,
-191,
2184,
2873,
-2358,
1442,
-2053,
1776,
1810,
-853,
92,
-1080,
1334,
-1620,
604,
-1283,
1203,
-724,
-1204,
-297,
17,
1775,
2585,
-175,
345,
1994,
-986,
-1843,
2701,
-1851,
1484,
-3050,
-1519,
-2611,
-1974,
-32,
2073,
-968,
-635,
-37,
264,
-772,
1413,
1644,
736,
-1014,
-81,
-1465,
-2889,
664,
1813,
-143,
176,
1138,
-2327,
-1568,
-1628,
1189,
3614,
-682,
36,
1600,
-44,
2127,
-713,
578,
1981,
3113,
2029,
-679,
-28,
961,
1813,
-670,
301,
1260,
988,
395,
-1094,
-934,
550,
293,
876,
-1589,
1698,
-1554,
-2429,
606,
-2009,
-1142,
-343,
-1211,
725,
1959,
-190,
-2695,
212,
-75,
96,
-437,
1103,
-294,
2313,
-198,
393,
-75,
40,
-1424,
-81,
-1996,
-400,
-1216,
1897,
275,
409,
-1526,
-1203,
752,
378,
-657,
13,
237,
519,
-737,
1609,
272,
1278,
360,
1872,
-957,
2575,
1854,
2680,
2022,
-1991,
528,
-3204,
-797,
1000,
-875,
-2926,
1242,
-526,
920,
-2165,
96,
992,
-970,
-753,
4414,
324,
2277,
-299,
3418,
1456,
-1333,
90,
-2255,
-1894,
-2185,
-124,
133,
-1561,
-1014,
-2553,
-1547,
-20,
-3370,
-4600,
-2320,
-3624,
-833,
1403,
2551,
2877,
306,
-1285,
-3182,
655,
-3005,
-498,
-1883,
-3035,
-2586,
1593,
410,
1570,
478,
-915,
1079,
848,
246,
-1011,
1413,
435,
1024,
-735,
2216,
230,
-770,
-1317,
-996,
1244,
737,
498,
-957,
-604,
-1176,
388,
1235,
619,
-289,
1014,
-637,
135,
600,
-133,
223,
248,
-1607,
1504,
693,
701,
792,
975,
-217,
1066,
-361,
253,
-811,
1215,
-500,
680,
1086,
-822,
911,
1677,
249,
-1410,
353,
-139,
1238,
182,
1201,
230,
1720,
-1579,
-478,
-1612,
1046,
-1354,
-486,
-2001,
325,
1943,
-662,
-3067,
-2505,
-351,
-1465,
-2453,
1212,
447,
344,
649,
-1133,
-1733,
-4330,
-1497,
1414,
430,
-1000,
2660,
582,
-391,
-1990,
-1674,
234,
-791,
-1691,
-384,
-1371,
-1320,
3,
1235,
-389,
919,
305,
-564,
-1148,
-1361,
308,
1289,
-1308,
-398,
-773,
949,
-1597,
-428,
-206,
-1957,
-536,
493,
-1827,
-1648,
-483,
-686,
191,
1654,
-882,
-217,
-106,
-688,
264,
-424,
1004,
-1525,
720,
-334,
-1203,
-24,
-22,
-11,
1009,
2995,
-1186,
-1695,
-1570,
-1285,
-1406,
-643,
-188,
-2450,
-411,
-2375,
-2785,
-880,
-84,
319,
892,
-1128,
1935,
698,
-2136,
-2058,
-1133,
2404,
-569,
-1080,
-3834,
-925,
1399,
3323,
134,
-413,
490,
1258,
2886,
-1,
4322,
-377,
1730,
623,
-31,
-1980,
419,
-881,
-520,
2210,
-47,
-742,
-354,
1407,
798,
520,
804,
-633,
874,
-1277,
139,
-363,
1106,
-252,
573,
1522,
-33,
-1599,
625,
765,
-1347,
-694,
1009,
-1449,
-247,
-1510,
-2354,
-543,
-2222,
-1787,
-58,
-2174,
1632,
759,
1488,
127,
569,
2999,
755,
2128,
-1674,
-363,
1089,
-1780,
1466,
2047,
789,
422,
1841,
-761,
1639,
220,
170,
1573,
-48,
243,
-620,
1178,
1757,
-783,
2287,
180,
-2036,
-497,
3069,
-1664,
596,
-1769,
-1386,
-627,
-647,
-1778,
251,
-356,
-948,
-821,
-861,
817,
-1037,
-867,
567,
-1761,
2777,
-1215,
700,
-1476,
1327,
2420,
1630,
1422,
498,
1041,
-842,
1239,
-1177,
266,
1535,
83,
85,
2892,
-525,
-207,
-707,
-2006,
-3447,
-2719,
-935,
-291,
-380,
-973,
60,
-2155,
1121,
643,
-1719,
1183,
969,
-422,
43,
930,
844,
-127,
332,
-242,
1400,
3761,
-415,
1182,
-1764,
-2668,
-1157,
-673,
1663,
1335,
-1336,
-1244,
1077,
1186,
-1854,
-1065,
-524,
1107,
160,
978,
983,
-468,
1013,
-491,
-1740,
-503,
2693,
909,
1293,
524,
-1535,
-1307,
-76,
1247,
2559,
-284,
-1435,
302,
-1299,
-1665,
1845,
3958,
-43,
940,
758,
166,
1041,
340,
-1761,
-1320,
-1526,
-2030,
-476,
-1379,
-500,
556,
-831,
-9,
-702,
-1547,
-1749,
-275,
800,
1489,
821,
-1116,
-587,
1192,
-884,
-418,
809,
387,
667,
590,
241,
-978,
-1494,
1194,
-1280,
-256,
1435,
-951,
1600,
-1191,
876,
1420,
458,
-407,
124,
737,
-1532,
-461,
763,
1485,
-1367,
320,
-655,
-1109,
-617,
1093,
-1524,
1050,
980,
-1066,
-1566,
-979,
-1457,
1501,
-1628,
1016,
-614,
1509,
1550,
37,
1007,
-900,
-122,
-214,
-370,
-1241,
602,
1004,
-752,
-824,
232,
-172,
247,
-949,
219,
837,
1571,
-589,
367,
-1293,
-596,
-1019,
-927,
-600,
-1248,
-1324,
-1093,
-1104,
-398,
-429,
-1107,
-227,
510,
1214,
1621,
1578,
1476,
-1253,
-860,
-975,
-130,
-107,
1195,
1402,
1254,
317,
1404,
-1440,
-1080,
799,
-1195,
-1308,
-1264,
-901,
101,
129,
-1031,
1454,
712,
-1230,
109,
-1132,
-537,
-1456,
-1141,
703,
-1014,
423,
-696,
1575,
-1270,
1633,
852,
-1145,
1618,
-1113,
504,
-1172,
-1507,
914,
-604,
-887,
151,
-1601,
668,
1048,
-89,
1616,
-339,
-896,
642,
43,
-1085,
715,
-246,
819,
-471,
-1168,
-857,
-463,
480,
1250,
858,
-539,
418,
-615,
-565,
-54,
-92,
-1558,
906,
1451,
-1387,
393,
776,
611,
-499,
1147,
336,
-943,
-601,
1497,
-339,
-330,
-899,
681,
1101,
-1638,
-632,
-1209,
-1366,
332,
836,
-753,
783,
-1251,
-1327,
-55,
-280,
-1478,
-1090,
-1461,
111,
-94,
-620,
1471,
1043,
559,
-494,
-585,
647,
334,
-869,
-1219,
582,
1190,
-68,
-1268,
-1451,
-1511,
-1147,
-859,
1222,
1588,
-1468,
-1342,
-713,
-1299,
215,
629,
-509,
-1623,
1131,
-791,
-1049,
1461,
-1573,
383,
-1258,
548,
44,
197,
848,
611,
-182,
-282,
1228,
976,
-526,
-1338,
980,
-1317,
780,
-863,
-912,
-1354,
-377,
350,
-632,
-495,
-1557,
1204,
-843,
-1116,
896,
1122,
165,
610,
-1190,
540,
907,
1033,
420,
-728,
161,
-940,
32,
-1591,
-1491,
409,
-542,
596,
-596,
-115,
969,
1094,
1063,
1192,
-881,
-607,
-860,
1348,
76,
-128,
1162,
-1511,
-795,
298,
-1353,
860,
-143,
981,
-582,
958,
-45,
-350,
-719,
23,
-1051,
-646,
-452,
897,
-631,
-341,
1132,
1000,
-1604,
-1461,
-1507,
1422,
-723,
-545,
-1405,
37,
884,
1407,
-453,
1511,
-39,
907,
-508,
89,
-162,
1328,
718,
-1083,
-550,
-1298,
1036,
924,
-1575,
-124,
-752,
-1572,
658,
1318,
-798,
-940,
286,
-1171,
-175,
-1414,
-1108,
-4,
146,
1356,
257,
-633,
1099,
644,
955,
-1518,
611,
677,
-1091,
1431,
143,
-1397,
-338,
-669,
1162,
91,
808,
370,
808,
-1191,
-1251,
-51,
-1537,
-433,
212,
1060,
583,
-1070,
1440,
373,
770,
-807,
993,
667,
1087,
-1574,
1206,
-869,
-1643,
731,
770,
-1633,
-1115,
462,
1707,
988,
-1398,
-192,
984,
-13,
-4026,
-2410,
2538,
307,
3757,
2769,
2060,
1851,
377,
1785,
636,
40,
885,
-786,
1171,
-1986,
641,
2232,
823,
-2770,
-3113,
-4101,
-1581,
-1871,
-1166,
1311,
1664,
-353,
2434,
646,
5212,
5172,
3909,
1832,
-3935,
1112,
-22,
2715,
1545,
-2003,
-1176,
-1069,
543,
987,
-543,
-11,
866,
1383,
-98,
1028,
-1581,
2408,
1331,
-198,
756,
1311,
444,
496,
2388,
-1098,
819,
-67,
889,
1968,
2152,
-1278,
895,
-1419,
1710,
-666,
-323,
252,
1459,
-887,
-1088,
803,
1879,
72,
764,
526,
-782,
-874,
-2455,
-1041,
-1185,
735,
-1062,
-1667,
-1200,
-340,
-2351,
-842,
1476,
1315,
2474,
-979,
-2825,
-1235,
506,
34,
-6019,
-5160,
-2850,
2455,
2527,
2195,
-1258,
-130,
-1739,
753,
847,
-37,
-504,
-3106,
-2272,
-1554,
-3380,
-1278,
-592,
-885,
889,
1178,
1011,
-127,
2158,
-991,
-144,
3586,
-972,
241,
-2332,
-1447,
568,
2135,
1086,
1470,
-2355,
-1184,
1864,
-766,
-422,
-135,
1607,
-700,
-2184,
932,
1132,
804,
-1193,
1128,
2465,
-593,
1762,
2298,
-232,
-660,
346,
-1448,
995,
-684,
251,
-1264,
-191,
-579,
611,
1030,
-705,
720,
988,
479,
881,
-313,
-255,
1107,
-1722,
89,
2759,
4832,
2509,
1082,
4435,
866,
-1073,
152,
1200,
-414,
-1751,
-558,
-658,
-1954,
-444,
1240,
-926,
-1168,
2008,
-714,
3812,
751,
1936,
-23,
67,
2152,
-480,
317,
-138,
802,
-1941,
-2559,
-1277,
-866,
-2183,
-2173,
494,
577,
-908,
113,
3041,
270,
523,
592,
-1465,
-1281,
-629,
1706,
-178,
-142,
899,
81,
867,
-746,
-8,
-1593,
-963,
-593,
425,
-1407,
-2272,
754,
-208,
-428,
236,
-280,
2684,
1665,
945,
4118,
1739,
1686,
2446,
2631,
-991,
15,
-80,
51,
-1612,
-1038,
601,
-621,
-987,
-1798,
-1348,
-2157,
1612,
188,
1398,
-458,
-2323,
1281,
1785,
1802,
-2797,
-2455,
-655,
790,
1098,
-388,
-1457,
1411,
81,
1354,
175,
823,
1941,
1131,
-460,
-929,
-2113,
937,
657,
-851,
1609,
-153,
262,
-110,
632,
713,
1401,
488,
1131,
1383,
-864,
1161,
184,
2735,
543,
-960,
-3136,
-951,
-495,
1154,
819,
-1390,
181,
503,
1059,
-296,
-514,
1809,
2254,
941,
2534,
-227,
1543,
1682,
1379,
-1993,
-1897,
-583,
326,
-847,
-663,
-3317,
-1546,
-1409,
817,
-1790,
-705,
-2062,
-1297,
-1466,
-671,
-589,
1656,
1375,
1400,
511,
2301,
978,
1068,
1098,
-1775,
-1777,
-870,
140,
-1032,
-1029,
-1584,
798,
-1992,
-502,
-762,
-2788,
-87,
-1028,
-2219,
2,
680,
433,
410,
1246,
710,
2791,
3861,
-268,
-943,
-1306,
-1097,
3409,
1121,
3082,
-1939,
-1033,
-3694,
-2432,
-1149,
173,
-75,
-2797,
-2028,
1331,
1115,
2322,
786,
2099,
956,
182,
464,
2602,
856,
-1038,
-2316,
-147,
-3609,
497,
1809,
2258,
1392,
21,
2532,
2146,
-15,
2739,
2407,
-1179,
-96,
-367,
-2117,
-444,
-268,
-1474,
-2826,
-1643,
-2827,
2513,
3967,
639,
266,
-620,
2004,
3175,
3973,
1103,
2976,
494,
-993,
-806,
370,
1881,
-3,
-1234,
-1591,
-2542,
-1075,
-2733,
-1796,
643,
1795,
-1861,
-54,
-844,
1002,
353,
1311,
578,
1456,
-1186,
-172,
-638,
268,
-1978,
1145,
-412,
1247,
-1318,
-726,
-1537,
937,
332,
-486,
822,
-180,
828,
76,
-972,
-1586,
250,
-721,
-1438,
833,
737,
1404,
774,
-1514,
1321,
1861,
-294,
-339,
-1730,
-1593,
-908,
-1708,
486,
-1373,
2654,
3460,
1333,
674,
-2512,
-546,
-195,
-1641,
-618,
-2629,
-1282,
211,
2016,
1082,
-767,
2555,
2715,
2889,
2279,
858,
831,
-1067,
-255,
2894,
-226,
-2335,
-4654,
-1142,
-2555,
-1835,
2700,
2273,
790,
566,
307,
1316,
-822,
710,
-1722,
0,
-2936,
-2066,
86,
-866,
-1453,
214,
11,
-135,
492,
205,
1945,
-821,
-19,
1189,
777,
1188,
3282,
718,
-573,
1123,
-1534,
21,
440,
179,
72,
-840,
-819,
501,
-137,
-971,
-326,
453,
1601,
231,
1757,
893,
-851,
144,
1508,
-2261,
-68,
1245,
855,
-717,
-1772,
638,
2092,
2079,
-152,
621,
2322,
-313,
-1577,
-644,
2257,
-413,
-105,
-2106,
-765,
-626,
-1306,
-776,
-2354,
375,
1953,
-46,
-69,
-1566,
-186,
2102,
1112,
195,
-2568,
-1056,
1142,
-59,
-143,
-2588,
394,
-567,
-325,
-892,
807,
351,
-2369,
-120,
249,
1132,
116,
2084,
-1076,
-714,
1077,
1561,
463,
-727,
-793,
-835,
-3801,
-1258,
822,
-541,
340,
-250,
1816,
841,
1020,
1891,
490,
2127,
1212,
-902,
-457,
2578,
1442,
-1754,
-1670,
1772,
785,
1258,
1777,
602,
966,
1995,
12,
54,
-2467,
-182,
-483,
-1148,
-454,
818,
863,
-392,
348,
-2327,
-3453,
-4108,
191,
-1007,
-2556,
-1594,
-700,
-1153,
466,
2209,
4178,
1321,
2770,
2050,
-964,
-1001,
1605,
-566,
-1024,
-2838,
-2890,
-1315,
-2311,
-1402,
-2854,
1219,
1737,
-1529,
1559,
-2385,
1441,
-694,
118,
-1059,
-717,
1312,
-628,
-780,
-1768,
1019,
-713,
1093,
940,
-97,
-438,
234,
2040,
1486,
307,
1818,
1877,
873,
2622,
796,
-903,
248,
2751,
1068,
-940,
-435,
-352,
107,
-1983,
2,
1698,
873,
-556,
1464,
1174,
-1741,
-248,
-511,
-81,
321,
-1746,
-740,
943,
537,
-704,
-4186,
-962,
1626,
1214,
-186,
-1046,
1143,
50,
2748,
523,
13,
446,
1832,
1861,
-881,
-573,
-1313,
1671,
-864,
-255,
-231,
-1343,
-2483,
218,
1177,
-145,
-1616,
-53,
-2053,
-402,
-2687,
-707,
-3502,
-2795,
-3370,
2449,
1502,
1316,
672,
816,
945,
1213,
2174,
2462,
-2343;
