memory_initialization_radix=10;
memory_initialization_vector=
1825,
-958,
-1464,
566,
-358,
664,
-9,
-3512,
-4679,
-487,
-1479,
-3110,
2228,
1075,
-1323,
1087,
-897,
-1748,
-1682,
-501,
940,
124,
392,
2285,
-705,
-72,
-662,
-554,
2126,
2092,
-2392,
-2208,
-1587,
-497,
-1274,
-107,
-2812,
-39,
2935,
1012,
-102,
758,
-3198,
-3219,
-1320,
2110,
-107,
-1389,
-1445,
1351,
-562,
1940,
1178,
-1183,
-99,
1621,
-2235,
-241,
-1057,
-828,
490,
1023,
-1687,
65,
-329,
4320,
930,
189,
-1062,
-578,
-409,
1516,
-118,
-1259,
-1049,
-1334,
-1893,
-2487,
-2590,
-1869,
-1102,
-1839,
-1556,
607,
-573,
-826,
-2101,
1010,
-1929,
-1046,
7,
311,
-937,
2156,
117,
162,
-2097,
-1055,
-111,
-559,
-247,
-1019,
-2086,
-1347,
-490,
493,
6898,
-2286,
-3844,
-865,
-4069,
1488,
5492,
5740,
-761,
-3025,
-1308,
-431,
-2376,
-2045,
1021,
-1624,
-3558,
-3894,
-2450,
1200,
-2636,
-1,
-1344,
892,
-1847,
-869,
340,
-63,
-514,
2870,
3049,
-872,
-479,
1015,
412,
1608,
-348,
-899,
-417,
1681,
782,
1650,
-558,
-476,
309,
900,
-1442,
-995,
-1665,
1729,
-1731,
-573,
-1039,
566,
803,
1063,
-1303,
-137,
458,
-980,
-1774,
139,
-1020,
-1528,
613,
-1210,
-539,
-427,
-114,
1868,
-156,
238,
591,
295,
1780,
-230,
1557,
1604,
2251,
-612,
1691,
790,
-1891,
-595,
-106,
1197,
2664,
1140,
-207,
-877,
-341,
-757,
-1326,
-2061,
-2651,
-1011,
-973,
-719,
-1992,
-652,
-3014,
-1753,
1806,
457,
186,
-2352,
-296,
-2876,
2980,
726,
1405,
1511,
-1713,
2404,
-266,
-485,
-2047,
5312,
1464,
-711,
-815,
1458,
-1720,
470,
-586,
-186,
-1647,
-1710,
1524,
-646,
206,
-467,
2014,
790,
1068,
-2614,
-2811,
-2432,
-1039,
302,
214,
-851,
1612,
1863,
855,
775,
-230,
-1492,
-1526,
-432,
-1281,
-317,
-149,
-2287,
-2333,
831,
287,
-346,
-1635,
1930,
2039,
146,
-1012,
-136,
1484,
-935,
-554,
-1911,
1748,
452,
1435,
-1236,
1028,
-184,
-528,
-5304,
99,
3927,
1584,
-630,
-2539,
-1066,
-1623,
-2314,
2517,
2048,
500,
-23,
-1064,
611,
2310,
2240,
-543,
-958,
-1846,
-1519,
-1278,
-517,
1367,
-3383,
-825,
-1623,
-3,
1602,
-1298,
2364,
-1395,
-3824,
1234,
-2136,
-453,
-963,
-80,
1221,
-809,
-2688,
1094,
1649,
421,
-369,
236,
-201,
-3754,
-593,
1111,
-1090,
509,
-1391,
-1819,
-414,
-331,
3081,
-701,
-571,
-586,
-269,
-510,
2040,
-685,
1726,
-3230,
-2265,
-626,
-1506,
2001,
749,
1361,
-374,
1558,
-2476,
-347,
2830,
-2215,
-573,
-2216,
1437,
1776,
-1323,
-1081,
-473,
-671,
295,
-100,
-863,
731,
307,
-1128,
920,
267,
614,
126,
-1253,
-1269,
324,
71,
-2823,
-883,
2651,
2539,
-955,
-2490,
2690,
1704,
-915,
-192,
-1154,
960,
484,
7,
440,
-2346,
-2089,
4260,
1657,
760,
177,
-63,
7,
-1548,
419,
-15,
1080,
-465,
960,
1318,
-195,
190,
-253,
-1451,
1407,
2623,
1760,
2410,
149,
-1007,
-1504,
-839,
-2502,
-1639,
845,
-1180,
23,
237,
-1059,
1114,
1188,
1110,
-184,
425,
131,
1426,
-951,
185,
-20,
307,
1203,
617,
-2141,
-1251,
-1075,
767,
36,
-1137,
-1041,
-226,
-236,
-666,
837,
1150,
-1002,
64,
542,
-536,
1701,
1990,
908,
-854,
-310,
-1299,
1138,
-537,
-373,
-1038,
-440,
227,
-1667,
57,
-714,
636,
-1238,
-1431,
-770,
185,
1619,
-584,
-1038,
26,
-865,
-1406,
1457,
1408,
-238,
108,
-914,
593,
1416,
1342,
-1537,
1490,
-902,
441,
1403,
-447,
925,
-257,
290,
1138,
-514,
431,
711,
-395,
-1540,
-332,
113,
1108,
682,
547,
-1624,
-575,
-377,
-1322,
833,
-353,
-1919,
-208,
975,
66,
-1568,
770,
1143,
-2157,
-890,
626,
2113,
477,
-497,
195,
1415,
238,
1006,
2694,
662,
1003,
1294,
-1205,
-1742,
-1170,
-1382,
-236,
52,
488,
798,
237,
395,
1317,
-100,
92,
1683,
609,
-197,
-192,
92,
866,
337,
-808,
1457,
583,
241,
1027,
-1557,
-1789,
-5,
615,
-222,
1654,
-656,
2044,
21,
261,
-1016,
-674,
2238,
1283,
-654,
-915,
195,
451,
-1046,
761,
288,
-636,
1145,
568,
-504,
587,
2103,
-1027,
575,
974,
187,
-2582,
-2200,
1093,
1003,
583,
87,
2248,
-460,
-508,
695,
-236,
225,
2299,
647,
-406,
-840,
815,
1492,
-1659,
-1193,
-410,
1524,
519,
-765,
840,
-342,
699,
-1311,
-1794,
1539,
1305,
-755,
-1472,
-628,
863,
1172,
366,
374,
861,
1303,
-1136,
307,
256,
440,
-931,
-1700,
-355,
1262,
200,
581,
2464,
351,
-46,
-780,
-138,
-38,
-2048,
-1148,
-644,
1045,
-1136,
-357,
1853,
-1307,
-2192,
-2328,
-188,
-881,
1203,
-1542,
803,
-153,
7,
-419,
-1352,
1452,
2647,
-751,
-124,
165,
-5,
-241,
-539,
515,
-1898,
-1151,
2041,
617,
-804,
-1178,
2448,
946,
385,
665,
395,
394,
226,
825,
-950,
769,
1241,
1458,
-902,
-230,
754,
-1222,
-645,
-730,
1023,
-2376,
-1535,
-739,
204,
1365,
-78,
-837,
899,
-893,
-1629,
-1563,
-1312,
-112,
315,
140,
-418,
-153,
-1878,
557,
-974,
-341,
-878,
-1209,
363,
30,
339,
892,
-49,
582,
-1478,
-170,
495,
-1511,
-905,
-128,
-2000,
-37,
354,
-577,
-526,
-208,
-1562,
-589,
354,
-1367,
-689,
-489,
363,
1887,
372,
-475,
-2679,
2114,
788,
572,
-405,
-2362,
622,
776,
-723,
1323,
-181,
131,
-945,
802,
390,
-104,
190,
-152,
-52,
1286,
704,
-407,
1525,
-436,
400,
-812,
427,
857,
323,
161,
-1799,
2344,
2367,
-1043,
994,
2062,
1434,
-85,
-1991,
892,
153,
-2478,
-1632,
-2005,
-805,
-25,
-1792,
-772,
1330,
-701,
118,
-3599,
-1850,
1463,
-97,
-1606,
676,
-931,
1322,
1143,
-1004,
284,
-1158,
-338,
2124,
2015,
643,
-1714,
-1087,
-1372,
-662,
-1123,
485,
1299,
-1084,
-1597,
604,
693,
-1824,
-858,
-925,
-862,
566,
-685,
1383,
-880,
-1273,
-118,
313,
-927,
-545,
538,
-1443,
1360,
-1531,
-597,
-173,
2158,
-47,
31,
-4,
-492,
-1771,
-555,
380,
910,
1639,
1579,
958,
1841,
666,
-1425,
109,
-1647,
1399,
557,
945,
-257,
713,
130,
185,
-86,
-236,
159,
-497,
694,
1450,
349,
-932,
1197,
-785,
1334,
-1609,
1171,
-1534,
-1184,
-1642,
419,
-1244,
-1135,
-826,
-677,
1311,
-1444,
1189,
-1311,
-1354,
2153,
1284,
1219,
-1361,
-487,
957,
386,
-1393,
-1372,
-128,
-1566,
-556,
1066,
-1975,
-2166,
-2561,
317,
1815,
-1792,
-2500,
-2124,
-1071,
762,
-223,
-58,
325,
-170,
-361,
868,
-709,
66,
-1690,
944,
1116,
-2091,
-521,
739,
-37,
-65,
-507,
-933,
1464,
1638,
1150,
950,
436,
1054,
-148,
293,
-561,
1439,
-193,
1108,
1101,
-483,
-804,
1062,
1186,
1030,
292,
-225,
-888,
1590,
163,
-169,
-1311,
300,
549,
762,
-1311,
744,
-438,
-1210,
-598,
-1207,
679,
1103,
645,
-286,
276,
-457,
-845,
838,
1025,
-1069,
-659,
-51,
-1411,
-803,
1667,
726,
-2094,
1392,
370,
-849,
-364,
188,
-679,
-140,
1086,
-562,
-472,
764,
445,
1482,
-621,
-1771,
-749,
264,
1678,
-814,
-287,
-1476,
-1027,
1665,
242,
-1080,
1114,
-136,
1953,
1107,
-1701,
-1534,
-416,
1276,
-1082,
56,
-975,
-380,
-401,
-420,
1549,
879,
-546,
279,
-603,
-462,
264,
-1152,
1489,
-1432,
-1132,
-597,
1582,
-214,
-325,
979,
-1489,
560,
700,
-104,
-445,
-1744,
628,
1440,
-1136,
-1370,
-1708,
-1014,
431,
1593,
-30,
1046,
-1334,
1198,
1130,
-607,
-331,
-1211,
-1279,
1154,
350,
442,
-1099,
-174,
1340,
1317,
-1041,
-1238,
-1255,
123,
-28,
268,
-45,
-276,
562,
288,
2137,
3205,
258,
-232,
-1986,
-40,
332,
854,
-271,
-1520,
714,
-311,
-849,
681,
-831,
-511,
1922,
-1194,
-483,
-1400,
-634,
1269,
885,
1079,
-886,
-142,
-2127,
847,
919,
507,
-1504,
-35,
913,
-729,
-1668,
1560,
-727,
-543,
-536,
634,
-789,
-733,
-969,
700,
-1574,
-169,
-844,
1475,
-1337,
-761,
1467,
-1324,
497,
942,
912,
-974,
-1975,
939,
-1239,
927,
-562,
-1444,
-282,
-381,
-262,
-1828,
1309,
-529,
-161,
1251,
-483,
136,
-1342,
95,
775,
1634,
-1675,
-235,
-388,
323,
-394,
-975,
-1554,
-1175,
-348,
52,
-674,
788,
1232,
-1107,
1237,
-1142,
-451,
-1644,
-1567,
-230,
-1102,
-145,
1291,
155,
-376,
1549,
1379,
108,
-430,
-267,
-234,
-857,
-1910,
-1724,
-783,
1219,
1461,
-2389,
-551,
489,
-1704,
-638,
-2184,
-1708,
-1097,
-1416,
-781,
-1000,
-1371,
-1654,
-667,
1455,
-723,
-186,
-1090,
171,
1067,
1451,
885,
7,
778,
1249,
472,
-1608,
601,
-1334,
688,
1228,
-1199,
-1419,
-29,
-1813,
1502,
1010,
444,
-1932,
954,
-452,
1645,
1875,
1150,
-1629,
-541,
-1029,
43,
968,
301,
-1058,
-1502,
859,
-1005,
955,
1156,
-1561,
-703,
975,
-1303,
-514,
690,
-1773,
487,
609,
563,
668,
-184,
-35,
1190,
-1529,
465,
-1457,
-1534,
-374,
1093,
-1474,
669,
-1370,
-187,
281,
-1599,
-720,
-2134,
-1515,
185,
1096,
309,
-1279,
-69,
1238,
-605,
-875,
1124,
70,
851,
95,
-1558,
-1759,
-694,
294,
-57,
-1558,
-111,
119,
-776,
-661,
-2324,
1579,
1177,
1935,
1236,
-1500,
1647,
-215,
-1364,
1303,
1197,
1362,
-21,
-964,
-463,
907,
194,
-434,
904,
-1382,
929,
-1024,
599,
-185,
-950,
-1839,
-1502,
-2326,
-2091,
1109,
-73,
-859,
1537,
51,
-1568,
30,
-865,
-207,
-13,
1,
1134,
-1237,
159,
-1229,
-1619,
675,
-1330,
1159,
1347,
-427,
-1489,
780,
1289,
883,
1719,
1666,
-839,
-671,
1261,
771,
-616,
1291,
1216,
-653,
-412,
-220,
867,
962,
1016,
632,
1627,
-1480,
804,
-1332,
-1604,
-1341,
-1975,
-446,
-1696,
333,
-1196,
-550,
38,
-544,
-1275,
1258,
-825,
-1689,
1287,
512,
-855,
1310,
-156,
-339,
1388,
1336,
2465,
2046,
758,
-83,
1819,
-1345,
-1430,
339,
1144,
1804,
-519,
169,
1209,
-133,
259,
-720,
-1217,
-441,
897,
-604,
-926,
1402,
1065,
333,
-497,
-1382,
-1143,
777,
-31,
-1480,
969,
-1439,
-1042,
456,
-981,
-197,
1054,
231,
575,
859,
-855,
235,
-272,
557,
266,
632,
-1729,
895,
24,
1715,
1606,
-1236,
1216,
-765,
1767,
-385,
-1019,
1082,
-915,
-827,
1288,
348,
-795,
151,
815,
-364,
1550,
1104,
-820,
-1090,
-614,
670,
-971,
-516,
408,
91,
761,
-1235,
348,
36,
-1492,
-1073,
414,
62,
-1794,
-1548,
-1783,
-1479,
-1552,
-510,
1052,
1529,
-1723,
79,
1192,
-481,
-871,
1513,
-114,
194,
-399,
-148,
-587,
647,
891,
433,
-868,
-609,
-1297,
1755,
460,
-493,
113,
356,
1779,
1454,
-1425,
857,
1644,
1294,
-1015,
1581,
-1081,
1277,
-1377,
-1644,
-254,
-1245,
634,
187,
401,
-1175,
-222,
1266,
1933,
966,
-623,
1723,
-66,
1983,
441,
-511,
-1697,
648,
-1136,
-784,
552,
-548,
-905,
1027,
-1210,
450,
342,
-1036,
-449,
473,
-1487,
-818,
-659,
420,
-882,
-1536,
-265,
-814,
79,
1173,
-1608,
-127,
485,
719,
1618,
-563,
-515,
-585,
-1767,
-595,
1517,
768,
-511,
40,
-1333,
659,
-1587,
-1197,
-1054,
1008,
-1428,
1282,
1229,
231,
151,
-152,
1347,
-532,
-1142,
-1209,
-1667,
-1423,
-506,
-2010,
-3373,
-2376,
-2667,
173,
-690,
-2466,
288,
797,
-788,
-2389,
-3563,
-2235,
85,
-892,
2380,
1419,
1410,
1142,
466,
332,
-836,
997,
-364,
1799,
-536,
-2080,
303,
-62,
-1287,
-3633,
-2135,
-18,
1120,
-2749,
-2372,
-65,
404,
68,
130,
-915,
2469,
-94,
-1078,
1248,
-2551,
-742,
-16,
681,
1008,
-1567,
-984,
-1080,
-2,
-1044,
-114,
325,
-1693,
-554,
1139,
1463,
-1024,
-950,
-1464,
-1162,
-1073,
-2333,
1425,
-1986,
930,
651,
319,
-165,
738,
-810,
-262,
1610,
-56,
-513,
-1685,
-863,
1911,
1252,
173,
-88,
-2131,
654,
-836,
-270,
1234,
723,
-943,
-1479,
-1506,
-1082,
216,
-150,
244,
1870,
514,
-877,
2606,
-407,
873,
1666,
-4086,
-2441,
1060,
-494,
2213,
-1901,
-4694,
-618,
1149,
877,
1010,
2107,
-4482,
-3815,
628,
932,
-815,
324,
-1190,
-1110,
-629,
4,
-1164,
-685,
442,
2901,
2063,
66,
-1518,
337,
-3307,
-1485,
1333,
842,
-479,
-1682,
36,
579,
-2053,
-1579,
-1016,
93,
-221,
621,
1219,
-1581,
-1345,
841,
-1471,
518,
-2043,
-766,
-659,
1374,
1849,
-928,
-1534,
1416,
-137,
587,
485,
-564,
-668,
1293,
-539,
134,
-746,
-190,
1282,
-1078,
-520,
-3387,
-1967,
-334,
188,
-2066,
-1555,
224,
1122,
-1668,
-830,
-2714,
2184,
2121,
-783,
3004,
1267,
3222,
-2013,
695,
-535,
-89,
265,
1533,
-91,
-450,
-1587,
-1082,
3794,
-1678,
520,
678,
3699,
1628,
-2876,
-734,
3356,
-1173,
-2643,
-841,
509,
-2323,
-217,
1744,
1157,
1128,
350,
-729,
-376,
188,
1569,
-1324,
-2321,
-58,
-1555,
1080,
398,
-1640,
1300,
-1001,
-901,
903,
237,
1240,
-1561,
22,
60,
1479,
-440,
-44,
209,
-449,
969,
1499,
-384,
138,
1176,
2416,
-1256,
-417,
312,
2293,
-143,
-596,
-1120,
2598,
2234,
452,
-2231,
246,
1332,
152,
-68,
-1639,
1901,
-640,
-2437,
1378,
-780,
64,
-814,
-818,
3399,
-646,
-292,
2450,
2431,
3180,
56,
-1810,
1494,
1819,
-2172,
228,
1710,
-1111,
-612,
41,
-253,
401,
-97,
2834,
-790,
337,
602,
472,
1784,
-640,
-699,
1431,
2836,
2574,
-2609,
-678,
-549,
1396,
468,
-3314,
-1645,
299,
2221,
-3152,
-417,
57,
472,
-697,
-580,
-603,
-842,
-429,
64,
757,
-348,
-1590,
21,
-844,
3095,
1551,
-3563,
-990,
988,
1113,
-1892,
-2271,
-1291,
2842,
-26,
-2744,
-1638,
-370,
688,
108,
195,
-2713,
19,
-979,
431,
-27,
-1724,
-506,
2047,
93,
-2014,
-3980,
-906,
2566,
1594,
-4411,
-2414,
-225,
1658,
80,
-2336,
-1630,
897,
-355,
-812,
-964,
-528,
-1698,
290,
-1964,
284,
290,
-83,
-1192,
2348,
2676,
-519,
1365,
1647,
2445,
136,
-3152,
1277,
3385,
-661,
-3789,
862,
-664,
1306,
534,
55,
1090,
-132,
-219,
906,
3768,
4398,
-1561,
-1718,
-3311,
-7558,
-2488,
1017,
-1463,
-3289,
-1524,
-822,
-1751,
111,
-46,
-2209,
538,
-2798,
3399,
4269,
3429,
1049,
246,
-1579,
561,
-2499,
-4271,
-13,
-1957,
-696,
-1815,
-2251,
1457,
-2667,
-2390,
917,
2753,
-908,
1775,
320,
257,
1210,
721,
-392,
1020,
-334,
1843,
-14,
-753,
1302,
1335,
-268,
-107,
-164,
157,
1297,
-471,
-989,
165,
-663,
-671,
-220,
419,
-238,
-924,
1569,
-277,
-1138,
-1073,
2413,
-783,
-1599,
-1323,
-186,
-236,
-1684,
35,
-744,
-1928,
-1370,
-1199,
-956,
-258,
-459,
-642,
2240,
484,
942,
-992,
962,
318,
-666,
-632,
2182,
674,
1660,
132,
2134,
2179,
117,
-1123,
238,
996,
2665,
3796,
398,
4280,
-273,
-966,
1179,
3500,
1176,
-219,
1519,
2596,
-1260,
-3304,
-1609,
-532,
2122,
719,
-336,
-603,
592,
687,
-1140,
-674,
-1530,
-2838,
-1291,
-676,
-1070,
-627,
-584,
-3217,
-4222,
976,
-691,
-1239,
-2345,
-460,
-1071,
-1904,
-140,
898,
178,
1108,
752,
-2114,
-721,
-1550,
-1702,
1537,
240,
-682,
1492,
-1593,
-449,
-887,
-6,
1693,
-871,
203,
67,
1549,
555,
-1772,
571,
750,
595,
2175,
-484,
2286,
1220,
-1379,
-1608,
-734,
247,
-917,
-753,
-2206,
-775,
618,
-446,
-1442,
-2971,
98,
-420,
672,
-496,
314,
-620,
-887,
-702,
-562,
-1471,
148,
165,
-2191,
882,
-583,
798,
1057,
208,
1124,
-164,
1871,
1259,
-1468,
597,
1019,
-2186,
701,
-1103,
1000,
-2241,
3390,
1461,
379,
411,
-21,
-1458,
-947,
821,
504,
13,
1376,
2133,
-633,
1496,
409,
-1989,
605,
444,
1130,
-1255,
999,
-823,
-550,
-1601,
-2218,
-1557,
-2162,
1494,
-1750,
-619,
915,
14,
661,
2111,
-2833,
-1902,
500,
74,
1149,
379,
-658,
916,
1587,
1560,
950,
1177,
-1770,
-423,
-339,
-2236,
151,
1956,
1406,
2978,
258,
1146,
971,
-235,
1826,
-687,
-2488,
1151,
-1052,
-2210,
1353,
-391,
-270,
-642,
-1012,
1466,
-832,
-1641,
-328,
-852,
645,
933,
825,
931,
-2916,
529,
1439,
22,
1996,
-2369,
-2410,
20,
21,
-857,
1020,
672,
-2546,
-1325,
126,
649,
963,
141,
-1056,
351,
1649,
-6,
-444,
-353,
1680,
-647,
-5,
1151,
-676,
1161,
1544,
-4242,
1491,
-606,
2448,
5249,
-1245,
699,
278,
687,
3757,
-400,
-1964,
1234,
-1303,
604,
-3124,
-571,
-167,
2366,
-169,
-278,
1859,
2412,
3395,
-1264,
213,
320,
-955,
1270,
552,
-1164,
-3496,
904,
-1187,
3927,
-1430,
-2734,
76,
321,
1550,
-1375,
1192,
1187,
970,
-1102,
931,
506,
-219,
-1514,
-181,
-1089,
8,
1389,
-480,
760,
-108,
2731,
363,
-1917,
-82,
-1170,
-1105,
-1835,
-481,
1444,
-1884,
78,
-238,
1168,
-1038,
1409,
838,
4158,
-92,
-3321,
1833,
1878,
1285,
-1402,
-4151,
-3501,
-3271,
-163,
-3233,
-8277,
-7517,
-2800,
339,
-2123,
-2513,
-2147,
790,
4991,
-350,
-157,
-10,
-1144,
-1188,
-881,
58,
3321,
1327,
-1798,
-2959,
-1249,
-1377,
185,
-2039,
-4807,
-3443,
778,
3077,
296,
-2209,
-147,
4544,
2500,
3655,
726,
11,
-112,
614,
-1672,
628,
-171,
-79,
1283,
-458,
-2454,
283,
2974,
1374,
854,
-1222,
1463,
-102,
2370,
-74,
-1526,
-3008,
-737,
188,
-185,
-23,
1146,
-635,
-125,
-733,
1379,
657,
-1198,
1435,
-1489,
1116,
-843,
-903,
2099,
1473,
-938,
-1443,
14,
-1025,
-1233,
-1697,
1866,
-361,
-1290,
-1903,
-3655,
-1370,
3132,
1228,
2292,
153,
-535,
4348,
685,
3820,
22,
-640,
1207,
-2928,
161,
-3548,
-2532,
-1283,
1298,
1734,
-482,
4191,
634,
1114,
2790,
-281,
2273,
2055,
-2159,
-66,
-1596,
136,
2389,
2605,
950,
-922,
1196,
-228,
826,
994,
-1189,
-4384,
-2093,
1137,
1545,
-5819,
-3161,
-2061,
-743,
1914,
-484,
64,
1043,
315,
1057,
-476,
2073,
224,
1980,
-1107,
-3682,
-1588,
1694,
-768,
847,
-605,
129,
-2104,
-1476,
-555,
2867,
85,
-1842,
-659,
-337,
493,
479,
-1413,
1252,
1513,
1086,
-1115,
-4202,
1767,
-1155,
-318,
-3413,
-2643,
1341,
3064,
-1921,
-2480,
-1188,
-707,
1417,
-415,
197,
2120,
-153,
3514,
-1230,
2030,
1732,
-1524,
-1777,
-289,
3164,
2887,
-219,
-1086,
607,
-1308,
5751,
-1544,
-1178,
1244,
1381,
-161,
-1312,
1446,
-1686,
-1023,
-4539,
2539,
580,
1224,
25,
2259,
1114,
1839,
642,
2137,
101,
612,
-3283,
84,
0,
-2459,
-2415,
112,
-721,
70,
-602,
-730,
1367,
-1526,
906,
1780,
-204,
623,
2187,
-1739,
-1238,
-2275,
55,
3363,
106,
1062,
-953,
1038,
-2013,
-504,
656,
-510,
1192,
2665,
5140,
-1961,
-1031,
-2169,
1548,
19,
-976,
-2250,
-356,
456,
935,
-702,
-1461,
-4090,
-410,
1396,
3522,
1377,
1075,
-499,
560,
3751,
1594,
510,
-345,
964,
1870,
1487,
2484,
-1395,
-6068,
441,
-514,
1158,
2616,
2035,
49,
-1749,
-1889,
398,
-988,
-1266,
-655,
-1013,
-1471,
169,
1371,
1234,
-200,
4446,
5420,
67,
-1908,
1615,
3516,
2076,
-2949,
-1340,
-1529,
1214,
769,
-503,
-1069,
2086,
1262,
-729,
-1601,
-1860,
-1410,
-1355,
826,
2464,
-704,
-1466,
-2136,
3091,
798,
-1989,
-2521,
1976,
2646,
-1377,
-1275,
-2637,
-701,
451,
-2735,
-1732,
-756,
777,
-572,
43,
114,
1160,
-1310,
212,
-785,
316,
83,
3206,
6553,
-832,
535,
-91,
1133,
96,
-3210,
-3436,
-2137,
353,
3926,
2848,
2704,
-934,
1730,
2115,
3474,
-1219,
-2292,
-365,
-1035,
-715,
-2326,
-281,
-1681,
2961,
1105,
-2027,
-139,
65,
2573,
-321,
1752,
-4,
-225,
3510,
-967,
-1316,
-1923,
2169,
1489,
799,
590,
-1543,
2457,
2091,
2667,
1416,
2226,
1672,
868,
1826,
4692,
3887,
-1864,
354,
-1638,
-2064,
-896,
3952,
-3097,
-1763,
-2386,
-839,
1477,
2050,
-123,
-2513,
2317,
324,
4343,
1232,
832,
3445,
-2915,
-96,
-1888,
-2598,
2081,
-1917,
-1326,
-2474,
-690,
-2512,
10,
-1712,
1490,
-1211,
-251,
-1093,
-86,
-104,
-609,
832,
560,
157,
-1857,
-1751,
-299,
1112,
522,
-70,
-1525,
-1916,
-391,
696,
-2059,
696,
-755,
-44,
-20,
935,
1165,
347,
2185,
2078,
1472,
322,
295,
-397,
-2860,
-1816,
-36,
804,
503,
-1625,
283,
-1314,
1433,
-448,
-1389,
85,
-434,
-1455,
3883,
-103,
2797,
-465,
693,
3453,
-1676,
-1140,
-986,
-1674,
-1485,
-1806,
1407,
1069,
-884,
1336,
757,
917,
641,
1158,
124,
-1646,
508,
3522,
-62,
764,
-3094,
-929,
-156,
-2384,
610,
204,
231,
1847,
242,
2212,
-154,
557,
-108,
-2862,
109,
-746,
-917,
-690,
56,
-815,
-1825,
-128,
-1091,
-1449,
-428,
152,
596,
1903,
546,
1910,
687,
545,
-125,
959,
-2593,
300,
-173,
69,
-1413,
-2910,
806,
-86,
-2226,
-901,
34,
754,
981,
2444,
-1457,
662,
-1463,
40,
-325,
260,
2775,
603,
838,
1362,
-459,
2519,
2074,
96,
712,
1432,
-1455,
-1704,
-1524,
-2020,
1954,
-1917,
-801,
-2428,
-2280,
118,
-596,
1126,
-45,
-786,
1958,
953,
-1375,
782,
-708,
1022,
1131,
135,
-327,
-2880,
-1278,
224,
-207,
-2758,
61,
-1424,
444,
-1285,
2709,
1596,
1446,
163,
-869,
1256,
-178,
-751,
1431,
510,
457,
-2777,
677,
-693,
340,
-796,
-3624,
-158,
2424,
414,
-2131,
795,
2472,
1285,
-1182,
729,
-1511,
620,
1597,
3429,
3555,
3336,
700,
1591,
-1485,
1253,
2631,
2667,
-1125,
1084,
-3223,
1822,
793,
-392,
100,
-2052,
58,
-809,
882,
-972,
2152,
63,
-1116,
2858,
1519,
-1504,
-5075,
-652,
2264,
-1681,
-1923,
-4117,
1275,
1408,
3660,
-2024,
-1402,
1190,
-63,
-1286,
-2242,
778,
-1209,
-1224,
-3403,
-2424,
-2715,
-1809,
-999,
1639,
2003,
599,
1266,
-4088,
-726,
3232,
966,
-1693,
-2565,
8,
1310,
2746,
-1764,
429,
-682,
-591,
-236,
-1385,
-1392,
3866,
2514,
1881,
-1699,
2064,
2443,
-586,
3150,
-57,
302,
-2237,
-1821,
1508,
2177,
298,
-488,
-1262,
48,
1439,
2859,
141,
-897,
-818,
2675,
1763,
-967,
2004,
260,
782,
-969,
-1725,
3015,
1396,
796,
425,
-1180,
2214,
3815,
-105,
-159,
-3075,
2941,
5405,
-999,
2185,
124,
514,
2581,
-932,
228,
-1164,
2,
-713,
380,
-984,
496,
-489,
253,
-1125,
2745,
-1093,
-279,
-1498,
1026,
2413,
292,
-3898,
-2170,
-1663,
360,
190,
-2000,
434,
662,
-378,
189,
2618,
2338,
-1185,
-1061,
-2278,
-1209,
-1116,
-900,
959,
1423,
-1504,
-761,
-545,
1108,
1108,
1390,
4371,
4442,
-1524,
254,
-244,
60,
1844,
-1458,
-1365,
-4004,
-2863,
217,
2966,
-745,
-3355,
-3128,
323,
425,
1706,
-407,
39,
776,
-88,
405,
5,
1376,
2021,
-662,
-1419,
-1356,
-610,
-404,
181,
-1125,
1348,
-1153,
-1394,
-726,
-2201,
-1486,
-516,
2377,
-87,
-1481,
-2056,
675,
247,
2222,
-127,
604,
886,
88,
856,
-1754,
619,
1361,
-1666,
1422,
-986,
967,
-445,
379,
-1825,
-746,
-739,
153,
-798,
675,
1070,
-181,
28,
558,
-546,
-1546,
1035,
1268,
-700,
-1572,
1288,
-1484,
-736,
271,
27,
-1508,
-1291,
-288,
-235,
2111,
1529,
-1751,
-619,
352,
298,
2498,
-1374,
-721,
-3144,
-551,
51,
457,
-1077,
1054,
-1010,
-930,
-593,
-490,
1153,
-2059,
-1496,
1021,
-583,
-1350,
666,
-37,
-504,
1237,
1077,
-545,
-564,
1127,
2153,
-623,
2022,
1551,
822,
-109,
-1531,
269,
1043,
1243,
-232,
153,
255,
1392,
1371,
600,
264,
1450,
-1096,
-1442,
217,
922,
731,
-650,
-1042,
-1302,
594,
479,
577,
322,
942,
-1345,
1941,
-203,
1823,
-1008,
548,
-591,
1670,
635,
643,
809,
479,
-2576,
-2450,
-2471,
761,
32,
2688,
-294,
-178,
-71,
1931,
1990,
-74,
994,
414,
-973,
-1605,
-340,
-534,
829,
-335,
847,
916,
-737,
770,
806,
-947,
2041,
479,
-525,
-2203,
-1627,
817,
1053,
1815,
118,
1872,
762,
-1450,
845,
-753,
-818,
-17,
20,
-2231,
-1404,
235,
1007,
-1020,
195,
1149,
-1039,
1087,
107,
1074,
-1036,
-1822,
451,
-1660,
-1567,
981,
-841,
808,
-2133,
-272,
1942,
1010,
1423,
2213,
1029,
-366,
-564,
-1218,
-1145,
-501,
-1244,
1230,
3730,
2230,
877,
-796,
3036,
422,
1976,
1454,
-1084,
1908,
-50,
1304,
-1031,
-496,
-17,
-1384,
436,
1385,
-787,
1715,
-219,
1139,
-1267,
-288,
-262,
-2427,
-3121,
99,
440,
490,
1006,
1610,
3791,
349,
757,
-15,
2400,
209,
1752,
-1357,
-872,
-1581,
-503,
-757,
-307,
-75,
1248,
-1522,
-594,
2288,
2076,
1024,
332,
365,
760,
-783,
-1711,
-322,
376,
-639,
-361,
270,
-1277,
2273,
-942,
639,
-518,
-172,
-162,
632,
1042,
474,
53,
188,
3184,
952,
523,
-91,
-62,
2644,
-705,
-689,
513,
743,
1971,
-1098,
543,
-2228,
-1610,
444,
-861,
855,
946,
1226,
1072,
1746,
-510,
-1720,
-1261,
485,
1309,
1111,
86,
-1003,
1166,
1414,
986,
-1299,
-530,
89,
-189,
-1709,
-1968,
-29,
1171,
-826,
164,
1433,
62,
2270,
629,
-2259,
954,
1325,
75,
-1474,
1206,
1316,
-787,
-528,
-1023,
-702,
2401,
646,
1866,
-883,
121,
-1002,
1165,
104,
1050,
-948,
-1004,
1350,
1063,
-119,
-2334,
-667,
2655,
1529,
648,
-2973,
-4712,
724,
-329,
-830,
-2056,
-3927,
938,
-2,
-971,
188,
1670,
-3368,
-2978,
2960,
2563,
3180,
-3626,
-2272,
-2465,
476,
788,
-99,
1380,
303,
-1434,
-2774,
-779,
95,
1641,
5516,
1975,
-752,
-1995,
-1967,
2607,
3201,
-226,
-829,
358,
962,
-743,
1247,
-627,
-885,
-148,
1375,
848,
-933,
-2687,
-2674,
-338,
667,
1928,
-1511,
1495,
1680,
1834,
1269,
1891,
782,
-325,
-528,
-1943,
335,
1507,
-205,
8,
1182,
1190,
1297,
-605,
-818,
-1367,
-802,
-623,
956,
805,
-123,
-624,
-563,
89,
-1143,
561,
-1077,
1521,
-688,
82,
339,
68,
-2810,
1475,
221,
1875,
-1460,
-1180,
-59,
1061,
4042,
3059,
-2551,
-1003,
-1119,
-1612,
953,
574,
-3223,
-4783,
-1787,
608,
2392,
-200,
-2379,
-133,
512,
-2979,
523,
-524,
-3338,
-2258,
162,
969,
-1998,
-940,
-1453,
-980,
739,
-648,
483,
703,
1167,
1958,
-1158,
1518,
1309,
-1374,
1041,
323,
367,
1832,
1292,
1788,
-1553,
3889,
-1069,
1101,
-1329,
445,
-171,
1024,
1475,
1928,
-2173,
-368,
-756,
955,
1528,
98,
-322,
338,
682,
-6,
2464,
401,
401,
-1935,
1349,
-619,
1783,
1820,
307,
-1263,
813,
998,
-1828,
-3046,
-1400,
496,
-565,
-1192,
1602,
-748,
-1340,
-2045,
474,
1666,
2600,
-200,
-639,
467,
698,
1727,
-1082,
-1042,
-79,
-725,
913,
-1344,
-1319,
2036,
2843,
-207,
157,
2424,
3565,
3292,
-679,
-333,
324,
1473,
-2543,
-2625,
1175,
-1762,
-44,
1461,
1822,
-538,
653,
1231,
1004,
-1839,
1548,
-1035,
-738,
-925,
58,
-1531,
1078,
187,
-1115,
917,
-1161,
1000,
-1716,
-1221,
566,
857,
-742,
-1151,
1985,
2675,
-1051,
-1358,
392,
1818,
3013,
756,
289,
926,
-1432,
985,
809,
215,
681,
1977,
-700,
-232,
1974,
-1858,
-121,
1221,
-324,
-35,
-2078,
1535,
-636,
-2425,
1267,
1574,
-336,
788,
1737,
119,
-4599,
-1233,
-1249,
-826,
321,
789,
3135,
2892,
-1814,
820,
818,
4752,
840,
-410,
-483,
538,
1238,
379,
392,
2978,
1111,
-2853,
872,
-318,
-2531,
597,
-1081,
-1164,
-2278,
-665,
4419,
-63,
961,
942,
1277,
4045,
-182,
560,
-70,
711,
-1531,
-257,
-152,
891,
1516,
-581,
-611,
-563,
-1801,
-318,
19,
2275,
320,
-2904,
-16,
2825,
801,
-1525,
-3520,
-336,
-2198,
-539,
-1472,
-861,
351,
-645,
-400,
1152,
-705,
-795,
849,
474,
1486,
1666,
1453,
1601,
-632,
-2371,
-2064,
2622,
1628,
-331,
313,
-3108,
388,
-314,
1225,
-1049,
-2700,
1392,
1096,
1636,
971,
-567,
2744,
1231,
-341,
-510,
-681,
-827,
-2776,
-3196,
-2359,
164,
-285,
1066,
-1258,
460,
349,
2013,
2006,
1561,
-533,
-1615,
-814,
1381,
2060,
2464,
-660,
106,
2814,
-192,
-486,
-688,
2461,
3888,
5674,
2099,
-461,
-799,
-1206,
2666,
457,
-964,
-437,
-391,
2031,
-40,
273,
1860,
-1017,
312,
-234,
-1931,
-296,
-2221,
-3136,
-252,
3073,
1105,
1462,
1168,
787,
1958,
1686,
1304,
-1196,
-644,
-241,
789,
1356,
-2213,
-546,
-219,
1854,
-1166,
-2167,
627,
-1076,
-1662,
-2001,
-1734,
170,
2381,
-449,
-1556,
-302,
-1696,
-2192,
-1044,
2147,
-2243,
705,
-1070,
-387,
-1425,
-1280,
-636,
477,
-575,
1925,
359,
155,
-2469,
390,
-41,
-1279,
-661,
1407,
1476,
-380,
-1722,
-1611,
1638,
714,
-1216,
138,
-672,
1776,
669,
844,
-691,
1770,
728,
1337,
13,
-762,
190,
-2059,
-303,
1439,
-868,
-842,
-707,
-2202,
249,
4287,
1656,
3112,
-666,
-209,
4144,
1622,
3658,
-419,
-1719,
-1962,
-1706,
-2813,
-3505,
-4481,
-3254,
349,
-3803,
-3320,
-786,
1373,
-1134,
-523,
214,
-872,
776,
1798,
2177,
3230,
2027,
93,
-416,
-384,
-548,
204,
504,
1282,
-1589,
2611,
2017,
2178,
-1119,
1122,
-2741,
-1226,
-2356,
107,
1955,
1973,
-24,
-528,
-1439,
-3,
-123,
-1231,
1074,
-1390,
-272,
-1222,
1917,
-1090,
13,
-1189,
-688,
901,
402,
186,
-711,
193,
1056,
1843,
89,
-574,
2118,
568,
1355,
724,
-300,
-1438,
-1825,
216,
-473,
1448,
-31,
-32,
-553,
-535,
-147,
1584,
-1056,
1045,
1987,
108,
-623,
-1250,
-764,
966,
798,
-1228,
-970,
-1617,
-1157,
-190,
-149,
1122,
-1572,
-698,
206,
2792,
1962,
485,
3115,
-790,
2202,
414,
1769,
2090,
1334,
-404,
1172,
-2743,
-1671,
-497,
-42,
444,
534,
-846,
722,
1830,
21,
-1421,
-241,
-957,
1847,
-483,
150,
-1676,
144,
747,
-326,
-497,
829,
293,
-227,
316,
-433,
-316,
50,
36,
-1637,
-98,
483,
-251,
1118,
-377,
614,
1367,
1835,
34,
-2068,
1039,
285,
536,
-1183,
-1328,
849,
-204,
-717,
1509,
2509,
913,
542,
2065,
1976,
-1717,
-776,
2228,
-1,
884,
-2752,
1035,
-671,
2078,
-742,
-2662,
316,
1856,
-516,
139,
149,
3557,
-1814,
-1018,
1213,
-350,
-28,
-839,
-572,
-44,
-2137,
-185,
-1409,
-3276,
-2277,
1005,
461,
43,
157,
-999,
2823,
2837,
-1602,
1435,
-3073,
-363,
1150,
-1521,
-338,
2590,
74,
-606,
-1885,
-2618,
-2957,
-1651,
-3732,
-1966,
-219,
902,
-2081,
2675,
608,
-73,
740,
-1556,
769,
3925,
405,
-1201,
-2552,
862,
-431,
1273,
471,
336,
1040,
-1710,
-904,
-1867,
-3131,
-2956,
1137,
1245,
-1262,
-600,
1654,
2027,
202,
-1923,
-35,
1765,
-11,
615,
-1191,
1900,
937,
2264,
828,
-1050,
-410,
370,
831,
-1147,
-1219,
2068,
-1244,
-1918,
401,
1659,
-147,
-2558,
-877,
1590,
-143,
-1746,
1114,
3557,
991,
871,
-420,
1655,
2081,
-498,
-601,
-1259,
-1494,
-1147,
-1248,
-852,
-944,
-3031,
-1020,
482,
-3066,
20,
-1754,
105,
-434,
793,
-210,
-3208,
-2687,
1082,
-1131,
-1706,
-180,
-3350,
322,
-1509,
-694,
-2509,
-2389,
-2015,
285,
-570,
-485,
-660,
1122,
1026,
-3639,
-1463,
-576,
-1408,
-696,
-2901,
-2019,
-1147,
637,
-1936,
-561,
666,
-2967,
1168,
35,
-1119,
1208,
-2103,
-1795,
113,
922,
1684,
-747,
964,
1181,
784,
-761,
-1184,
877,
703,
560,
-278,
-1667,
-153,
-172,
-511,
-671,
1462,
300,
-561,
246,
1947,
-766,
-501,
1105,
2259,
2056,
-906,
-488,
-1775,
1111,
250,
1721,
-979,
-1561,
-1176,
-987,
44,
1388,
-475,
-1181,
985,
824,
-564,
-977,
1352,
-1081,
1328,
-1836,
984,
63,
-1559,
-1327,
-1693,
-2867,
1034,
-888,
1150,
1131,
-570,
-2335,
711,
586,
-298,
561,
124,
215,
-1773,
-2404,
781,
505,
-937,
675,
307,
-170,
1445,
-1419,
189,
-186,
2301,
-175,
-244,
131,
1089,
-1148,
719,
499,
-647,
-782,
-381,
949,
1161,
132,
1183,
-1952,
-617,
-1051,
-1047,
1141,
1597,
-1408,
-1446,
-1095,
-991,
1136,
813,
-1199,
245,
-2383,
-957,
-603,
-952,
1428,
114,
1386,
-615,
-1252,
951,
1252,
646,
2218,
-738,
97,
-1965,
-1625,
-1464,
-724,
-1588,
-1024,
259,
348,
-1660,
-1732,
1704,
-295,
-1491,
-1132,
-2040,
-1845,
-1359,
-1091,
-754,
1033,
-197,
-1296,
-677,
-1679,
-1189,
-1113,
-1046,
1064,
-1258,
387,
-182,
-1701,
-347,
-149,
-17,
1395,
-686,
1898,
1598,
1132,
1478,
85,
1617,
34,
-1148,
-323,
1891,
-581,
-2075,
980,
243,
1292,
985,
-1676,
-851,
10,
756,
92,
-593,
-334,
1407,
1562,
-1182,
1662,
-1401,
-183,
319,
874,
-1124,
-867,
-1683,
-27,
-1311,
-987,
-624,
1057,
289,
1083,
1700,
-551,
-1752,
-2700,
380,
2223,
-386,
-1393,
1074,
653,
2303,
-622,
368,
804,
2161,
-740,
1075,
1200,
425,
1265,
1505,
-988,
248,
-2010,
-311,
2415,
244,
-2281,
-644,
2220,
1742,
-2263,
-293,
-965,
-19,
221,
-2099,
872,
-1363,
-1955,
311,
-2087,
-1267,
-971,
-983,
-1608,
889,
672,
435,
1107,
513,
-53,
-1370,
1442,
-871,
1775,
1119,
-2611,
-410,
1584,
-868,
1120,
-1965,
2324,
238,
-947,
-1890,
185,
610,
1246,
-574,
1114,
-1096,
-1046,
2281,
1754,
1420,
-1660,
144,
1377,
-305,
1517,
-435,
-1902,
3097,
914,
-958,
1400,
-1522,
276,
-170,
647,
1088,
1377,
958,
1282,
205,
-510,
-1797,
174,
1029,
-1356,
-1436,
108,
1075,
35,
-1186,
-1371,
-1085,
2359,
-1346,
-1375,
649,
1952,
901,
1008,
-1034,
809,
859,
583,
1193,
1441,
-654,
142,
-217,
212,
-918,
-280,
-1912,
-874,
963,
435,
-1582,
-467,
2316,
1094,
-1387,
-1407,
523,
470,
-2452,
483,
419,
1934,
-1842,
-916,
488,
-233,
597,
-1410,
-644,
1127,
-520,
-802,
-1598,
-619,
-1084,
970,
-1579,
648,
1199,
-1626,
1637,
299,
1188,
-89,
1031,
-141,
-1602,
-994,
98,
916,
289,
630,
-178,
-1175,
679,
1570,
-477,
366,
384,
571,
472,
873,
432,
-1148,
-555,
1359,
-1303,
-878,
-257,
-1618,
549,
-1103,
-1295,
606,
1107,
-634,
-1362,
1341,
-1407,
-109,
-1621,
-917,
-354,
-10,
-445,
1749,
949,
-861,
1439,
-1425,
-1367,
477,
146,
-511,
-1587,
1238,
974,
-9,
-55,
-1126,
-820,
492,
1342,
51,
-695,
1464,
924,
982,
1075,
1414,
-487,
375,
853,
-786,
1350,
1084,
873,
-428,
1201,
-164,
-435,
825,
28,
-569,
105,
-1644,
17,
-1490,
-177,
-1600,
941,
-1473,
-180,
-1534,
1163,
-787,
-1402,
1201,
389,
-1546,
-648,
-559,
-1390,
1943,
213,
-143,
-362,
-840,
725,
-1622,
451,
-1195,
968,
-275,
-367,
-424,
1744,
1524,
1745,
-183,
-17,
1393,
1555,
-628,
-475,
643,
146,
-1567,
1000,
409,
-910,
786,
-880,
943,
291,
-606,
138,
-349,
-1033,
-864,
212,
-993,
-322,
856,
-143,
213,
-1128,
413,
228,
1186,
-134,
-1129,
-60,
303,
-1266,
275,
557,
561,
-1338,
-1376,
-1592,
1185,
-735,
1361,
596,
-874,
-979,
-362,
-849,
673,
1677,
-1125,
434,
-3,
1422,
-648,
-583,
-1474,
492,
716,
706,
-1387,
582,
-282,
-706,
108,
-1129,
910,
239,
1034,
-823,
-701,
-1665,
940,
-47,
-212,
710,
1171,
239,
-998,
0,
-306,
932,
-1503,
1429,
-1092,
442,
-1097,
950,
-81,
-1602,
-620,
-334,
1295,
932,
-16,
230,
500,
1370,
1338,
1675,
387,
888,
-899,
-1104,
197,
573,
25,
216,
-837,
452,
1604,
-1435,
79,
-1534,
-1293,
-1198,
630,
-1236,
233,
220,
-71,
-251,
177,
908,
-921,
-1473,
1200,
610,
-927,
803,
-867,
1352,
1035,
-727,
1361,
708,
1075,
-1246,
172,
-386,
-1393,
804,
558,
541,
971,
-131,
-600,
-531,
511,
1379,
462,
1702,
1041,
-1286,
331,
1628,
-1278,
71,
969,
-1209,
-1347,
-1175,
-1017,
209,
272,
120,
29,
88,
1178,
894,
708,
-730,
-400,
147,
82,
381,
-486,
-1012,
499,
201,
1226,
-1497,
502,
678,
-1263,
999,
-886,
-1201,
-1207,
-508,
971,
-1075,
222,
-1338,
-1733,
-1594,
-178,
625,
240,
-548,
356,
-164,
-738,
69,
-85,
-1340,
-1744,
1295,
-3,
1343,
32,
1386,
1224,
968,
-1297,
-1195,
-443,
843,
260,
-492,
613,
-1568,
426,
-947,
1016,
302,
-880,
349,
-959,
-1012,
-196,
501,
483,
675,
147,
483,
1094,
-687,
-1100,
-1029,
-31,
-601,
-111,
-1458,
-930,
-1610,
338,
-1337,
665,
-1069,
-349,
-1490,
1831,
-1308,
-936,
-1289,
-2,
-1519,
-249,
1439,
539,
13,
822,
-58,
-1508,
-1357,
-3859,
-2348,
2038,
-1418,
-2290,
-799,
263,
-713,
955,
-2725,
1611,
1644,
-1983,
-2,
588,
2790,
2124,
1717,
870,
-2304,
4,
-700,
915,
-1655,
-3828,
-2225,
-1292,
-3044,
361,
2688,
143,
1963,
845,
575,
2207,
2061,
2452,
1819,
747,
-775,
-1074,
-1736,
-659,
-749,
-1044,
522,
-1419,
85,
-1379,
-915,
-193,
271,
-1043,
75,
-311,
2210,
85,
-223,
-1175,
1484,
17,
-780,
-272,
-2131,
-1062,
-1511,
-1949,
1015,
-2316,
-1100,
633,
-1348,
-128,
-283,
-388,
1947,
1644,
1224,
-759,
755,
914,
-47,
-1970,
-184,
264,
-210,
761,
798,
-1117,
-864,
-111,
-2039,
-1367,
-560,
-455,
-922,
-463,
-610,
530,
-578,
1758,
536,
-1777,
-2037,
-2601,
-4040,
-372,
-1790,
-1814,
-1288,
1712,
522,
1265,
260,
-1289,
3210,
1679,
-643,
-1047,
-29,
1356,
1516,
-202,
-2330,
-2255,
459,
837,
1004,
-410,
-821,
1077,
1773,
722,
1107,
1778,
606,
778,
-1554,
-3086,
-922,
-327,
-1191,
-1385,
-912,
-1083,
1365,
-729,
233,
-48,
-675,
-297,
98,
-309,
1733,
672,
1581,
407,
1156,
-1079,
1622,
458,
1697,
-986,
-1977,
309,
-1030,
-732,
-184,
556,
1746,
1904,
1223,
-520,
-1525,
-2954,
-701,
-1224,
808,
-681,
-1717,
-794,
-778,
-538,
1732,
1154,
1884,
1176,
-1786,
2124,
821,
1840,
37,
522,
-727,
68,
-1521,
-409,
-1169,
-409,
1047,
2036,
1262,
2184,
2550,
1645,
-47,
529,
258,
455,
-418,
799,
-230,
-172,
-1292,
-708,
-1586,
258,
800,
-422,
823,
667,
229,
-777,
768,
-1286,
1395,
-1738,
2219,
-1268,
745,
-33,
-1908,
1574,
-1607,
1403,
-1128,
-2251,
-75,
-183,
2562,
-1934,
-219,
688,
357,
1731,
-302,
-786,
-713,
1386,
2045,
1656,
-120,
624,
-1772,
1594,
865,
-564,
1366,
-762,
1671,
239,
-272,
1248,
-972,
-921,
709,
-55,
-1735,
-1206,
-2201,
607,
927,
189,
-2144,
-1098,
-3508,
-962,
-1224,
-1093,
-1830,
90,
2953,
-1562,
1679,
4117,
2247,
1180,
-60,
-1985,
-388,
-1004,
-1903,
-947,
-424,
-2007,
-614,
-2315,
1151,
-938,
54,
203,
29,
1227,
-1242,
-1296,
-1546,
-201,
-1156,
1549,
108,
825,
550,
302,
2005,
677,
-1749,
-251,
-16,
-1018,
-1274,
1020,
-383,
-471,
-415,
1127,
-173,
1387,
403,
-182,
127,
-559,
-7,
-210,
-1076,
687,
-2355,
-2531,
-1090,
778,
-1432,
-66,
-2005,
1476,
1225,
644,
-845,
1795,
-570,
283,
1584,
774,
-343,
-1542,
-1734,
722,
-617,
872,
-1166,
883,
1775,
-1019,
-704,
-1215,
-444,
207,
867,
-409,
-847,
-1794,
-1725,
819,
-1164,
-788,
1526,
-26,
-1219,
2737,
1926,
1335,
944,
564,
1808,
-1950,
-1110,
-806,
-1001,
-1676,
-2616,
2175,
1756,
-585,
-267,
113,
2080,
-784,
-945,
422,
-1029,
-261,
325,
2691,
1185,
-1788,
796,
1992,
2739,
2464,
-414,
2022,
826,
199,
-784,
2442,
-2071,
-3369,
1076,
2302,
932,
-3280,
-1121,
-513,
-1307,
-1658,
2471,
1994,
549,
1367,
-12,
1281,
3162,
-3406,
-2480,
-185,
725,
1326,
-1704,
2788,
-291,
-2486,
-4492,
-3362,
3192,
-1708,
-2907,
-206,
1147,
29,
-637,
136,
740,
747,
-680,
1217,
-1550,
-2627,
-272,
860,
1853,
-645,
-1863,
-1181,
-926,
1499,
1276,
1557,
-65,
288,
1253,
807,
-2471,
-1811,
-277,
-1130,
1143,
-247,
-56,
644,
-1197,
1581,
-615,
1482,
1557,
1194,
-1881,
-2125,
546,
-333,
-234,
716,
243,
-1934,
1376,
1267,
-1319,
608,
-924,
-958,
-1134,
1893,
2559,
593,
1581,
-1208,
1226,
1569,
-1768,
-910,
-1665,
-1179,
1677,
-82,
-2186,
-135,
-75,
-3246,
-3883,
-1390,
-2013,
-2904,
-262,
1407,
-742,
-2908,
814,
2216,
1803,
1328,
1634,
-296,
-2538,
-2591,
1570,
-547,
277,
-1419,
1101,
810,
-2283,
161,
-881,
-1703,
293,
-1688,
1443,
-3387,
-2859,
-249,
-1904,
199,
-1732,
-790,
1052,
1146,
-1109,
-402,
-653,
654,
-583,
671,
-990,
2860,
895,
1517,
32,
-608,
-154,
307,
248,
-933,
769,
-1006,
278,
-1502,
66,
580,
2800,
805,
-762,
2769,
-1133,
-1867,
-1731,
715,
-1047,
-1682,
-1974,
804,
97,
-503,
-389,
-348,
1,
417,
-360,
-1511,
-789,
-897,
-469,
1184,
-1746,
2918,
308,
1912,
-1661,
-461,
169,
2715,
2294,
-1466,
1767,
1875,
-1010,
1846,
1326,
-1413,
658,
-1723,
-1195,
-1796,
1813,
655,
-1831,
-1748,
-263,
1268,
416,
-1340,
-451,
-1125,
-149,
-10,
-690,
368,
-1086,
412,
-2019,
117,
-69,
788,
-347,
1143,
3398,
830,
-1362,
-2799,
-3035,
690,
-1086,
-834,
2057,
1443,
629,
-364,
-450,
2308,
-1459,
1098,
855,
-358,
-942,
1000,
2800,
1290,
-325,
-499,
-1288,
-1444,
-956,
1591,
3229,
1645,
1819,
-614,
2913,
-55,
1597,
1414,
1725,
2059,
-2688,
-802,
-2072,
-497,
-157,
-475,
75,
1465,
-991,
-1248,
646,
181,
1813,
84,
1265,
-2030,
-4409,
-3405,
-2571,
1740,
-431,
1002,
788,
1013,
-874,
620,
291,
-264,
-721,
-627,
32,
3274,
-1735,
-2734,
167,
3171,
1677,
-2569,
-446,
618,
5116,
802,
-1417,
971,
1546,
-173,
715,
-1739,
-416,
-621,
580,
1397,
-898,
1449,
633,
-669,
-301,
-453,
123,
-983,
-1228,
-657,
1957,
-18,
-1174,
4594,
4649,
1126,
-2991,
-1619,
1639,
1478,
1049,
-541,
-1288,
-1395,
-377,
-163,
-569,
-1783,
-934,
2251,
-2031,
-1182,
-1662,
1861,
2977,
-1994,
278,
307,
3756,
3183,
122,
293,
1190,
-266,
1381,
-542,
308,
-865,
-254,
1226,
-1487,
3765,
-609,
1487,
117,
282,
608,
-212,
-476,
1248,
-2367,
1316,
-112,
530,
-815,
-3213,
-3186,
730,
-1846,
1972,
372,
-19,
732,
-1617,
1014,
-1603,
278,
679,
-1854,
-516,
-526,
-2509,
641,
-2533,
-995,
-2373,
-1377,
1056,
739,
2112,
3016,
-172,
33,
-141,
-1226,
1356,
-1525,
-1812,
-595,
-2643,
-696,
-2346,
-1705,
-733,
-2188,
524,
-1987,
23,
-1581,
1385,
1308,
-1603,
-863,
1265,
680,
1973,
-1128,
199,
228,
1271,
-1395,
1295,
1136,
675,
-1710,
712,
1195,
-720,
516,
-1529,
389,
-359,
1034,
-1162,
1272,
1319,
-818,
956,
1505,
136,
115,
-979,
532,
-1506,
2099,
-36,
-173,
-683,
-29,
758,
-1376,
-1688,
-1268,
-406,
1689,
-1756,
652,
-425,
-457,
-402,
1127,
-954,
1556,
-1655,
-284,
-1658,
662,
-1331,
2196,
-133,
-629,
-986,
-413,
1184,
552,
675,
-767,
-1519,
-1231,
-2260,
-1106,
1499,
-1369,
1332,
1137,
-228,
-185,
3,
-2232,
1250,
2393,
-725,
42,
-58,
-1542,
-576,
-78,
1062,
-831,
75,
-727,
985,
-1225,
-2412,
153,
537,
246,
608,
357,
1622,
530,
-1431,
1316,
-1156,
149,
231,
-163,
1630,
1625,
707,
-1614,
1246,
-1163,
-881,
-1295,
694,
600,
910,
-230,
714,
-498,
-1410,
1323,
1876,
-1255,
-1185,
889,
-90,
890,
752,
271,
728,
1053,
1604,
-1233,
800,
1539,
1172,
50,
-585,
918,
-105,
692,
-72,
-1409,
1437,
-902,
-1821,
435,
384,
1462,
-685,
-607,
2224,
720,
-784,
-156,
-649,
-49,
593,
-581,
-2157,
-277,
449,
-1250,
-400,
-810,
-2042,
-610,
-1072,
-1899,
-853,
-391,
-1012,
923,
-2380,
132,
439,
868,
467,
-568,
-336,
-1184,
-533,
1565,
-81,
-127,
-1275,
173,
380,
937,
-110,
1223,
1477,
1149,
-1000,
-874,
922,
1444,
-1348,
853,
-1185,
-6,
1460,
1222,
-347,
0,
-607,
-192,
2393,
794,
-195,
1371,
-177,
998,
-414,
-1320,
1042,
443,
942,
595,
-1231,
520,
-2140,
-247,
1099,
-896,
33,
-757,
-48,
238,
-1632,
-2154,
-1462,
900,
-1835,
-230,
-792,
-1449,
339,
-2714,
-1469,
-1282,
-1252,
-2782,
-1027,
-1117,
-1263,
356,
167,
-820,
-991,
-673,
1653,
-215,
-1234,
-1439,
-96,
814,
-1473,
-900,
1056,
332,
1070,
-2413,
-138,
-901,
535,
3172,
-1933,
-885,
-1020,
-295,
357,
-1993,
483,
-1027,
444,
2494,
-226,
-1267,
-806,
1238,
-488,
3491,
946,
1515,
292,
252,
3153,
440,
-1468,
467,
-1334,
2457,
-1296,
-1265,
-510,
-2228,
1346,
-1515,
-692,
452,
-1938,
1747,
779,
283,
-1068,
1677,
-1381,
-1034,
-1439,
534,
881,
873,
-522,
660,
-882,
157,
-571,
1175,
1505,
257,
741,
-1503,
-1083,
-1232,
-945,
-510,
1181,
-89,
372,
716,
-1209,
1516,
-273,
-1363,
-881,
-1594,
-400,
-1170,
-757,
-1518,
-861,
1164,
-2881,
828,
-176,
-1072,
566,
-3015,
-934,
-1358,
-1153,
1483,
-2589,
472,
0,
1533,
1741,
4619,
947,
174,
-1676,
2791,
-791,
-343,
1302,
720,
344,
-1158,
-1606,
-1112,
163,
-244,
-2007,
-3757,
2421,
3573,
1383,
1337,
312,
-2222,
731,
-1089,
-1808,
-2046,
-72,
-1548,
-310,
-2440,
-2646,
4399,
703,
-2221,
-374,
-1006,
396,
1684,
-1188,
990,
358,
208,
-950,
-196,
2316,
1170,
830,
1343,
736,
-2,
907,
1007,
108,
-307,
-809,
-1005,
1695,
-1638,
1544,
-781,
212,
3767,
1331,
-413,
-367,
-981,
366,
1674,
-613,
1820,
-1351,
293,
-605,
-1414,
-1340,
718,
541,
-1009,
-715,
1296,
-1244,
355,
1822,
1319,
115,
774,
997,
1258,
947,
349,
-1223,
578,
1199,
-1535,
129,
1115,
-2467,
-1404,
-468,
-564,
-81,
-1026,
2208,
1472,
899,
-903,
2564,
-64,
1624,
-219,
-1187,
1500,
-2648,
-1317,
-820,
820,
330,
-1061,
406,
684,
-516,
-263,
351,
-906,
-2999,
-1469,
-242,
23,
-504,
1358,
-507,
2905,
3149,
1217,
-621,
-599,
689,
1598,
636,
847,
-994,
-1837,
-448,
-858,
-1066,
62,
-655,
789,
-1115,
383,
-1209,
1531,
622,
-722,
-239,
1960,
1542,
279,
273,
1056,
-684,
-1080,
794,
1373,
288,
-10,
-327,
-1612,
-310,
208,
-1971,
-57,
483,
1955,
-1303,
-365,
-29,
575,
330,
814,
25,
556,
1147,
-1647,
-261,
1070,
-222,
1889,
239,
714,
-943,
-1985,
599,
794,
-488,
-425,
-685,
-887,
-942,
-1384,
-262,
-1483,
2098,
-79,
-1463,
-46,
-410,
-2345,
-1357,
759,
2275,
-1366,
941,
1224,
465,
-590,
807,
1752,
-616,
-1627,
-374,
194,
1114,
194,
2291,
-320,
1276,
-586,
1263,
294,
335,
301,
958,
775,
-207,
707,
107,
-2010,
-1592,
-336,
-1579,
27,
1947,
1275,
-548,
464,
-445,
931,
-2735,
155,
-871,
2371,
-842,
865,
793,
-403,
-2826,
-1466,
1919,
3203,
411,
1398,
-902,
2557,
1628,
-850,
550,
1347,
-1630,
-905,
-619,
-356,
2510,
1278,
-171,
-2473,
-205,
-2569,
186,
307,
-774,
-1102,
-2388,
1706,
1928,
250,
3454,
3420,
2445,
1784,
858,
-152,
1154,
1008,
1122,
2185,
-1247,
154,
-427,
-2184,
361,
619,
1413,
713,
-907,
1079,
-1896,
-911,
1157,
887,
-1718,
-2292,
203,
1582,
-335,
-1055,
-278,
-1807,
796,
143,
790,
-590,
-354,
-2772,
-1754,
-1279,
1298,
-288,
1152,
1941,
916,
-139,
-869,
473,
-1706,
344,
-501,
-2564,
1842,
1890,
-1537,
1777,
914,
-837,
1267,
-932,
-856,
-1198,
526,
666,
-901,
-278,
-1710,
1131,
-1642,
-365,
-2137,
-944,
2609,
-1399,
533,
-134,
-102,
2825,
-1017,
-500,
1583,
547,
1687,
-423,
760,
408,
2482,
1861,
418,
409,
2730,
1630,
-1088,
577,
539,
-1362,
-4064,
1770,
1128,
-402,
-1821,
1467,
-1049,
201,
727,
-605,
-1554,
-2197,
746,
472,
135,
1265,
311,
2901,
1832,
-670,
127,
1173,
3181,
1528,
2217,
290,
-1921,
-750,
1618,
586,
1082,
1875,
-772,
-1478,
-1721,
-1496,
-3121,
-3428,
-2896,
2278,
15,
1732,
1700,
-206,
164,
1084,
99,
-262,
468,
-1668,
-11,
1406,
788,
-61,
-814,
-967,
-2777,
218,
1964,
1111,
-10,
325,
-89,
185,
-758,
1219,
-1517,
-6,
947,
272,
-795,
-580,
-668,
1806,
105,
-1039,
-642,
293,
757,
2936,
2579,
-1124,
157,
842,
-1414,
-420,
479,
-274,
-1,
659,
-32,
1044,
-1303,
913,
1211,
-420,
1472,
144,
-758,
-97,
-272,
-1064,
-816,
-356,
949,
663,
559,
-538,
-1138,
-176,
-467,
-2680,
-114,
347,
3392,
409,
-2326,
251,
1627,
3010,
2357,
735,
1051,
-977,
-623,
-9,
-39,
-993,
-468,
35,
-950,
-2434,
559,
126,
-401,
-2344,
-4066,
904,
61,
402,
50,
-1104,
-411,
708,
-2333,
-53,
-2,
2057,
752,
1730,
1057,
2728,
-179,
-876,
-592,
-1340,
929,
-106,
-1233,
365,
-1652,
-1090,
711,
853,
-882,
-1011,
367,
-959,
1556,
-64,
423,
994,
-1126,
-1696,
537,
-1206,
1718,
-1220,
-1699,
-364,
-515,
667,
447,
-613,
-664,
-904,
-1469,
547,
12,
-1177,
-27,
1317,
1863,
1951,
549,
1265,
1891,
2729,
7,
-99,
768,
-1221,
-99,
64,
649,
67,
1929,
780,
-595,
-1305,
-295,
383,
-2910,
-2155,
-1504,
-1647,
-557,
2191,
-1455,
-422,
99,
-674,
723,
-1769,
-651,
2995,
-177,
-974,
-194,
316,
-31,
-173,
-41,
1905,
528,
2314,
2912,
4141,
1581,
-910,
91,
599,
-932,
-852,
-1338,
-329,
1032,
-106,
-752,
1052,
115,
-1407,
785,
972,
625,
-1045,
-470,
-1699,
-65,
-614,
-447,
732,
979,
793,
986,
1344,
187,
799,
318,
-1541,
2330,
357,
569,
413,
964,
869,
-1508,
361,
1278,
-764,
499,
275,
-309,
25,
-1184,
2618,
1381,
696,
539,
449,
-393,
1546,
-1123,
2118,
-537,
-1651,
-76,
1279,
-426,
-1005,
1162,
421,
1212,
107,
294,
959,
-2782,
905,
-2243,
445,
-2049,
-2276,
-2297,
-2103,
14,
-1809,
959,
-766,
-654,
89,
-700,
-1045,
-1714,
139,
1962,
1125,
-779,
-919,
406,
-113,
-74,
1254,
-126,
2276,
19,
533,
812,
554,
235,
1063,
118,
-702,
493,
422,
806,
1827,
982,
45,
-1055,
-710,
1805,
-1257,
-2147,
738,
-1118,
-652,
-2337,
343,
1124,
908,
2443,
886,
1964,
1962,
1332,
1494,
-1071,
614,
1000,
1105,
324,
-195,
-920,
-473,
574,
435,
-280,
1024,
1101,
-1559,
-41,
2548,
-253,
1539,
608,
-234,
444,
76,
-1158,
800,
-1582,
1113,
-676,
423,
-168,
111,
-1948,
768,
1984,
226,
697,
1057,
-2040,
-329,
103,
264,
838,
-367,
142,
453,
1654,
-1077,
561,
-1916,
1712,
1802,
777,
267,
-4,
159,
-1181,
-1398,
1045,
-1537,
-1965,
920,
2492,
963,
-317,
-1318,
1736,
1014,
3768,
586,
-402,
-4202,
-4415,
-2113,
-3240,
1364,
141,
3355,
1331,
326,
-641,
-396,
562,
959,
2652,
-1415,
684,
911,
917,
1865,
-169,
643,
-4092,
-2324,
-1800,
1061,
-1408,
428,
-205,
-2737,
-402,
-605,
-1144,
-1966,
665,
-2343,
334,
-116,
1519,
1193,
1815,
980,
1075,
-836,
783,
-179,
-1110,
-900,
270,
1160,
74,
309,
155,
338,
-1011,
-605,
1614,
1356,
1529,
566,
1147,
-696,
-209,
305,
-784,
-1330,
1694,
1037,
-781,
849,
-767,
881,
-1083,
-662,
1455,
778,
-1723,
145,
605,
38,
836,
2969,
1236,
1613,
1133,
898,
-928,
1183,
2311,
415,
-160,
-445,
-92,
-150,
-1985,
-1445,
-352,
336,
-2009,
-3121,
-1810,
-2989,
-526,
177,
897,
103,
-1022,
1084,
2559,
-886,
-95,
-8,
33,
-747,
-1211,
-443,
1105,
137,
699,
-700,
-850,
990,
61,
202,
-1116,
3935,
407,
-273,
-933,
356,
1157,
71,
-1585,
-482,
-1584,
-1030,
-987,
1006,
-1812,
-994,
931,
-577,
1644,
1603,
782,
3,
166,
-804,
1711,
532,
-1326,
256,
931,
-922,
136,
-1593,
-1075,
110,
1137,
1266,
581,
1177,
-313,
-679,
-988,
2059,
693,
1255,
425,
82,
-1360,
-287,
-1758,
-1239,
146,
-1134,
-1216,
-1599,
348,
-1434,
-1250,
-2909,
1106,
-394,
856,
1371,
58,
714,
-12,
1476,
-215,
245,
2049,
-2612,
-1531,
1716,
1486,
2243,
1404,
-37,
-32,
1744,
2230,
-479,
-3216,
480,
1395,
-772,
-300,
-774,
506,
-880,
-129,
1158,
46,
-132,
1147,
1465,
-907,
-736,
765,
-2065,
-240,
1823,
1414,
-571,
-914,
-1456,
1640,
1408,
-894,
-1356,
-18,
137,
-15,
-1356,
-1573,
-492,
-400,
213,
-1306,
-2706,
-1737,
622,
-1119,
-1014,
-704,
-2319,
1447,
133,
-841,
1157,
3523,
1246,
-1142,
-565,
673,
-655,
1294,
3508,
379,
-3355,
1750,
1212,
2304,
-1053,
1050,
1076,
3113,
-1384,
-149,
-394,
-2288,
-1038,
-2589,
2907,
4667,
68,
377,
531,
-1621,
-809,
-234,
-128,
602,
902,
-97,
736,
570,
475,
-977,
-2300,
-1567,
1248,
955,
-1619,
-1529,
-698,
944,
1119,
369,
420,
-1806,
1749,
1769,
-1808,
-1557,
-1612,
391,
1273,
-1479,
-141,
497,
1504,
-46,
-2138,
-823,
-683,
-2435,
-403,
-1398,
-2411,
-1232,
-1803,
-724,
-925,
-564,
804,
-331,
397,
1447,
-310,
-1322,
1704,
-614,
509,
-1484,
654,
1120,
-233,
-344,
-1386,
527,
483,
394,
-3921,
-2607,
-583,
536,
-409,
596,
2262,
1426,
-1821,
-1704,
736,
-241,
-2008,
-1765,
19,
-2355,
-2173,
-1806,
-708,
871,
55,
-685,
2155,
3554,
1721,
-1575,
-1114,
-807,
3117,
773,
-2340,
479,
2256,
1980,
-2281,
-407,
-728,
-915,
-3803,
-1464,
-1419,
-1838,
-1264,
-884,
-275,
-1913,
-2,
-231,
410,
264,
891,
-646,
-765,
1957,
-597,
-1195,
-1637,
-1752,
-406,
-195,
-17,
136,
-198,
-1520,
-824,
34,
-2284,
825,
1526,
190,
-1683,
1383,
1093,
1794,
1249,
-3262,
657,
-161,
-857,
-543,
-634,
522,
104,
-1036,
880,
-1429,
-1161,
492,
-182,
1040,
123,
-2166,
368,
379,
491,
-2538,
553,
-598,
-1222,
-1308,
-1550,
199,
-196,
108,
1075,
-960,
-1431,
1459,
-1993,
1079,
-856,
-895,
-1540,
331,
-249,
1856,
135,
-1865,
90,
-506,
111,
-1932,
-1016,
-782,
635,
-89,
-38,
1650,
600,
729,
-1667,
-250,
1037,
-1607,
1551,
-1636,
-1302,
-1015,
951,
333,
-737,
574,
-99,
362,
2183,
2127,
1555,
2090,
442,
1779,
143,
2032,
-621,
404,
-2236,
-2120,
-37,
2309,
728,
-526,
2052,
190,
-518,
994,
-458,
382,
-866,
-755,
-57,
863,
-3784,
-4251,
-1232,
-935,
-1228,
-3384,
-1118,
-721,
1044,
-2001,
-57,
601,
-2871,
841,
569,
1357,
-1182,
592,
-1472,
167,
346,
-482,
179,
180,
-2127,
709,
200,
693,
116,
-583,
1190,
-834,
62,
-2366,
161,
-271,
-1030,
201,
-869,
1683,
-1365,
-55,
-1807,
-1250,
-1184,
841,
-1479,
-1630,
-956,
-321,
1770,
-952,
-737,
1015,
-1418,
-1353,
-3073,
-1670,
-637,
-697,
-1449,
-2249,
-21,
1952,
806,
162,
1352,
-346,
930,
-726,
682,
1990,
745,
771,
-957,
757,
1603,
763,
449,
1732,
-689,
973,
-1239,
-1165,
725,
-1870,
1047,
964,
1390,
727,
933,
-200,
-1162,
-147,
981,
772,
174,
-1579,
1091,
-998,
-941,
-507,
-497,
730,
534,
133,
1390,
-1318,
-159,
2125,
724,
-1583,
187,
-1033,
2090,
-328,
-623,
1429,
510,
744,
1450,
197,
811,
-1440,
-528,
3096,
2479,
-3308,
-1463,
1920,
1629,
266,
-336,
446,
1072,
-921,
185,
1945,
630,
-1509,
1189,
-110,
917,
940,
692,
2798,
1973,
1784,
1560,
-969,
-490,
-1413,
-2185,
-1566,
1970,
-3072,
-3321,
-267,
-1843,
882,
-417,
-2568,
-3186,
-1155,
-823,
284,
1701,
-307,
-1085,
-1731,
290,
785,
-1269,
1241,
-297,
2034,
1393,
960,
1761,
-1519,
152,
-933,
-1961,
1856,
935,
2381,
3407,
1145,
1237,
1164,
-511,
992,
934,
-31,
251,
419,
241,
-493,
-2872,
976,
2199,
820,
-1432,
1117,
272,
143,
-282,
-438,
-1889,
585,
646,
798,
-464,
750,
1110,
1009,
-372,
1235,
-768,
-1479,
633,
640,
595,
1303,
1531,
2883,
1671,
462,
1100,
1026,
-467,
-466,
478,
1139,
582,
1384,
2252,
690,
1496,
-52,
75,
-1149,
1489,
-908,
268,
490,
-361,
855,
621,
-457,
505,
752,
-1713,
-1222,
1536,
910,
484,
-1927,
698,
2071,
53,
-244,
-24,
-423,
1071,
-203,
831,
-635,
-4074,
-1704,
-881,
1151,
-1894,
-1591,
-294,
-615,
-1815,
-1311,
-896,
1711,
403,
-754,
-939,
420,
-107,
-389,
101,
-514,
-1792,
-1783,
-835,
-703,
710,
-1676,
-1799,
-518,
-481,
1140,
3410,
472,
-101,
-615,
-759,
-1798,
-389,
67,
310,
-265,
-1893,
-2121,
-919,
-1574,
979,
-253,
-1466,
-694,
-332,
-2648,
-212,
3110,
-1304,
-1273,
213,
3463,
907,
-1496,
-123,
990,
-919,
-797,
-962,
466,
167,
612,
-1588,
2279,
-793,
85,
941,
723,
378,
649,
-616,
1565,
854,
1437,
-840,
1463,
76,
892,
-807,
-326,
-1729,
799,
738,
1048,
74,
1133,
-268,
-1287,
-1155,
-704,
254,
406,
755,
2570,
1826,
-672,
-1644,
-1129,
1509,
-2934,
-2826,
679,
-356,
-1152,
-3055,
-875,
-539,
917,
-23,
-3021,
-1019,
-209,
-70,
-1462,
-2029,
-485,
-2181,
-1188,
762,
-1744,
-2247,
-179,
3698,
-1497,
-77,
2461,
204,
351,
1179,
255,
-11,
957,
-2609,
-155,
1063,
-1400,
971,
-380,
601,
-1468,
-1126,
-583,
-487,
285,
610,
1141,
2122,
-201,
-94,
411,
-1278,
13,
1317,
751,
-534,
1097,
918,
-653,
430,
383,
-199,
466,
615,
-1335,
955,
1440,
1144,
1127,
114,
-1429,
-2786,
-2385,
-52,
-262,
-2314,
-673,
338,
-1342,
-1513,
-1171,
1266,
-1817,
560,
1341,
-551,
235,
-443,
-2227,
1673,
1723,
-1800,
-1518,
-1924,
-29,
1368,
3862,
1117,
-762,
-296,
3233,
3535,
2716,
2236,
-112,
1062,
2444,
534,
2569,
1108,
-73,
-493,
1838,
1161,
-259,
-375,
-504,
578,
-68,
1110,
1185,
-1218,
-185,
78,
-935,
-967,
-626,
-1782,
-1080,
-775,
-757,
-921,
-2130,
918,
-804,
-762,
1626,
-718,
-1062,
-1646,
-635,
2134,
2554,
-708,
3172,
2462,
426,
2365,
409,
343,
270,
-1043,
1931,
2259,
-1112,
1589,
-1502,
1746,
353,
459,
-151,
1117,
576,
217,
538,
-45,
967,
170,
91,
1053,
-486,
-3883,
-2064,
895,
204,
-2386,
-341,
3179,
2009,
-1723,
1194,
431,
2469,
-1711,
976,
273,
1387,
-1243,
-316,
622,
449,
-117,
-1666,
-1008,
143,
-1500,
658,
48,
908,
1450,
97,
-457,
745,
-2002,
-474,
1492,
2021,
1984,
611,
5,
1533,
239,
-193,
-661,
-107,
1883,
-2248,
2147,
-1127,
1421,
1633,
-705,
-2030,
-84,
2025,
544,
-1939,
-1717,
-596,
1120,
1701,
-2222,
-1820,
2851,
-356,
466,
-1041,
-540,
2233,
465,
616,
-514,
-2966,
1032,
142,
2562,
1670,
1600,
1354,
1197,
-120,
643,
-515,
621,
1754,
1355,
-1793,
1615,
-1346,
-249,
1515,
-523,
-1743,
-88,
-651,
1908,
1052,
499,
795,
779,
-707,
238,
-2140,
124,
-66,
184,
-2080,
-719,
4754,
-1344,
811,
841,
1341,
2799,
-1516,
1683,
2437,
1721,
1080,
54,
733,
1840,
221,
-1680,
152,
-710,
-979,
-2445,
-821,
-302,
-244,
2314,
-1979,
-1467,
671,
-7,
-2838,
-2722,
-1394,
-1013,
1045,
-880,
-1386,
-1622,
2964,
1571,
1232,
2835,
2574,
-899,
-876,
-2069,
-158,
60,
-1692,
1466,
169,
303,
-908,
-47,
760,
-476,
1163,
487,
2461,
-576,
1783,
2028,
-1008,
-568,
-120,
741,
-805,
-1390,
226,
1134,
525,
148,
-680,
-172,
-79,
-532,
1130,
925,
-943,
965,
-79,
152,
-1175,
-571,
67,
-769,
-802,
628,
729,
-862,
-406,
1086,
-1571,
1000,
600,
1730,
1566,
734,
1625,
-1112,
-141,
1117,
1651,
1116,
-1457,
821,
-1377,
-861,
85,
-1191,
2265,
-1507,
-262,
1734,
-1816,
-1600,
520,
-35,
436,
1635,
-1520,
1999,
1275,
-1228,
2062,
1819,
-464,
-1174,
-2018,
1,
-849,
-2307,
574,
-196,
-1651,
-1544,
978,
-409,
-1828,
-1465,
-2177,
3645,
2502,
-174,
-650,
519,
564,
-1317,
-1358,
-1644,
640,
-916,
-2022,
-895,
-1162,
-668,
821,
1499,
647,
1241,
673,
-1722,
955,
-851,
-332,
-367,
-1454,
-773,
439,
-494,
-1798,
1162,
1268,
1095,
-178,
1656,
-723,
686,
-1147,
244,
-806,
-284,
305,
-884,
-339,
-88,
-516,
-939,
-40,
-641,
1233,
1505,
403,
-1147,
-453,
-584,
-1640,
-1536,
941,
-507,
-501,
-1031,
-570,
-226,
-1458,
-2888,
-1708,
392,
465,
-1062,
1235,
1277,
1057,
-303,
1804,
1251,
925,
907,
445,
923,
-454,
1116,
-101,
-1685,
1532,
-2533,
1711,
-1428,
-826,
-572,
1528,
1510,
-339,
1569,
1199,
-2650,
-423,
1196,
72,
949,
1079,
-3236,
1089,
341,
-704,
-144,
1361,
633,
43,
1422,
2281,
2204,
-1971,
-580,
1277,
-1370,
-1366,
-1142,
-2,
623,
228,
1454,
-1228,
1214,
-882,
894,
791,
-998,
-240,
903,
620,
2372,
584,
896,
-1011,
1971,
1983,
792,
856,
-520,
2287,
1499,
-677,
-260,
-1592,
-496,
663,
812,
278,
-605,
359,
-1272,
-973,
-76,
-1063,
938,
-843,
20,
-377,
-1148,
-1836,
-1504,
-287,
189,
-597,
-970,
-1615,
-79,
241,
-1374,
1137,
2187,
1647,
2220,
1799,
1226,
-2547,
1125,
-86,
1282,
-549,
-240,
-1149,
-1564,
487,
113,
-545,
-875,
-2405,
2902,
516,
-839,
-337,
-1684,
2511,
-1210,
341,
-1312,
-3005,
2105,
-671,
-242,
890,
-301,
1807,
2592,
2255,
-1272,
-336,
-1683,
1934,
-281,
490,
-511,
-2066,
55,
-1719,
-377,
712,
-923,
1523,
-2134,
-1636,
-934,
-1160,
-1665,
196,
-356,
-2113,
-1451,
2296,
802,
815,
-187,
502,
-137,
1218,
532,
-1892,
-1086,
-832,
302,
-1321,
-1417,
161,
-1652,
835,
-1307,
-1521,
-222,
76,
381,
-630,
-1055,
391,
1158,
2278,
-954,
562,
-695,
-896,
-1011,
165,
-1020,
-928,
-717,
-2451,
-467,
203,
-956,
433,
-2005,
1359,
518,
1748,
1580,
265,
-4,
1334,
1128,
1644,
-1106,
-616,
986,
2430,
-752,
-830,
249,
-905,
381,
899,
-1040,
-205,
454,
722,
906,
-436,
645,
-1384,
-564,
-1299,
-2198,
-2661,
-464,
-630,
981,
122,
-1285,
-1259,
-1718,
-960,
-904,
-1086,
646,
1469,
71,
-1328,
-2289,
-516,
-982,
326,
1472,
-1470,
-627,
-132,
-1338,
-696,
1730,
1235,
-700,
-1875,
926,
1719,
858,
-1506,
35,
-410,
-167,
-235,
1301,
-376,
-99,
-955,
-548,
2171,
468,
-162,
-440,
1496,
-1,
739,
-1403,
922,
588,
1428,
-1061,
-1325,
-690,
-226,
-11,
662,
599,
45,
883,
-192,
-1105,
657,
752,
-575,
1002,
1156,
-700,
-1274,
-376,
-611,
66,
388,
1541,
-973,
2147,
-1111,
-128,
1618,
-1087,
-1736,
-476,
-900,
710,
-101,
-136,
-2306,
-1141,
-793,
615,
-1077,
2106,
2376,
241,
427,
-1091,
1616,
703,
212,
-179,
510,
-1850,
1738,
1991,
-1263,
-1463,
960,
-1157,
-34,
-883,
-879,
1377,
-1307,
-828,
266,
-484,
-1719,
-333,
-612,
1346,
982,
1172,
1613,
-1531,
826,
-1407,
1075,
896,
1796,
-28,
1193,
702,
-1699,
-284,
-605,
-1032,
1548,
-225,
-746,
-1435,
1065,
1065,
1544,
-1475,
-1602,
-1012,
129,
-893,
711,
2218,
1589,
-221,
-1239,
-1523,
978,
-1139,
-1090,
-984,
1194,
70,
-1159,
930,
-1125,
-318,
228,
-215,
-305,
154,
1267,
-80,
-1633,
-673,
292,
-621,
901,
1085,
1763,
1346,
1344,
275,
-813,
1317,
-126,
-2168,
-327,
1138,
-1250,
178,
-1048,
804,
-1384,
-644,
-136,
1079,
645,
-58,
-26,
-1607,
195,
294,
1067,
82,
691,
930,
-159,
-603,
1526,
129,
205,
-675,
-557,
-555,
-595,
-1124,
-35,
1402,
201,
-561,
1086,
-235,
-485,
1597,
-1328,
-679,
-345,
-1408,
1151,
-946,
-955,
-676,
-64,
-36,
1206,
37,
-473,
151,
130,
911,
-200,
1395,
-581,
-726,
414,
-133,
-1204,
977,
-2119,
1706,
1557,
1364,
2018,
-193,
-1975,
189,
-489,
-1341,
-336,
697,
465,
-2199,
1394,
1810,
710,
871,
-835,
638,
1434,
420,
224,
1250,
-1449,
-1402,
1131,
633,
304,
648,
1261,
1567,
-843,
-562,
273,
-59,
-77,
852,
-1323,
942,
631,
292,
1511,
528,
350,
-973,
-133,
3,
182,
-1916,
1359,
-1260,
540,
-402,
172,
1518,
-673,
-94,
290,
-859,
69,
-1342,
999,
347,
-1047,
-389,
244,
919,
-1125,
-371,
997,
-377,
1177,
-1741,
-799,
-1281,
289,
1290,
682,
835,
722,
1535,
-1606,
1153,
-675,
-1183,
824,
-1427,
850,
-109,
-1419,
-235,
563,
-387,
-938,
-1035,
-360,
-1462,
-28,
589,
-1708,
201,
61,
611,
28,
1801,
927,
1404,
962,
-57,
120,
213,
263,
1301,
466,
1341,
-453,
299,
-75,
1515,
515,
-1417,
732,
-301,
64,
-608,
-1631,
-1335,
403,
-1513,
-2025,
-2426,
133,
-562,
-4166,
-1658,
-4059,
-1476,
-1733,
-2684,
-792,
-176,
-119,
893,
1531,
1981,
-1093,
122,
-666,
733,
-545,
20,
1894,
-2907,
-412,
-1705,
-1408,
-67,
-637,
-711,
-978,
2842,
-1256,
352,
3443,
-745,
2271,
-26,
-1629,
-1156,
-238,
2715,
-1266,
398,
-2679,
-352,
1169,
1622,
457,
-2083,
1827,
-85,
920,
-679,
-59,
-138,
1576,
1107,
-324,
626,
1876,
937,
-1451,
-2111,
1010,
973,
278,
1334,
-388,
329,
-807,
386,
362,
42,
790,
1896,
1803,
479,
-386,
1092,
-2,
-110,
1855,
2061,
914,
914,
-716,
82,
-920,
811,
1979,
862,
-48,
1337,
-1380,
-562,
421,
1416,
-1513,
-1713,
25,
1913,
833,
576,
1114,
-15,
-3300,
459,
754,
1110,
124,
-46,
-785,
1871,
504,
3468,
2265,
-866,
-326,
-394,
526,
1253,
1232,
712,
-597,
-100,
-762,
-971,
-1604,
-1548,
435,
971,
-1367,
-1514,
-293,
-1580,
1366,
-397,
473,
765,
2,
-1615,
-1210,
-1804,
-2243,
-602,
-147,
1361,
-1818,
731,
-1142,
-1329,
-48,
117,
2192,
797,
-17,
2074,
-1034,
-902,
-1813,
-115,
238,
-60,
-429,
-757,
310,
917,
1333,
1719,
1663,
-186,
-756,
516,
-2889,
-2218,
434,
542,
-834,
-1342,
29,
-819,
-704,
-364,
235,
-643,
-219,
-1393,
1064,
-1902,
-1538,
862,
-501,
546,
501,
-1369,
-75,
-943,
-1688,
121,
-179,
82,
-1456,
258,
2419,
1007,
1711,
745,
460,
-1327,
-314,
1488,
1393,
-508,
15,
-904,
-2415,
-654,
164,
-704,
1895,
-404,
-320,
-170,
-841,
417,
-1117,
2097,
522,
-1440,
-212,
1410,
-354,
-1091,
1067,
-1240,
-792,
-905,
1722,
-658,
-1418,
-550,
-1882,
765,
952,
38,
818,
331,
1515,
-456,
-1480,
255,
1704,
-286,
-1012,
1077,
965,
321,
1284,
-434,
1518,
681,
-1818,
-415,
-2751,
1853,
-493,
-805,
1938,
-865,
2158,
-368,
1229,
-34,
-1429,
923,
837,
-1606,
-441,
108,
2592,
337,
-444,
925,
-510,
2079,
2470,
-1047,
926,
1316,
-1475,
-1466,
1338,
737,
-1701,
-2484,
-2848,
-1373,
1916,
1337,
955,
2455,
577,
1296,
8,
-712,
2241,
1133,
789,
1377,
-1910,
640,
-368,
-1406,
1883,
-864,
2012,
1041,
-650,
-2048,
685,
833,
1239,
742,
57,
1166,
302,
1967,
-684,
350,
756,
-1719,
1502,
2004,
-697,
4012,
-1836,
-963,
333,
-149,
2556,
-137,
-1125,
1687,
-1105,
-2143,
2051,
-1,
-1113,
408,
-328,
-529,
1060,
1074,
-160,
-16,
159,
-1374,
2718,
1919,
3145,
-2417,
-128,
1303,
1158,
1129,
-1325,
-834,
2334,
551,
-251,
8,
-1201,
1433,
-354,
2634,
584,
685,
648,
-1844,
2360,
1180,
1432,
128,
-275,
1749,
1359,
379,
495,
-88,
2056,
-1274,
1877,
1537,
776,
8,
-126,
1316,
1037,
-786,
-389,
-642,
-813,
763,
219,
190,
-2605,
-163,
-1854,
-1364,
-1174,
-261,
-1319,
1433,
2705,
346,
-1509,
684,
1649,
637,
-1149,
-1379,
-1690,
-119,
718,
375,
1321,
-292,
858,
-944,
-160,
311,
530,
-9,
22,
-854,
-490,
1127,
-1237,
-322,
-629,
-834,
-558,
453,
-667,
1272,
-581,
1686,
173,
-76,
-1816,
-1174,
-673,
1782,
-1116,
747,
443,
-1074,
-1431,
-1085,
-247,
-1638,
-1604,
-1597,
1890,
633,
-1545,
1436,
-1764,
808,
-1756,
-932,
-1420,
-1205,
903,
630,
1616,
-1146,
1352,
1255,
-738,
-405,
272,
-1320,
1265,
-516,
-1143,
957,
-495,
937,
-328,
981,
1599,
191,
-1052,
-209,
1355,
1426,
-1343,
-2154,
238,
900,
-1456,
-609,
170,
-1271,
1689,
-1084,
-346,
-1113,
1711,
-220,
-776,
-155,
1234,
-815,
1346,
-1239,
-366,
-1501,
-1634,
1134,
452,
44,
-673,
1171,
951,
-533,
324,
-1731,
366,
760,
-857,
1105,
210,
1201,
152,
-293,
627,
1497,
-492,
-364,
-1449,
-390,
127,
830,
1331,
-864,
-74,
-421,
-427,
342,
1635,
1590,
1003,
1075,
-1347,
221,
-1120,
-1549,
136,
-328,
-289,
-1151,
112,
-1248,
-540,
409,
-869,
-1409,
2193,
-1118,
-484,
-1146,
1651,
288,
-139,
-435,
369,
-440,
-1619,
-1370,
221,
52,
1351,
-1360,
-1089,
263,
406,
-717,
-1258,
-148,
924,
-1641,
-575,
-719,
-1185,
266,
1264,
-902,
722,
-171,
-862,
739,
689,
615,
763,
1209,
903,
1575,
552,
378,
1905,
414,
-855,
1523,
-382,
-1044,
328,
176,
856,
-944,
-1060,
-1140,
115,
-516,
1201,
1048,
422,
94,
-1394,
-1709,
1146,
771,
-249,
1571,
1276,
-279,
-126,
-319,
-902,
-1094,
2,
1622,
546,
276,
-1503,
-1506,
-1352,
-736,
935,
996,
-573,
-743,
-1310,
272,
758,
-1526,
835,
-1712,
-742,
998,
-1079,
878,
1480,
-1274,
1891,
902,
-744,
-193,
-1090,
2116,
1357,
894,
322,
-1892,
-302,
-1049,
-598,
-144,
130,
187,
-1205,
1202,
-817,
1608,
500,
567,
500,
2211,
-630,
-83,
-299,
-340,
661,
-1394,
1177,
1495,
225,
49,
1723,
1546,
581,
484,
-194,
798,
1371,
1049,
-1517,
914,
-465,
-1095,
-979,
473,
1334,
-646,
-1484,
-967,
1623,
-2911,
1396,
-1210,
949,
-613,
41,
-1077,
499,
-902,
1818,
-1562,
1211,
-1129,
-667,
1035,
-1536,
-489,
1217,
-20,
-1789,
-1246,
50,
159,
-459,
-442,
-462,
-1357,
454,
924,
-508,
-1672,
-535,
223,
945,
87,
1068,
-776,
1278,
-1392,
-1486,
912,
126,
1184,
249,
-1666,
-262,
399,
1307,
748,
582,
-1128,
720,
-230,
-1543,
-1418,
-575,
1337,
-586,
1571,
-382,
-1067,
-157,
171,
1703,
-1210,
-1135,
942,
1484,
-17,
900,
1578,
489,
-1126,
-1253,
193,
1159,
-670,
-1356,
-1457,
1532,
824,
304,
2775,
-488,
3445,
95,
2354,
3156,
-971,
-118,
-1804,
-4198,
-4293,
-1939,
1047,
-1502,
-1100,
3202,
2764,
179,
-2277,
-1153,
1864,
2471,
2655,
217,
1607,
1102,
-1401,
1741,
4579,
-676,
-891,
821,
-1110,
-1332,
1444,
238,
1955,
-1969,
1580,
-715,
3598,
2453,
-2938,
-1692,
-2455,
-753,
-801,
-2005,
-2103,
9,
1266,
-1030,
-12,
981,
2074,
-95,
2017,
3755,
2694,
1559,
724,
226,
-647,
2454,
1465,
1176,
31,
81,
1028,
-150,
280,
-1253,
-1135,
-21,
-259,
-1446,
-1473,
749,
1570,
-929,
-1307,
-1180,
-293,
-1663,
-1809,
2868,
66,
-1080,
-825,
1123,
1720,
-349,
-1645,
-443,
-1144,
-1176,
-260,
3171,
1407,
1607,
906,
-651,
92,
807,
-1382,
978,
-658,
-1506,
-3352,
-2284,
-1319,
235,
-3529,
-2898,
-898,
580,
-19,
-3183,
-3178,
702,
3736,
43,
-868,
-545,
1371,
-149,
-1657,
-1550,
1040,
60,
-940,
-873,
3040,
1615,
-776,
652,
1256,
453,
-595,
-495,
845,
295,
-35,
-179,
886,
-1204,
-1356,
1566,
628,
1893,
-874,
1596,
700,
908,
396,
1243,
1715,
-630,
-495,
3334,
2145,
-39,
-1925,
105,
1690,
-1997,
-644,
-2032,
1737,
2619,
-597,
-1262,
120,
1247,
1148,
-699,
-2422,
2231,
-1513,
-1564,
692,
614,
1425,
-2338,
-4625,
-766,
686,
1822,
-125,
1994,
3513,
3648,
670,
-2824,
-2814,
-230,
774,
147,
1393,
1036,
-36,
730,
-2137,
-1663,
-188,
1980,
-99,
2492,
2459,
1210,
2960,
-558,
1596,
-356,
-447,
16,
-1609,
-1235,
2151,
-704,
-2089,
-1847,
800,
28,
-1308,
1618,
1398,
437,
1566,
1049,
-424,
-1462,
293,
2429,
-867,
-4325,
-4017,
-608,
699,
-1125,
1450,
124,
532,
206,
-483,
620,
1756,
-539,
2009,
-88,
-607,
2281,
-2139,
679,
789,
-454,
1017,
-1384,
872,
2738,
1201,
1491,
338,
-523,
1051,
46,
-1340,
-112,
1709,
71,
1268,
-2629,
1228,
-339,
-1083,
-1657,
-1715,
-1652,
1118,
2651,
-2808,
1789,
289,
4016,
-2143,
-39,
738,
3059,
2488,
327,
4336,
869,
171,
-966,
-1466,
316,
-1832,
-689,
-1350,
-1476,
-1748,
1315,
-2453,
-2157,
2570,
-2144,
-287,
-2723,
1023,
4775,
2174,
-1892,
101,
-212,
3069,
658,
-619,
-1681,
4080,
910,
-2694,
-867,
249,
-109,
950,
334,
-333,
-1254,
468,
1001,
-165,
1129,
254,
408,
-236,
375,
1061,
701,
-519,
-705,
-1080,
739,
452,
-447,
975,
304,
-3668,
1838,
-529,
1813,
-68,
1229,
-118,
-850,
1599,
1300,
-1685,
351,
-1432,
2642,
2775,
1416,
-1226,
-1332,
1461,
1155,
937,
-334,
2470,
2174,
61,
-1413,
-372,
994,
-552,
1509,
-1063,
881,
-375,
2977,
-2959,
-109,
-312,
1327,
-666,
-595,
-428,
1708,
1847,
1812,
-1845,
942,
2091,
3229,
1873,
654,
-788,
-602,
1506,
-1057,
1987,
-805,
-805,
1267,
3032,
1558,
455,
1576,
-37,
-2976,
-6446,
-116,
570,
-1020,
-713,
-4422,
-4068,
462,
291,
-665,
760,
3502,
-1812,
-1523,
-31,
-731,
-965,
1249,
3639,
-1853,
-3446,
-2612,
-276,
4060,
1140,
-159,
-2938,
464,
-3274,
1536,
5336,
1324,
-826,
1311,
2267,
1183,
2718,
-1578,
1041,
1592,
1517,
91,
3807,
1280,
-59,
881,
1142,
1118,
-2188,
913,
-215,
588,
-698,
-235,
1094,
-416,
-309,
1851,
-2926,
-13,
-212,
167,
-529,
-689,
-644,
-1051,
1020,
-593,
-1708,
49,
-221,
2015,
1641,
-2149,
922,
-548,
1367,
-1323,
-468,
-556,
-674,
913,
-1576,
-1698,
1866,
-926,
167,
-1685,
-80,
-513,
87,
922,
-2811,
4303,
603,
-101,
17,
-393,
5427,
3589,
-527,
-2473,
-575,
-1363,
4962,
4675,
-639,
-1283,
-2373,
3413,
3409,
1884,
-318,
1536,
349,
-1517,
-1976,
4514,
399,
-1457,
1438,
-371,
-1193,
-399,
2535,
-893,
-313,
782,
1023,
-1543,
650,
-1625,
-745,
312,
443,
-571,
-873,
1282,
61,
-1039,
-796,
753,
1234,
-894,
-36,
-377,
369,
1193,
-479,
883,
-699,
705,
101,
481,
847,
-416,
1412,
1062,
646,
-1306,
-240,
1768,
1085,
940,
-706,
-320,
-441,
-55,
1468,
-1937,
-1193,
803,
1856,
1421,
-3215,
-1784,
739,
-1214,
535,
-1101,
-2754,
930,
2190,
1596,
1542,
1826,
2123,
898,
-464,
-286,
-2809,
594,
-722,
-1651,
-544,
-323,
1370,
612,
-708,
-608,
2196,
4986,
-198,
1148,
-1042,
-1762,
1837,
-682,
-1863,
-1691,
334,
2312,
897,
-94,
1193,
446,
2298,
-1012,
-1154,
434,
-753,
639,
452,
-1636,
-256,
-1458,
-568,
1984,
-38,
-2390,
-715,
-815,
878,
92,
-1283,
-1977,
-1685,
-1930,
-2627,
-1771,
1436,
2228,
-335,
126,
-3226,
621,
245,
707,
138,
-2734,
2014,
58,
1753,
1365,
-565,
-1092,
-947,
2378,
393,
-1856,
-449,
-1263,
-204,
1404,
1299,
-1497,
-781,
1801,
1387,
475,
-1544,
-1808,
2912,
-621,
1131,
3621,
-2462,
2099,
749,
-1173,
-233,
1922,
1886,
-1743,
2025,
269,
-186,
-1936,
672,
-545,
-1082,
1255,
-168,
-2887,
-1617,
1319,
938,
-3686,
-1526,
946,
938,
-809,
-2326,
2815,
-3006,
-1827,
282,
889,
885,
-873,
-1383,
1481,
664,
-1418,
584,
476,
894,
-266,
42,
-1415,
447,
853,
-478,
-2058,
-370,
5,
-1869,
-1738,
725,
1396,
-2336,
443,
1624,
-1201,
711,
1185,
-1079,
-2236,
-732,
-554,
1402,
-135,
-3160,
-1007,
-3705,
1776,
-1261,
-2732,
-1517,
-1450,
-1652,
-898,
-993,
4337,
-292,
-756,
851,
-993,
-145,
-101,
126,
1553,
-607,
347,
-203,
2038,
-1676,
2194,
-224,
2923,
-868,
-1741,
-115,
-1152,
-2805,
-906,
3157,
-900,
-214,
163,
372,
-2352,
668,
-376,
109,
-462,
508,
1146,
-220,
528,
-753,
-1546,
1693,
-1239,
-1242,
1275,
-1771,
1158,
1111,
157,
-310,
1085,
55,
715,
174,
-1780,
-1081,
1243,
1311,
-759,
-1305,
-529,
1357,
518,
225,
-1085,
-86,
-73,
459,
-419,
958,
-1485,
-760,
-1569,
412,
1212,
-212,
-711,
-1592,
347,
-699,
68,
-1033,
-316,
-970,
433,
-131,
-1229,
-1679,
989,
1500,
-2,
-1138,
222,
-289,
-895,
-693,
1096,
1418,
1601,
234,
-221,
777,
162,
1076,
504,
1621,
425,
-1354,
1302,
993,
1060,
521,
-38,
1097,
-928,
-984,
-869,
1485,
-603,
-181,
554,
825,
1199,
453,
-1510,
-1194,
499,
-1019,
1491,
1463,
1524,
-705,
651,
-708,
880,
-1549,
658,
-795,
1463,
1593,
-725,
392,
-206,
-781,
-1541,
-1429,
-1502,
-892,
-5,
643,
1026,
445,
-320,
-1234,
115,
-1101,
96,
-580,
-1827,
1435,
1161,
1661,
-683,
804,
1135,
1079,
689,
438,
-1293,
-333,
432,
297,
651,
1463,
-905,
-1047,
799,
797,
1512,
-1236,
-154,
546,
-1053,
-926,
1388,
22,
-1586,
-83,
761,
-130,
467,
86,
959,
-1204,
394,
-1172,
-1525,
1086,
-666,
1071,
5,
-273,
-1427,
1067,
-892,
-586,
1032,
861,
443,
46,
-1525,
-1051,
-739,
-671,
1047,
1275,
934,
773,
526,
-121,
638,
-172,
589,
-1023,
-1394,
-1628,
1340,
-1074,
978,
-1633,
-1215,
-1411,
-514,
958,
-1530,
-678,
-919,
602,
-651,
700,
397,
-367,
258,
1167,
-1829,
-1637,
737,
-442,
727,
1150,
-472,
550,
-212,
-1055,
-1578,
-1046,
11,
403,
1092,
-1662,
1181,
-680,
1492,
1212,
33,
-801,
-1271,
803,
-77,
230,
939,
1565,
244,
474,
-217,
-1577,
1508,
-527,
608,
-466,
-160,
1033,
487,
-1117,
697,
71,
853,
-483,
1259,
793,
-630,
-155,
1037,
-1661,
1419,
327,
1269,
188,
345,
322,
-326,
-1140,
-1671,
178,
631,
1246,
822,
-124,
-640,
-1489,
-1401,
1555,
-1353,
-1532,
-287,
-1460,
1868,
380,
1326,
130,
-373,
1513,
-909,
517,
-780,
583,
-425,
-785,
-1364,
-1260,
217,
876,
-820,
644,
-756,
-26,
-860,
66,
-1583,
-874,
-1368,
-524,
1177,
1028,
326,
-1681,
-871,
876,
-401,
293,
111,
382,
-1701,
-377,
-251,
1509,
-174,
1415,
1535,
76,
-1484,
747,
76,
-1187,
-1010,
-1323,
1708,
1215,
731,
-647,
974,
1418,
-1615,
881,
-441,
264,
4,
960,
-568,
307,
1636,
-560,
-1410,
-317,
-278,
-776,
-121,
1653,
-419,
1041,
-139,
584,
754,
-293,
-256,
100,
-771,
1063,
-312,
1037,
1034,
-1474,
-349,
-1173,
948,
-1614,
-127,
-687,
335,
1337,
-1529,
331,
771,
1346,
-388,
23,
-941,
-1183,
446,
845,
-1012,
1016,
-227,
-1576,
251,
514,
-654,
1000,
1102,
-1543,
-201,
-826,
-495,
-222,
1545,
209,
-501,
1009,
692,
-879,
-2200,
745,
1093,
571,
316,
-1391,
288,
3088,
685,
-599,
-904,
1897,
1480,
117,
-302,
233,
-1169,
876,
-866,
1467,
971,
2320,
-2001,
-3168,
-1627,
-1525,
-447,
368,
-1679,
653,
851,
2889,
1236,
-1306,
838,
1414,
1133,
905,
149,
3258,
1083,
2369,
613,
-890,
548,
381,
-387,
-85,
1210,
1548,
2342,
-141,
1084,
-1613,
1331,
625,
-403,
1137,
493,
-314,
1547,
3221,
-260,
-1233,
-1022,
519,
-373,
1260,
1480,
1740,
520,
-1812,
220,
932,
692,
-916,
2106,
259,
-626,
316,
-577,
700,
-173,
-824,
339,
296,
-82,
595,
-756,
-418,
1059,
70,
-1,
-248,
-1025,
1037,
3159,
-756,
-2503,
-1845,
-218,
2066,
322,
-2043,
-2426,
-2118,
367,
-335,
-1709,
1088,
-1209,
1625,
301,
-596,
236,
-1334,
-433,
1334,
-148,
-362,
-315,
-1089,
-1917,
1336,
500,
853,
-613,
2290,
356,
1466,
2239,
-141,
-1347,
761,
270,
-460,
2689,
364,
2164,
1794,
364,
1319,
1686,
1045,
-1350,
-1722,
-724,
-141,
-119,
-1406,
441,
-303,
-822,
554,
515,
1984,
-423,
94,
327,
-46,
685,
-453,
2056,
1241,
2267,
-873,
230,
-1230,
173,
-1243,
284,
2241,
769,
-5,
2459,
375,
2715,
1655,
2243,
-498,
2045,
380,
2315,
-979,
-325,
-383,
530,
379,
-798,
1862,
-127,
-2170,
126,
1154,
-921,
-772,
-1584,
-1581,
-1113,
2796,
2432,
876,
-1698,
487,
423,
1072,
-2652,
987,
240,
-229,
-2287,
-276,
2310,
1395,
-3024,
-1159,
1148,
977,
-1396,
-1366,
1564,
1668,
199,
-262,
1071,
-1072,
-754,
591,
212,
-133,
390,
1911,
-980,
1117,
475,
1483,
1861,
239,
1188,
-92,
253,
-1376,
148,
-753,
-1072,
163,
-423,
296,
2685,
1603,
1531,
-821,
-881,
-1824,
2783,
288,
-1051,
-1543,
2164,
752,
433,
70,
-2663,
779,
1842,
-1305,
1062,
-1217,
468,
236,
1140,
1988,
-20,
-1920,
-1414,
2181,
-1494,
1134,
14,
-1839,
-620,
107,
-146,
-1574,
-1468,
503,
2862,
1125,
-1514,
1064,
-725,
1038,
-1440,
-1319,
1900,
-1428,
-509,
459,
1114,
601,
1880,
-1720,
50,
974,
-8,
366,
-957,
578,
1029,
-1692,
-3024,
-952,
1535,
3132,
-1422,
-1075,
-365,
1994,
3014,
1067,
-419,
862,
1144,
3085,
144,
1634,
-418,
285,
1974,
122,
-1167,
-63,
-406,
1302,
526,
232,
603,
759,
1962,
2988,
166,
-841,
808,
2000,
2846,
1053,
-2019,
-1337,
4979,
1344,
1340,
-245,
-464,
2697,
630,
768,
-1434,
-1082,
3052,
-766,
-502,
-2646,
-2625,
2846,
-220,
-565,
-2105,
-862,
1742,
2095,
-83,
200,
-1778,
-933,
1354,
2620,
1230,
-1217,
2814,
1539,
1464,
-1081,
1559,
-137,
-59,
-879,
-1823,
-800,
-3780,
-1986,
-488,
-223,
-423,
-1471,
1549,
383,
-1507,
349,
-1257,
-294,
1445,
-59,
-1278,
1257,
-948,
-1177,
382,
-967,
993,
-190,
-1452,
1152,
-1457,
101,
-620,
1332,
-1639,
-204,
455,
524,
-1136,
-435,
755,
-1992,
-382,
-1342,
318,
-989,
1379,
-1423,
-852,
-1055,
-1458,
830,
1115,
-197,
992,
-1280,
-476,
12,
-38,
1212,
-643,
-1319,
-291,
831,
-1297,
745,
-1548,
-738,
16,
1202,
-1357,
106,
-463,
1136,
1051,
1462,
175,
-311,
-134,
-1150,
-1677,
-1259,
574,
891,
-1287,
-1463,
1150,
745,
284,
-1451,
-1423,
874,
1522,
703,
1,
318,
224,
489,
-10,
-586,
516,
579,
-1394,
1454,
1305,
-822,
1123,
882,
-1592,
1083,
347,
-666,
1396,
485,
-628,
1220,
-453,
187,
-1547,
1479,
-900,
-1899,
958,
-999,
-1669,
952,
284,
-1235,
-1456,
485,
754,
-1215,
-782,
222,
-172,
85,
-559,
-588,
-558,
-841,
-771,
1209,
-804,
779,
1519,
1079,
-1015,
-1275,
-1074,
-510,
1110,
955,
1488,
290,
-774,
-891,
-168,
472,
-1608,
-554,
-117,
-784,
211,
-1174,
-1169,
555,
-858,
-1672,
579,
-850,
-1123,
-891,
770,
901,
1631,
-1157,
717,
1706,
1577,
-143,
1470,
-1583,
-1557,
1148,
713,
-1128,
462,
158,
-736,
1440,
657,
1412,
-908,
-1278,
-1225,
-222,
661,
148,
350,
-163,
206,
-117,
-326,
1148,
1604,
-227,
-1453,
-58,
-1040,
1555,
-745,
-1203,
829,
-705,
581,
98,
625,
116,
-349,
-463,
-1448,
409,
-498,
-161,
41,
19,
1064,
-529,
-1498,
1163,
-253,
-470,
-770,
-763,
-337,
-589,
1341,
982,
923,
-1382,
-285,
-622,
-1619,
999,
435,
-1404,
1016,
-1149,
-453,
-128,
-146,
386,
-1625,
514,
-956,
-906,
1152,
-180,
136,
1063,
-57,
558,
823,
-810,
828,
1145,
-370,
-1445,
-367,
21,
-367,
-626,
1525,
-375,
-426,
321,
-563,
252,
-172,
186,
-333,
1196,
-1540,
-1467,
1592,
526,
-1770,
762,
-931,
-535,
-747,
582,
-1146,
-1517,
-193,
363,
604,
-776,
-727,
1162,
-1016,
-700,
-1100,
-1351,
328,
1433,
-1747,
938,
1683,
-90,
-424,
704,
-1444,
-1012,
22,
541,
-404,
-275,
-74,
182,
-1415,
410,
426,
-145,
-992,
1125,
1190,
-1278,
1497,
-864,
1022,
232,
193,
-174,
-339,
195,
-512,
1436,
1448,
959,
420,
-60,
-1171,
-163,
-1627,
-28,
-1123,
1135,
-580,
927,
134,
242,
574,
-1276,
-254,
-1423,
1633,
-758,
-335,
1268,
1246,
-594,
-260,
-889,
68,
-1138,
1679,
-404,
327,
-1501,
392,
-727,
-167,
1242,
-967,
-470,
434,
884,
-1024,
-1137,
242,
-183,
1448,
495,
335,
1103,
-448,
-1341,
-712,
-41,
835,
-645,
336,
1566,
259,
256,
690,
1051,
803,
1265,
1561,
-1148,
537,
-1053,
1243,
997,
-1277,
109,
-829,
-847,
375,
-793,
1382,
-905;
