memory_initialization_radix=10;
memory_initialization_vector=
-1518,
877,
3019,
-2292,
-1372,
-3533,
1414,
2769,
1769,
1310,
-1557,
-2282,
-1657,
3258,
729,
1175,
-2854,
-1427,
390,
-2088,
1592,
-537,
-3401,
-2284,
-3985,
-1783,
-1809,
-2907,
2040,
-461,
978,
-37,
-353,
1923,
1012,
-1062,
519,
1123,
-3619,
-1097,
-1635,
2178,
602,
-2457,
-338,
-2854,
2171,
394,
1178,
-607,
-1778,
-5608,
-2317,
-3080,
-1775,
-613,
-3412,
-2538,
-3044,
-2259,
-4736,
-1768,
-2323,
-2523,
1169,
-3524,
-2835,
2177,
2560,
3971,
-1850,
-2571,
-1047,
-1984,
-1813,
-2346,
-731,
-1722,
-2634,
-2904,
-2384,
5552,
1932,
1440,
1650,
-3446,
5618,
-299,
1289,
1439,
-281,
4177,
2975,
-2300,
-95,
2309,
-999,
-1387,
-2148,
-5186,
-5856,
4795,
4162,
-3119,
-1694,
-6090,
1559,
3574,
-205,
2886,
-3550,
192,
4255,
3011,
819,
1249,
-203,
4157,
-692,
3354,
-250,
-214,
-993,
-939,
-2212,
-2826,
59,
134,
-147,
-896,
-2161,
1601,
1581,
-42,
-886,
-2904,
796,
-2421,
-197,
2574,
348,
-415,
1888,
-554,
820,
753,
-324,
-2711,
-168,
-915,
2419,
1363,
-222,
-28,
42,
-2044,
-4069,
995,
509,
1486,
3072,
9330,
7551,
3481,
278,
-3641,
-626,
-1103,
-3916,
-2534,
-2132,
-981,
4735,
1445,
209,
1912,
-276,
2717,
857,
1061,
2298,
-486,
3379,
-783,
-1431,
2021,
-2012,
-2981,
-5191,
-2429,
-2626,
-3433,
-2705,
-301,
-958,
952,
-1497,
-2321,
-945,
210,
566,
-2190,
5070,
4883,
-58,
-1913,
-663,
1123,
915,
-2934,
-1370,
-2973,
-5409,
790,
-563,
2800,
12833,
16536,
10828,
4580,
-5235,
-6404,
-4452,
-4671,
-2534,
16,
4295,
-2303,
-1772,
-6362,
823,
-1252,
-4649,
708,
1807,
2486,
-1167,
4744,
4316,
-1458,
-4168,
-5427,
-1822,
-2444,
490,
-2634,
-7952,
-5738,
519,
1753,
-1382,
-1197,
-1442,
-2233,
-263,
-3878,
-4658,
-4371,
-3565,
562,
4357,
10450,
4599,
3891,
-1517,
-599,
-4698,
-1271,
-265,
-1584,
1600,
-1356,
-3375,
-4161,
217,
214,
378,
1533,
-212,
-969,
290,
3375,
642,
-1216,
-1310,
1559,
-1214,
-196,
1545,
735,
2067,
3608,
-616,
-152,
475,
-2270,
-2795,
-1325,
124,
-1513,
-3728,
-3048,
-2939,
-163,
1164,
158,
-5769,
5779,
5139,
442,
-143,
6339,
6333,
-2121,
-1551,
6747,
4657,
-6541,
975,
1580,
-2919,
-4613,
2876,
670,
-5091,
-815,
973,
95,
3120,
-770,
-723,
779,
747,
-3913,
188,
-3836,
2694,
-1303,
-4344,
-553,
1245,
-1169,
-4345,
-3706,
-282,
-3250,
-1330,
-1688,
-1142,
-464,
-1682,
271,
208,
3313,
-3847,
-5523,
662,
-1116,
-5318,
4786,
603,
-4804,
-2636,
6038,
2072,
-6881,
-2637,
8178,
6024,
1250,
-3588,
3148,
-1024,
1142,
2558,
-3238,
-994,
-6026,
-5376,
-3289,
-6199,
-8267,
738,
-682,
-1743,
719,
1891,
5548,
1548,
-3346,
7294,
5172,
2836,
-8041,
-3288,
7295,
-1779,
-7556,
-5101,
-986,
-2340,
1024,
-6045,
-2533,
-2652,
-2670,
-5244,
1817,
3428,
-1027,
-1756,
4210,
1670,
3060,
4112,
5583,
755,
3429,
6153,
3645,
-2006,
1740,
898,
-1854,
-5342,
2442,
-1017,
-1719,
2283,
-2112,
2094,
-979,
1338,
2100,
-164,
-1501,
-263,
-1163,
2662,
-984,
-2577,
2168,
2568,
-1654,
-1315,
2190,
2509,
1011,
-389,
1552,
-3539,
1935,
4512,
-835,
-712,
4646,
4369,
2336,
-3822,
-3292,
4723,
-1681,
-3316,
256,
-109,
-2966,
-3767,
409,
-1700,
19,
-1609,
2664,
2894,
-3055,
-4060,
-1606,
-1939,
-1935,
-3333,
859,
-2359,
-1315,
128,
3606,
2773,
-1546,
-2779,
322,
-843,
-2849,
-1753,
454,
3196,
-2231,
-4468,
-3297,
-4288,
-1900,
-6911,
-4219,
4566,
-4853,
-5900,
4,
6021,
-4068,
-7504,
-2962,
5987,
4431,
94,
-40,
7656,
1306,
-904,
4650,
3981,
343,
698,
225,
-657,
1785,
-2656,
-656,
-1615,
-7016,
972,
8425,
3305,
-941,
-3552,
9416,
7894,
-595,
-6008,
6483,
6225,
1850,
-5989,
-4974,
1165,
-2342,
-6206,
-1892,
-6055,
-3412,
-4127,
-5826,
-2226,
-5267,
-2440,
-3425,
238,
3866,
-1364,
-2018,
-1236,
834,
-1840,
-2190,
-762,
-4526,
3510,
2786,
606,
-1576,
6484,
-1258,
-364,
1708,
-1502,
1342,
631,
-2633,
-4146,
750,
1236,
-1340,
-1658,
-129,
-1432,
-1204,
-132,
-868,
-1412,
-1373,
-730,
655,
-364,
1200,
1979,
2868,
-2830,
1118,
-2780,
1789,
271,
-265,
-2277,
1623;
