memory_initialization_radix=10;
memory_initialization_vector=
-709,
1758,
1517,
-10523,
-16182,
-463,
-6258,
-4140,
-12835,
-7272,
-7259,
657,
-6588,
5449,
9737,
2387,
9482,
7780,
16758,
18628,
1762,
11621,
10928,
13462,
-3351,
4827,
6740,
4079,
-2960,
-12440,
-93,
16807,
4117,
-17716,
-19432,
1455,
24151,
13375,
5081,
-11256,
-5449,
11012,
27883,
15389,
10003,
-9565,
-8684,
10034,
14903,
4272;
