memory_initialization_radix=10;
memory_initialization_vector=
-2088,
-3848,
-438,
3926,
4367,
-2112,
-2364,
56,
2147,
2986,
-3145,
-3577,
-182,
1388,
939,
506,
1214,
1910,
2122,
-2054,
-548,
1888,
3308,
87,
-4474,
-2270,
-3084,
-1367,
17,
2891,
-1962,
-772,
2651,
1527,
-1136,
-3051,
1021,
4625,
-1934,
-1855,
-1605,
717,
-572,
-4463,
-3561,
-473,
1311,
1123,
462,
-368,
-2549,
-2246,
1424,
-1084,
-1376,
-2363,
604,
837,
-980,
-1293,
-1914,
-2363,
-1153,
877,
140,
-1593,
1286,
-1298,
-507,
864,
-473,
940,
-1639,
193,
-20,
-717,
-522,
-1689,
-290,
-282,
-1379,
-1331,
228,
-1321,
-622,
317,
1944,
821,
-1326,
127,
-103,
280,
2030,
679,
-902,
-608,
1278,
-779,
-275,
563,
-2807,
-5632,
-1486,
1881,
3072,
576,
837,
3125,
3494,
4279,
1607,
4486,
1182,
336,
1262,
472,
-591,
1180,
-578,
-586,
2523,
4144,
-2637,
-6469,
-2131,
-856,
280,
1318,
-426,
240,
-2159,
-2177,
769,
1556,
-608,
-4488,
-777,
2416,
504,
-291,
-3175,
-1486,
-677,
-1404,
-43,
-2551,
-1328,
-964,
1524,
-1273,
-628,
-1112,
1135,
113,
-1692,
-1079,
254,
1093,
246,
-2101,
-149,
-173,
213,
476,
302,
-1156,
1199,
469,
-1318,
436,
1039,
309,
-921,
1780,
1495,
-1883,
-636,
-621,
2778,
-341,
-1085,
-3103,
333,
-1412,
-1524,
-787,
-1372,
686,
1121,
-245,
800,
-1796,
-136,
-1028,
-2568,
-298,
-226,
3279,
2110,
-1184,
1854,
597,
657,
-4445,
97,
758,
-1037,
-770,
-2502,
-4969,
-580,
-1162,
-351,
-76,
250,
229,
-1918,
-340,
2320,
1401,
-683,
-2927,
1844,
3223,
30,
570,
-234,
-1001,
1339,
972,
899,
177,
-895,
-8,
-484,
1206,
103,
-50,
-1471,
-2169,
830,
-164,
-692,
1058,
401,
-1130,
280,
-1111,
1170,
1065,
-171,
1649,
1079,
201,
-1661,
232,
2480,
1433,
-257,
-615,
1466,
-342,
952,
-843,
-736,
506,
1689,
2062,
-1703,
2057,
140,
1146,
-1543,
396,
1246,
-537,
-608,
1277,
-755,
-366,
423,
1724,
-1530,
-732,
-3374,
62,
-401,
2372,
1850,
968,
-3622,
2051,
1460,
125,
-1312,
-629,
-1915,
617,
-79,
-2434,
-1065,
1701,
694,
-1768,
-662,
2042,
1646,
-2344,
-1754,
-834,
745,
-485,
-1872,
-1079,
-150,
-1450,
468,
-88,
1425,
862,
569,
-1407,
-2546,
-1619,
-717,
-857,
-1662,
-1348,
-938,
204,
2444,
2781,
-1502,
-2072,
194,
1583,
3446,
3217,
1607,
2115,
1208,
1514,
850,
-1875,
750,
-930,
1758,
-1447,
-2661,
-1950,
-1464,
1149,
-532,
-3351,
-90,
-249,
3077,
-747,
-789,
3063,
234,
1225,
771,
-1573,
2680,
1363,
809,
-1070,
-2474,
-220,
-341,
-1517,
-3251,
-915,
957,
-863,
-869,
1837,
2806,
263,
-2100,
1489,
586,
-519,
-4715,
294,
-3141,
-2356,
-53,
-1139,
-350,
-3085,
2767,
1079,
2139,
1687,
-553,
-2170,
-108,
-1731,
-927,
-1603,
-3562,
-570,
4013,
-2055,
-568,
-3393,
-1766,
1103,
548,
2349,
91,
-1367,
-1421,
1642,
2297,
1074,
734,
-1626,
3246,
741,
2763,
480,
2967,
309,
-4212,
-3174,
-2688,
1370,
-2026,
2225,
748,
756,
-2170,
171,
2985,
1825,
2040,
464,
5717,
1026,
-467,
4071,
2276,
-229,
-379,
-1366,
2490,
93,
-1618,
-382,
901,
1195,
-201,
-1676,
-158,
-237,
2403,
-273,
-1598,
-887,
81,
-4,
1633,
211,
-727,
599,
-334,
205,
-361,
-53,
-2258,
1404,
-1139,
971,
-1120,
1395,
-500,
492,
1191,
2220,
1928,
158,
518,
-314,
160,
-594,
-608,
-272,
-418,
-1847,
2104,
1136,
-1546,
-881,
111,
674,
1573,
1213,
1042,
749,
-1573,
-3784,
134,
4507,
-1995,
-1660,
-1405,
1000,
0,
1281,
-225,
-565,
-2369,
2468,
-781,
2458,
-145,
-771,
739,
-383,
-677,
4024,
1829,
-1957,
-1265,
-307,
224,
1042,
-611,
-1034,
-2346,
-1398,
1564,
-237,
-4061,
-769,
1266,
-140,
1499,
1486,
318,
-650,
-1389,
284,
1940,
-1004,
1043,
-817,
-416,
817,
-642,
-661,
1017,
517,
1352,
2574,
-756,
-1116,
1749,
1502,
-1007,
23,
-1395,
406,
1858,
333,
-1379,
-278,
-1676,
-511,
1279,
1203,
-763,
-1284,
-1990,
-1033,
1406,
1605,
154,
-1717,
-2793,
2155,
2034,
1623,
1256,
-1866,
-2588,
-1248,
2282,
1220,
518,
468,
2225,
-693,
1137,
-96,
793,
1183,
807,
2101,
2248,
2016,
730,
1260,
-135,
-179,
-2232,
-1101,
-2044,
3024,
-798,
-1076,
-3557,
244,
-1255,
-1403,
-3740,
-941,
341,
-967,
619,
-536,
333,
1499,
-1207,
832,
104,
-1412,
640,
-1050,
3457,
582,
290,
-1100,
-85,
872,
-2643,
-1614,
1623,
1895,
-956,
-886,
964,
1452,
1069,
-123,
194,
2331,
395,
2285,
4255,
2791,
255,
-643,
632,
425,
997,
209,
438,
2093,
4134,
-2024,
-106,
-1477,
-5022,
1185,
796,
-1235,
-582,
629,
124,
-1142,
1357,
-876,
-2144,
-1402,
877,
1294,
-1931,
-634,
2954,
1323,
383,
1137,
-612,
-3443,
-1907,
178,
948,
610,
2066,
1981,
1505,
-884,
-1122,
-595,
-2701,
769,
126,
2888,
360,
1576,
472,
739,
2842,
-41,
-2036,
-1084,
-1953,
1529,
-660,
-312,
-1930,
-2339,
2123,
2740,
-636,
-3140,
-3083,
2332,
344,
-1227,
-731,
3202,
2623,
1454,
726,
-101,
1153,
-1412,
-519,
-311,
-2373,
1727,
-762,
-1859,
-206,
-438,
881,
-2989,
2470,
300,
268,
-548,
-957,
933,
1017,
-548,
-230,
2772,
1846,
1326,
-502,
-340,
1855,
1744,
-2949,
-1133,
-683,
-688,
633,
-2392,
-337,
-2508,
-1149,
2052,
-1296,
-2332,
-3895,
-333,
1287,
-673,
-829,
-1097,
-1778,
611,
3103,
4046,
583,
1669,
-1500,
625,
1600,
295,
1757,
-1268,
-3561,
-4008,
-289,
-972,
-2129,
-1560,
-1972,
-809,
-3339,
1345,
-73,
-1477,
-1283,
-53,
-981,
1312,
-348,
-848,
-1709,
3011,
1389,
375,
-2061,
1816,
1835,
1952,
-1590,
-1080,
-197,
2724,
2213,
-1125,
-1837,
-5663,
-3167,
-3346,
-4771,
-1753,
536,
4144,
5432,
1644,
586,
-2147,
595,
3592,
377,
1262,
1200,
1183,
1265,
-722,
-3224,
-1822,
-4184,
-3214,
-3252,
-1694,
-1828,
890,
970,
-4040,
-232,
2025,
981,
425,
-68,
-296,
702,
-68,
2796,
-1672,
609,
-33,
-845,
-704,
-291,
-202,
-107,
998,
-940,
-1709,
790,
-195,
-12,
948,
-775,
1517,
-148,
1426,
182,
-1807,
-142,
1626,
-900,
-1132,
137,
-148,
751,
1384,
902,
967,
-644,
-3005,
-2456,
1227,
1505,
1377,
-1360,
766,
-1660,
1104,
2057,
1382,
153,
1020,
-412,
-584,
-957,
-439,
634,
-1778,
2090,
-2863,
481,
-2064,
-587,
-1705,
-3657,
-5995,
-3397,
-1048,
-4154,
292,
179,
-1164,
-658,
-1640,
-1294,
3525,
1483,
1325,
-1998,
45,
2586,
860,
-224,
-251,
1291,
1292,
-564,
-852,
206,
1028,
-1895,
-477,
891,
709,
-2692,
-1114,
-1209,
-468,
-714,
-1897,
851,
-356,
-328,
1931,
2187,
-754,
170,
1296,
-484,
-576,
-1314,
-795,
-752,
309,
-1923,
-402,
1926,
1057,
-2815,
1089,
605,
235,
-738,
-462,
1245,
139,
1530,
134,
-1081,
-895,
736,
-1959,
-501,
-193,
3218,
2234,
1432,
702,
-1722,
9,
-1866,
243,
-892,
-2650,
-3606,
-5322,
-2011,
-982,
667,
-469,
-2870,
-540,
130,
-497,
-1519,
-4206,
-159,
-3538,
-832,
170,
-1017,
-1664,
-2412,
1696,
127,
3852,
2488,
-875,
-181,
4093,
6866,
-3008,
-3331,
284,
594,
892,
-2390,
-758,
533,
754,
-1119,
2252,
2217,
-1995,
69,
-1468,
381,
1419,
289,
-1163,
3473,
2670,
2346,
-581,
-1865,
-1641,
-1350,
-111,
-1739,
-1677,
-727,
-2780,
145,
-964,
-1426,
1492,
-1382,
-655,
-1550,
-4188,
-777,
561,
-337,
-3078,
711,
932,
-198,
568,
610,
4398,
2800,
1832,
-1,
282,
-1015,
2827,
2946,
685,
102,
-1434,
257,
2553,
-172,
309,
-1573,
-1322,
-671,
-1593,
-2142,
-2253,
-4483,
-2229,
-3286,
1824,
1345,
-2378,
-3048,
-823,
-992,
-2781,
-1033,
751,
-1493,
1904,
1370,
-2585,
-2697,
-735,
1249,
-1247,
257,
435,
-87,
-695,
-736,
808,
596,
-3,
1264,
5482,
1783,
1871,
-67,
183,
-2450,
-3645,
-3186,
-2844,
117,
-824,
2212,
-879,
-1245,
-18,
-5009,
811,
10,
-953,
-244,
-2793,
1772,
-1701,
735,
95,
2478,
5337,
-2434,
431,
744,
-385,
-3366,
-2557,
-1765,
134,
-2774,
1016,
-1829,
-690,
-2026,
-1927,
882,
65,
-1619,
-3165,
-1352,
2260,
-3658,
-1959,
2463,
1746,
2626,
-44,
-1273,
1141,
-1008,
-1786,
-2501,
-1143,
-2584,
-1117,
-1893,
-158,
-2534,
-1668,
534,
553,
-285,
878,
-2696,
-2868,
659,
2708,
-2059,
-2206,
1965,
2923,
-4549,
-1723,
-612,
715,
191,
-2649,
-297,
-1019,
96,
788,
29,
-1060,
-820,
-2179,
-3400,
-5755,
-1356,
2303,
3081,
1819,
1629,
3689,
500,
-258,
26,
-890,
3975,
-559,
917,
-1882,
-1835,
2288,
1128,
-304,
-2416,
-3236,
1988,
-1183,
3522,
2204,
-2949,
2086,
-1131,
2471,
2810,
-2089,
80,
-1763,
-503,
-1840,
-4767,
-1525,
2424,
757,
2024,
-363,
1199,
-754,
-477,
1811,
-2322,
134,
585,
1798,
599,
-1354,
1193,
-3353,
1274,
450,
1698,
-217,
-608,
524,
566,
920,
761,
57,
801,
-385,
-818,
359,
-513,
-1328,
1066,
1197,
-359,
1395,
16,
-2153,
224,
291,
-449,
1217,
-2232,
-1197,
-689,
-1126,
-460,
126,
1167,
-1290,
-719,
593,
2789,
-649,
1226,
-2788,
-3406,
2262,
1578,
423,
-3301,
-4496,
-3097,
-2040,
1173,
-1177,
1476,
-257,
-2493,
1249,
-2183,
-357,
-2082,
1124,
1816,
-1101,
3010,
1024,
-545,
550,
1607,
1109,
-2277,
-2386,
-2160,
258,
144,
-280,
-1432,
272,
-1315,
-298,
883,
-333,
2261,
-307,
-809,
-931,
340,
456,
-886,
113,
434,
460,
-1578,
1239,
624,
1152,
-1744,
-1805,
-1915,
306,
-21,
-554,
-328,
-511,
-1308,
-1596,
-467,
-962,
-236,
-1106,
-18,
-543,
1204,
-1086,
2052,
-1401,
-1294,
-1403,
-1084,
-2784,
-3340,
-2585,
-646,
116,
-1621,
-1776,
1057,
1366,
74,
3,
2003,
2760,
2574,
1206,
-3698,
-820,
902,
-160,
1402,
1043,
1537,
-3755,
1517,
-147,
-1782,
529,
-686,
3301,
3480,
801,
1515,
3513,
-1597,
1806,
-938,
2222,
-65,
-1299,
958,
-981,
464,
-623,
-1600,
-121,
1130,
-1493,
-389,
998,
-491,
16,
-488,
-2133,
596,
560,
2241,
-1080,
-2839,
-916,
1061,
171,
-2096,
893,
2370,
1831,
503,
2136,
-893,
1947,
-1420,
-1223,
-2108,
-1161,
1228,
-1254,
930,
-136,
2100,
341,
2674,
2045,
-2698,
1962,
522,
-210,
4567,
-2050,
2763,
1007,
2707,
1155,
-1065,
-598,
-843,
-136,
1494,
261,
861,
3398,
337,
3433,
-1164,
-2458,
-291,
4492,
4349,
55,
-1828,
765,
-680,
210,
-539,
693,
3145,
891,
505,
-643,
-2126,
971,
-2753,
-2350,
-121,
-1514,
-695,
-3746,
-1284,
3753,
2877,
-1217,
-193,
-838,
3722,
5309,
-1735,
1531,
-4143,
-1758,
2308,
-2113,
1392,
-460,
-364,
-101,
-1585,
807,
-1825,
202,
1008,
99,
-987,
-736,
-2534,
449,
3478,
2050,
-1962,
-1922,
-427,
1918,
1136,
-59,
-2609,
-3490,
2490,
1807,
2470,
-2086,
-1140,
-128,
-1285,
-2181,
355,
1138,
-182,
-160,
-3102,
-212,
3771,
1257,
295,
-381,
-2702,
3240,
-146,
2079,
-359,
-1293,
36,
676,
861,
457,
-2974,
-3036,
1129,
-1324,
1512,
-781,
475,
287,
-2086,
203,
-801,
-2131,
-75,
1200,
184,
-1346,
-44,
346,
3119,
2453,
169,
-97,
3664,
867,
1594,
-643,
44,
1613,
-1825,
-407,
556,
-488,
954,
-1829,
-2039,
-884,
-2432,
479,
1032,
-927,
-1956,
-2516,
700,
145,
108,
-1416,
-515,
-2456,
337,
1163,
-761,
1328,
-435,
64,
78,
1265,
1211,
-1091,
-46,
1383,
-1651,
915,
391,
-604,
-1242,
-663,
-1805,
54,
572,
-1637,
-873,
-1203,
-1898,
-142,
981,
-910,
1041,
-475,
-1444,
10,
1251,
146,
-906,
138,
-476,
-1070,
1262,
797,
-102,
248,
1551,
-1015,
-223,
33,
-2107,
582,
-368,
-1331,
922,
853,
335,
159,
1529,
-99,
-110,
1745,
362,
-1361,
-1659,
-1647,
-614,
-871,
557,
1382,
-735,
-802,
397,
-1592,
-782,
1327,
849,
981,
1256,
1357,
1465,
77,
-920,
-194,
218,
317,
1198,
-1595,
-848,
-1976,
414,
1316,
-585,
-1711,
-695,
67,
370,
-973,
-217,
-1668,
1202,
573,
-226,
-904,
-1409,
-485,
-3,
1084,
-750,
1018,
-983,
-690,
-399,
324,
-163,
-1641,
-1792,
476,
-552,
-1387,
-2025,
-1135,
-1171,
456,
-394,
-1540,
-1355,
-489,
1144,
1002,
1062,
594,
-1331,
418,
138,
-608,
-426,
640,
-219,
-364,
1156,
772,
-1344,
-1047,
-225,
1146,
253,
646,
-397,
-923,
722,
27,
-1005,
637,
-524,
753,
1675,
634,
909,
934,
607,
558,
-995,
-314,
-1076,
1282,
-1926,
1543,
1786,
-553,
-2105,
-554,
878,
-808,
-1044,
-196,
-1124,
-1712,
278,
571,
1605,
489,
1432,
-1345,
-1078,
-1198,
-1450,
209,
-46,
-173,
-1626,
861,
-1731,
-1748,
-685,
-1580,
-916,
1055,
592,
-168,
-183,
237,
557,
-1502,
1386,
-503,
-870,
-805,
-1276,
-1559,
-340,
268,
-723,
-1126,
1238,
1230,
647,
-661,
-301,
-1544,
960,
576,
1336,
-429,
-794,
-1582,
151,
-194,
955,
1511,
-635,
967,
-581,
-1711,
1015,
1316,
345,
734,
-408,
409,
-1110,
-304,
910,
976,
-1489,
74,
-566,
-1086,
-1182,
144,
-1485,
1600,
-500,
-451,
-665,
1391,
-1469,
-241,
1304,
-1130,
-1658,
-550,
-390,
12,
196,
-1999,
-716,
-392,
568,
-333,
-578,
-2204,
-147,
-1667,
-1174,
-1068,
-2146,
-1474,
-527,
-1142,
-1302,
201,
1303,
-1186,
744,
1929,
88,
-1186,
971,
759,
198,
-2150,
424,
366,
863,
2020,
-1656,
1176,
-1355,
791,
-329,
1564,
56,
-643,
-1539,
165,
182,
1405,
-239,
-832,
1584,
1452,
-1072,
-840,
245,
791,
933,
1158,
1366,
-123,
208,
1700,
-251,
-417,
-881,
-487,
-728,
941,
1005,
-1020,
-50,
-1357,
1064,
409,
186,
-328,
-876,
473,
-71,
-1704,
1807,
-469,
-173,
-1143,
-1899,
2089,
952,
283,
1154,
489,
-311,
1670,
-1013,
-1631,
729,
630,
635,
1526,
-1672,
588,
-343,
701,
1306,
-1579,
-1869,
-1590,
952,
-2746,
-656,
-532,
-809,
21,
-2041,
-555,
-483,
-284,
849,
-981,
311,
-1744,
1510,
162,
-1442,
-948,
143,
-400,
-202,
1109,
895,
890,
-114,
-200,
363,
-1225,
-1415,
661,
-1559,
633,
315,
61,
1281,
-1563,
-457,
-194,
-1385,
-1465,
1031,
-853,
-1698,
-251,
25,
-146,
-1508,
892,
475,
1200,
-1010,
-597,
-1578,
-835,
-665,
1532,
-1199,
442,
-114,
170,
-587,
-130,
-317,
-1261,
-652,
-1084,
845,
1404,
808,
-1099,
-519,
152,
529,
-960,
-530,
357,
1224,
598,
-1512,
1276,
-1239,
849,
1202,
396,
-521,
-1036,
-13,
1552,
-338,
1129,
-907,
505,
-20,
-1469,
185,
-1570,
-224,
-341,
616,
158,
-927,
950,
-1613,
-130,
1588,
-1010,
-795,
-497,
-1438,
-1527,
1591,
134,
1631,
1099,
359,
-185,
-1472,
-1017,
-829,
-886,
335,
639,
-1411,
-70,
614,
-1423,
-334,
1397,
-1243,
-285,
1078,
977,
309,
-1379,
1037,
-282,
-1613,
-1179,
-12,
-620,
396,
-1648,
126,
848,
-283,
944,
-331,
-599,
832,
30,
-961,
99,
-680,
-1530,
-1642,
-249,
-1294,
1576,
1599,
-1455,
355,
-818,
759,
1317,
571,
-166,
-1444,
768,
-1112,
1534,
1536,
994,
645,
1103,
1286,
89,
20,
605,
603,
-868,
1444,
402,
-650,
1570,
-1543,
146,
-766,
-442,
-858,
203,
1207,
-977,
-613,
-485,
1360,
-220,
-60,
-1164,
-637,
-1195,
1137,
-1466,
713,
1413,
-935,
-1304,
-345,
-939,
-191,
-565,
1299,
-733,
410,
1068,
807,
-122,
648,
193,
705,
233,
-1161,
1090,
-68,
-1603,
-1026,
-785,
-1703,
1232,
1422,
-1266,
-309,
1040,
188,
1111,
-361,
1310,
-193,
-1385,
-310,
-933,
-1501,
-1390,
-1418,
1134,
562,
-1403,
673,
-878,
840,
-938,
-885,
1440,
-1458,
1488,
-631,
883,
1105,
-640,
219,
1562,
-1589,
-1714,
861,
1277,
-1235,
488,
-576,
-569,
-415,
1356,
-763,
-1481,
-811,
-1596,
1351,
778,
805,
800,
899,
-348,
874,
682,
-1404,
-1426,
9,
-46,
1253,
-582,
-1190,
380,
-1379,
1538,
649,
-142,
1004,
-1352,
-5,
-1665,
82,
876,
-384,
-169,
-43,
190,
-1045,
-937,
593,
619,
26,
769,
1184,
-1139,
-941,
-306,
31,
364,
-199,
979,
-751,
289,
-1001,
-1231,
1426,
112,
-876,
-1424,
-636,
-1065,
-1678,
614,
764,
614,
-631,
622,
-1602,
-1349,
245,
-537,
-980,
-1141,
1346,
-1123,
-572,
978,
-1170,
1279,
298,
1630,
595,
442,
1044,
-1537,
-971,
1141,
54,
-1890,
-1462,
752,
825,
-311,
1203,
-412,
-722,
-148,
384,
-759,
1105,
760,
306,
-188,
-1334,
183,
-684,
72,
-1016,
456,
-543,
1066,
-1603,
-137,
-1570,
906,
-630,
-541,
60,
581,
-1381,
1349,
-320,
892,
-211,
1431,
-1126,
115,
-1274,
998,
-698,
837,
-100,
-1412,
572,
1394,
-1254,
-643,
-75,
1108,
1361,
246,
179,
-843,
179,
-266,
1263,
1014,
1311,
873,
830,
-336,
1308,
-958,
-578,
-2186,
731,
-1074,
902,
200,
-3343,
-1368,
-889,
-798,
-596,
594,
-1492,
-301,
-976,
1701,
560,
-174,
-328,
-206,
523,
2353,
2182,
-1489,
507,
965,
982,
-850,
595,
-1242,
1815,
90,
-1296,
-2164,
-1712,
355,
1006,
-1404,
-1696,
-876,
-426,
1943,
95,
-1164,
-827,
-280,
-1068,
-293,
-637,
728,
-725,
-109,
-188,
483,
-1609,
-499,
-1591,
1143,
-1738,
-1421,
-1038,
651,
-651,
-2204,
-969,
350,
-1830,
-1457,
100,
-2108,
464,
-443,
-1371,
-475,
519,
-434,
1866,
-1594,
1250,
-533,
-311,
735,
-1645,
706,
-953,
-797,
-1176,
89,
1419,
661,
1061,
-1246,
511,
199,
769,
1089,
1197,
-1279,
-734,
-906,
-1248,
525,
573,
-1939,
-964,
946,
298,
117,
1351,
-632,
-648,
335,
1380,
-834,
66,
547,
2097,
-153,
-1967,
1139,
1353,
1929,
711,
-693,
560,
339,
-472,
398,
725,
-1342,
236,
-1287,
-1078,
-668,
-43,
-801,
-759,
-333,
272,
-2506,
765,
-847,
234,
-687,
52,
-79,
1050,
691,
-148,
-1059,
-1576,
-535,
48,
735,
-990,
-750,
1224,
1059,
-420,
-477,
1002,
-616,
-597,
-775,
-1506,
1390,
-121,
1750,
333,
-489,
-1163,
-328,
-4,
-152,
-1791,
-1959,
960,
470,
1370,
446,
806,
1165,
421,
-143,
-681,
15,
-786,
328,
-1691,
-1152,
188,
416,
-1385,
-1402,
-92,
966,
1058,
173,
-1016,
1332,
422,
441,
286,
1307,
-186,
-781,
1578,
-1728,
342,
-658,
1598,
659,
904,
-578,
-1535,
791,
-638,
-1408,
-654,
-1409,
955,
-1443,
1104,
549,
107,
-1023,
-635,
644,
-124,
180,
-75,
790,
1064,
61,
386,
994,
527,
1151,
-995,
-1521,
614,
-392,
-835,
376,
-1398,
-1232,
238,
-609,
-808,
-832,
1182,
-887,
-274,
-1304,
180,
341,
-1783,
-436,
459,
286,
-325,
41,
-1795,
1296,
-1248,
-852,
963,
-559,
-1343,
-1180,
-1379,
-1082,
580,
-1147,
1441,
2222,
-8,
-1382,
-1240,
141,
-562,
-1169,
604,
-1734,
-1496,
-1853,
-1484,
-688,
-111,
-2452,
-1505,
-1184,
-1636,
-1341,
-1095,
301,
-1504,
-734,
-295,
1991,
-258,
1243,
-764,
2236,
1972,
-520,
1633,
246,
2116,
2085,
550,
-940,
141,
2726,
1748,
505,
-478,
-903,
30,
-544,
-141,
442,
-954,
1467,
-1947,
464,
-507,
-99,
-544,
-1507,
390,
-1801,
439,
863,
1194,
-1618,
-1362,
998,
-1194,
243,
443,
-353,
-124,
587,
-131,
-80,
1385,
-521,
449,
2347,
1421,
1271,
-1048,
2165,
628,
417,
6,
232,
1082,
2206,
-1023,
-82,
-1418,
-1100,
-209,
-1478,
-800,
-926,
205,
1322,
-58,
-727,
-1414,
-446,
-1023,
1191,
-791,
-122,
-1791,
1293,
620,
607,
-1386,
-1107,
-1969,
1067,
240,
-1707,
68,
863,
549,
-2118,
326,
815,
-89,
495,
-1214,
-1455,
-1365,
614,
543,
3057,
2286,
2251,
-173,
-892,
445,
5738,
557,
1740,
175,
-1738,
-264,
1118,
1431,
-2127,
-1730,
-5450,
1153,
2210,
1050,
3622,
-997,
-185,
70,
138,
-1889,
-1083,
-1865,
708,
-2615,
-606,
-2830,
3028,
-676,
2651,
5690,
-635,
6209,
1737,
3193,
3083,
2529,
1717,
413,
-1174,
-2589,
2011,
-1377,
1857,
-345,
-1614,
1017,
523,
-865,
-815,
1984,
-438,
838,
-176,
-1404,
-1640,
-873,
1737,
-2590,
-1003,
264,
1264,
2295,
3227,
197,
980,
361,
901,
2608,
740,
-460,
1274,
-43,
-1036,
-1802,
2173,
-1493,
1487,
908,
-196,
-2543,
-3197,
371,
-1363,
1339,
1543,
-438,
-1347,
1404,
-1851,
-1087,
-1206,
-778,
451,
-5534,
-3565,
-222,
-196,
1490,
-3416,
-2628,
-751,
2042,
581,
3679,
7176,
176,
-532,
-2427,
2837,
4878,
-970,
2187,
-219,
-5908,
-5779,
194,
1469,
-524,
-1395,
-618,
659,
664,
-850,
2792,
1215,
736,
828,
2637,
-1466,
-590,
-1516,
4497,
1220,
1797,
-372,
-960,
754,
2148,
3849,
2407,
967,
270,
1009,
-344,
429,
2477,
114,
1511,
-332,
1736,
1931,
3018,
-130,
257,
-645,
-1891,
1242,
214,
-710,
-142,
-13,
-658,
-2056,
-123,
-1070,
1356,
-229,
1859,
1752,
1765,
-32,
2931,
1897,
932,
2715,
4282,
943,
2545,
1227,
-732,
-1238,
723,
1375,
-1822,
-181,
-449,
844,
1069,
2106,
-220,
-928,
260,
-3122,
-2174,
1405,
911,
1118,
1872,
-2863,
-2505,
1721,
-1949,
-683,
313,
-3981,
-954,
-160,
3286,
373,
-1978,
-545,
101,
1417,
-945,
5977,
3610,
-835,
-327,
2001,
18,
2182,
280,
-333,
3617,
22,
956,
1076,
-1387,
3021,
3012,
1820,
478,
-664,
1165,
-3889,
-5269,
-2410,
116,
-1067,
2224,
123,
892,
1153,
402,
2568,
-1234,
-392,
-2345,
-801,
-410,
-2189,
489,
58,
3578,
1533,
-1884,
-160,
-2040,
563,
-1007,
2188,
-721,
-1802,
-1506,
-1276,
3194,
-2205,
88,
1079,
-716,
-519,
-23,
-3393,
-2297,
2412,
-1225,
-549,
743,
1598,
-3360,
-307,
2481,
40,
-1422,
-2203,
182,
-1808,
-622,
2740,
2381,
1482,
2294,
2283,
1512,
1627,
1198,
-610,
-578,
670,
395,
653,
-1114,
2158,
-3460,
-3839,
-196,
-1668,
-1204,
256,
244,
-315,
-2686,
-1890,
974,
1458,
2920,
1342,
1495,
1105,
663,
-971,
-42,
41,
-670,
-4176,
-828,
-2673,
252,
2527,
-664,
-2801,
-4365,
218,
29,
1930,
-735,
-642,
-2051,
-4889,
2024,
193,
-543,
1106,
1984,
1437,
226,
-533,
-16,
1839,
-3974,
-1701,
569,
2654,
713,
-3062,
839,
-3637,
1651,
-3257,
501,
863,
-1691,
-1986,
545,
-161,
548,
-56,
-951,
554,
3634,
3035,
-1015,
517,
-2865,
291,
1184,
-919,
-1145,
1090,
-3192,
-7132,
-1428,
370,
1765,
-1929,
-3613,
-321,
1828,
2482,
3847,
3268,
2220,
1535,
-1748,
-3610,
-1982,
2405,
-46,
-1179,
-2215,
-2994,
-674,
-1099,
1840,
1937,
3714,
46,
-352,
-568,
-1747,
1676,
-3182,
-2419,
-2106,
-429,
-1734,
685,
1119,
-493,
281,
-3704,
2181,
3690,
3,
2172,
1054,
-857,
-2752,
-1052,
2590,
2349,
-1216,
-197,
-2496,
871,
-1785,
628,
-2261,
-1866,
-1447,
235,
-974,
-3136,
-815,
640,
-386,
1843,
-697,
1662,
17,
1641,
2739,
519,
1003,
-674,
1202,
-1112,
-455,
631,
1148,
1298,
-408,
1062,
593,
-552,
-1160,
-1021,
-40,
725,
167,
-697,
1808,
-1554,
171,
191,
579,
1400,
-1638,
-1268,
2176,
343,
-743,
-444,
1192,
-704,
1378,
543,
-448,
626,
1105,
1150,
-1459,
3195,
-309,
-1914,
831,
-84,
1471,
1677,
1848,
-1650,
-500,
450,
630,
-126,
709,
-37,
-1329,
2047,
-147,
539,
-466,
-2000,
-128,
1848,
-351,
1080,
-2922,
-1759,
1004,
1357,
1171,
2210,
529,
1409,
1464,
-1310,
1155,
643,
-465,
1772,
-741,
-990,
550,
831,
1034,
-924,
144,
-94,
-1464,
-121,
1965,
1505,
1253,
1700,
-892,
696,
217,
-777,
-178,
-201,
631,
-559,
-464,
-1058,
-2703,
705,
-760,
-1030,
1179,
-14,
315,
1013,
-505,
-1493,
766,
-883,
-1909,
-1746,
-3652,
-2118,
258,
1078,
736,
880,
-1010,
-1165,
942,
-381,
2564,
322,
-2533,
22,
204,
-552,
-2138,
-1932,
120,
776,
527,
334,
80,
171,
138,
3551,
-2020,
888,
1025,
-894,
-2053,
-739,
-1177,
1080,
-11,
-773,
-245,
-451,
-518,
1016,
-511,
2935,
1370,
1340,
-205,
-53,
1502,
488,
-718,
93,
1051,
-638,
-874,
1110,
1756,
223,
-1389,
235,
1352,
1570,
-2570,
-2171,
930,
1044,
1163,
1754,
-329,
-1508,
-1211,
1019,
-1297,
120,
-503,
769,
153,
-1173,
1427,
-1264,
-791,
229,
-180,
-1474,
2348,
1817,
-986,
697,
-219,
2264,
-502,
562,
2726,
129,
540,
-891,
154,
-673,
221,
1412,
-2095,
-2813,
405,
-1863,
-368,
-170,
1014,
-881,
2268,
-1527,
-1068,
172,
1473,
3291,
-1588,
-407,
-542,
7,
603,
-1083,
-579,
1065,
-1482,
-1255,
766,
-162,
690,
1311,
723,
-3214,
1072,
212,
1084,
-390,
-1004,
984,
-26,
-2087,
-1599,
-87,
-432,
386,
1294,
-2165,
-317,
3615,
2299,
2266,
-993,
-60,
-1446,
1935,
169,
547,
-2192,
562,
4322,
-310,
-112,
-558,
-966,
-310,
174,
1779,
1011,
-1326,
1674,
-400,
-426,
-1535,
-135,
406,
116,
872,
100,
971,
664,
949,
1235,
-2192,
841,
6,
1613,
-281,
1276,
572,
1891,
41,
1298,
-1417,
-124,
1112,
829,
127,
-1737,
1098,
1215,
1249,
-1651,
104,
635,
-2298,
221,
-693,
462,
-2426,
386,
-2856,
-538,
311,
687,
534,
-1565,
742,
1405,
-1584,
1145,
-1435,
1857,
-2005,
-546,
2898,
-534,
-382,
487,
-1280,
1538,
1703,
435,
217,
-1750,
-270,
128,
1845,
527,
-1848,
1364,
431,
82,
-261,
-58,
-3998,
-830,
451,
-645,
1202,
-1235,
411,
1559,
-115,
-2865,
54,
-1086,
1886,
2497,
3715,
1169,
-2431,
75,
666,
-1088,
-1477,
-2207,
-951,
-1033,
1043,
613,
-1214,
1628,
34,
439,
-2063,
-1834,
526,
-490,
898,
748,
-1518,
-1112,
-534,
-691,
1017,
807,
191,
536,
-205,
-224,
790,
1133,
-1733,
-66,
-742,
1963,
1113,
-1234,
-1136,
-112,
-1717,
-773,
72,
1630,
-65,
1523,
1154,
1152,
1282,
1033,
166,
-933,
631,
-1629,
-854,
-535,
1267,
52,
1166,
-714,
48,
-1371,
-1500,
-1412,
-590,
-745,
1516,
457,
521,
155,
492,
1139,
433,
-302,
-420,
1657,
2726,
393,
-2380,
-212,
-1257,
-310,
2387,
67,
1188,
1203,
430,
866,
337,
-1186,
1375,
1206,
1078,
313,
-712,
-373,
1344,
1239,
2247,
-561,
1254,
612,
943,
-1850,
568,
525,
1010,
-1832,
-526,
1405,
870,
-1405,
1375,
381,
-716,
-1451,
-609,
82,
-1080,
1217,
-847,
690,
-206,
-216,
1485,
-744,
-799,
-1745,
-872,
-509,
-497,
662,
-1062,
1522,
927,
-1360,
900,
372,
813,
-732,
543,
1519,
500,
-269,
464,
553,
-815,
1805,
359,
142,
-1292,
-1718,
601,
522,
178,
-2062,
256,
-650,
992,
-645,
1260,
1962,
-679,
-1613,
-532,
-1663,
1862,
695,
-1032,
-540,
-942,
167,
483,
-957,
1300,
1022,
-2091,
-111,
-761,
1013,
296,
-1803,
52,
1404,
23,
-2071,
1002,
1204,
-225,
-289,
-814,
2042,
-513,
-466,
-635,
515,
-1331,
737,
29,
-1044,
-1296,
-1279,
223,
1088,
59,
121,
-1209,
-22,
994,
-209,
-2174,
962,
640,
-139,
-1526,
-688,
-18,
760,
-284,
-1378,
-604,
147,
-1234,
558,
-242,
-518,
353,
1415,
246,
-316,
1878,
2227,
1089,
393,
643,
960,
-271,
-1971,
435,
-1604,
1995,
428,
397,
289,
-123,
-2206,
-1687,
1352,
1326,
-222,
-82,
316,
691,
2997,
-1303,
-1358,
-624,
-1009,
-1992,
-1096,
-109,
-182,
-1705,
-1339,
-1113,
-1296,
-1579,
-1150,
-735,
-629,
-454,
309,
-1105,
-995,
1229,
-616,
-1243,
423,
-1215,
289,
1048,
-1071,
-552,
337,
1523,
639,
-920,
-20,
264,
-319,
-466,
-1783,
-925,
-325,
-265,
141,
-1284,
286,
407,
-681,
1674,
190,
818,
530,
-2098,
-1224,
2340,
1144,
-1072,
-1302,
1001,
2471,
1161,
-341,
-1462,
-745,
1028,
-553,
921,
-762,
-619,
1649,
-779,
-961,
723,
1691,
1960,
-372,
-1101,
611,
1486,
-115,
572,
-995,
-134,
2205,
-1050,
-741,
-1816,
1327,
-1339,
268,
-1164,
1431,
-596,
-804,
264,
1041,
-121,
-1359,
52,
976,
1083,
1434,
-1203,
-1863,
-1533,
1474,
447,
569,
-1652,
2645,
-98,
-1449,
-1734,
1108,
2393,
1610,
2272,
1374,
-654,
-1571,
-839,
1757,
-2594,
-3176,
2128,
-426,
2584,
5560,
2036,
-1037,
793,
2842,
2552,
-503,
-5933,
452,
1790,
-1671,
-2756,
-2871,
-1507,
815,
22,
-436,
-722,
-3171,
-5266,
10,
-874,
-1312,
2743,
1281,
2872,
1022,
-729,
2943,
424,
-2031,
-2076,
346,
1778,
-1000,
-1549,
556,
1285,
3197,
123,
-1366,
-1199,
-1289,
-632,
-2692,
-2036,
548,
584,
-3502,
-2436,
-1766,
65,
1425,
1849,
-819,
1204,
-1351,
1957,
2287,
296,
2290,
-71,
1148,
-1023,
-416,
-453,
-434,
-246,
-643,
738,
-970,
1808,
-802,
495,
107,
-412,
-1580,
1024,
660,
-1510,
629,
1107,
-283,
869,
728,
-428,
-685,
2110,
119,
-1838,
391,
-147,
-2455,
1153,
-886,
-1240,
75,
562,
3305,
5022,
2533,
191,
-686,
2654,
119,
-1709,
1051,
2764,
-1557,
-1914,
-3711,
-2051,
4019,
1529,
-447,
-77,
579,
-2253,
-3677,
-387,
1140,
-954,
-307,
-3927,
-2199,
-1818,
631,
-470,
4267,
3790,
390,
-1830,
1467,
1825,
3774,
341,
1802,
126,
-692,
-2434,
463,
1019,
-637,
-866,
-285,
-1075,
-154,
1038,
906,
410,
-1111,
1768,
1307,
2359,
1237,
-1478,
2165,
403,
-513,
165,
-1086,
-124,
-322,
848,
3648,
164,
421,
792,
149,
922,
551,
434,
771,
624,
-664,
3228,
-1888,
-3654,
37,
103,
873,
-416,
194,
-1127,
1409,
-331,
-426,
-571,
-765,
-1287,
-610,
-244,
988,
-99,
1049,
172,
1752,
-2309,
-2608,
-2075,
-2182,
-153,
-229,
-1182,
-2576,
2004,
-259,
-906,
1754,
432,
3249,
-1712,
-338,
-179,
-1708,
-1027,
463,
-1701,
-1088,
242,
-1047,
1554,
-453,
629,
-1021,
159,
4243,
-474,
-1404,
-452,
516,
-1155,
-1785,
343,
971,
-1322,
-447,
-711,
-1756,
-2219,
-1818,
-1462,
-941,
334,
-653,
-1370,
-914,
-921,
-3012,
-278,
23,
293,
-787,
-2127,
-519,
-270,
561,
2837,
316,
178,
805,
1563,
1381,
-899,
3970,
-711,
-1064,
584,
-405,
-3130,
311,
1521,
-700,
-1631,
-4590,
558,
517,
456,
-1602,
-1699,
-1491,
-1864,
1090,
525,
5209,
3076,
367,
350,
-478,
-2321,
770,
-383,
139,
2219,
-343,
-1337,
-80,
499,
1291,
-1070,
-4015,
-470,
2109,
-2160,
-2098,
-20,
1458,
812,
-100,
-1809,
1706,
672,
1036,
-1229,
-1333,
-2620,
1029,
207,
-891,
944,
-576,
-271,
788,
638,
-1318,
1165,
231,
1426,
-3934,
-1141,
-565,
2109,
468,
-1307,
-1742,
-336,
481,
2954,
-844,
-1333,
-1120,
-946,
-1363,
-194,
3494,
982,
-1209,
-397,
-375,
3176,
-859,
-128,
-780,
-3902,
-812,
-578,
1897,
706,
-1564,
-1549,
2846,
1067,
75,
725,
-531,
901,
-792,
42,
-1110,
2908,
-79,
4922,
-2146,
2539,
-10,
-24,
900,
-3063,
-3589,
-2069,
-288,
402,
1752,
-1459,
867,
-182,
-572,
2146,
519,
2101,
-437,
-714,
-4060,
1329,
3016,
1297,
-3336,
-3458,
801,
137,
1333,
-2383,
173,
746,
-797,
1330,
1629,
3705,
1703,
1021,
868,
2890,
2461,
-1542,
-1204,
1946,
742,
-551,
490,
-1655,
-2078,
-3330,
1865,
1671,
-1748,
-2162,
3128,
1534,
1307,
-531,
2521,
3889,
-734,
2145,
1759,
2928,
223,
2554,
1429,
416,
-1071,
-1642,
-639,
3288,
384,
-3983,
-1707,
-1344,
4758,
4121,
1374,
614,
-996,
2645,
-1472,
-1580,
1251,
1882,
1702,
-919,
905,
1293,
1037,
-1019,
-82,
-1489,
587,
571,
-673,
-729,
1440,
1806,
-341,
593,
-2101,
-74,
-223,
248,
-826,
-2119,
182,
-618,
1191,
1542,
1381,
-473,
-1283,
1432,
-1239,
3779,
1013,
3586,
70,
-3542,
795,
-2038,
-1659,
-1425,
-3540,
1323,
-3300,
-3,
-1867,
625,
2615,
6254,
119,
3302,
941,
-1663,
2158,
118,
-77,
-1251,
817,
73,
-3423,
-3527,
2964,
1288,
1014,
-2860,
-2627,
3970,
2826,
1075,
350,
842,
1041,
1048,
-2564,
1689,
-43,
-1585,
1453,
-160,
1562,
-342,
-1177,
784,
1073,
-1288,
-882,
1583,
323,
-823,
-1070,
1004,
1436,
678,
-2350,
890,
1893,
902,
-731,
-510,
-550,
-37,
1626,
704,
-1611,
-1964,
598,
2074,
1038,
-248,
296,
-1165,
2899,
2058,
222,
613,
-2296,
-692,
3161,
1612,
928,
1528,
-2573,
-1107,
1292,
1471,
-863,
109,
1283,
1535,
51,
288,
-206,
-1552,
-3115,
1689,
1730,
-874,
15,
-2365,
4091,
2952,
-181,
-3770,
-2142,
2940,
-295,
128,
-1259,
1857,
-957,
-1633,
884,
-2371,
-4819,
124,
-755,
-523,
850,
-52,
-1526,
400,
1654,
-191,
-1835,
-3052,
106,
-1120,
-1758,
-1792,
3168,
2282,
269,
-2107,
1720,
1247,
-2216,
75,
-1452,
-346,
1748,
700,
-3324,
-1489,
-557,
-1563,
-33,
-1682,
-1648,
-2228,
-916,
-1177,
-98,
-988,
-166,
190,
-299,
1256,
3230,
-3102,
-973,
532,
-536,
727,
651,
1168,
-320,
970,
252,
489,
-1118,
-3791,
-1146,
-2050,
-1610,
791,
1328,
1861,
2336,
3379,
1644,
-1272,
3098,
244,
-3058,
470,
44,
1924,
775,
889,
894,
-639,
23,
-3099,
-2102,
-2068,
918,
-1342,
-896,
16,
376,
412,
-860,
996,
-1412,
-3253,
-2,
-617,
1197,
-3835,
717,
-924,
1237,
-785,
-1969,
1604,
-337,
-2199,
-2624,
-1026,
1503,
-855,
-5730,
-2978,
2191,
2816,
-1957,
-5503,
-3778,
-1830,
-2180,
-1497,
94,
1062,
1810,
-2276,
-2319,
2505,
1484,
-1471,
165,
-1135,
-856,
930,
1718,
2136,
656,
-1978,
103,
653,
884,
-1617,
-3768,
-378,
-1432,
-618,
576,
420,
1199,
-1628,
278,
-456,
1731,
-332,
196,
-368,
1179,
1365,
603,
-551,
-3102,
-4321,
-2370,
-3612,
899,
2118,
2744,
-4549,
-945,
3785,
5664,
1421,
-1900,
-200,
-592,
-3869,
-1161,
-21,
-2422,
-2637,
1321,
1369,
-744,
-1909,
1652,
2885,
4203,
-1027,
161,
84,
2132,
4653,
1667,
4161,
1886,
1532,
758,
66,
-492,
1240,
-2699,
-4240,
1732,
3169,
-1019,
-1809,
814,
-777,
-1132,
199,
582,
506,
-316,
1355,
2129,
832,
640,
-106,
3436,
2962,
-2654,
-954,
915,
1087,
2390,
-1386,
1538,
-2280,
-1048,
676,
1846,
-1051,
-3119,
2341,
3537,
-542,
-293,
-608,
-1411,
1017,
-1676,
-1438,
160,
-567,
-1094,
364,
245,
2117,
-764,
1867,
-379,
-1005,
347,
1415,
-63,
708,
-367,
1040,
-339,
2338,
1202,
178,
157,
872,
-1070,
-1634,
-421,
145,
751,
45,
-133,
2033,
-20,
1463,
-442,
-1125,
-963,
407,
113,
-2114,
-545,
-687,
-1576,
-1726,
-3173,
42,
-245,
543,
3025,
469,
1887,
1191,
4360,
-532,
-388,
-1998,
1570,
-2154,
-3218,
-2165,
1603,
1272,
472,
-91,
1039,
147,
-624,
-461,
291,
1227,
-117,
708,
-443,
-284,
-97,
1407,
-282,
1362,
-102,
1733,
149,
-1368,
660,
1788,
1901,
690,
2029,
181,
-779,
-901,
8,
-524,
-1739,
-240,
1695,
-1458,
-1645,
1600,
1403,
1161,
-2529,
-1361,
527,
2048,
935,
436,
-802,
-3207,
-818,
465,
1175,
-1468,
247,
-331,
-111,
-230,
-1480,
-1481,
-1955,
1225,
4279,
2984,
-413,
239,
1867,
-747,
2206,
586,
1204,
39,
-1761,
211,
-546,
-1260,
-1654,
-1573,
234,
105,
-156,
1051,
1314,
-1203,
2098,
2306,
-1090,
-3824,
-1957,
-1285,
-1133,
-2008,
-6107,
-1444,
-1193,
-3853,
623,
912,
1421,
-391,
-1086,
-923,
362,
-243,
1543,
1089,
-10,
-1398,
-305,
-1626,
-329,
-438,
-711,
381,
-139,
-540,
-27,
389,
511,
-1004,
-717,
2051,
795,
-599,
922,
2863,
1428,
-31,
209,
5,
1852,
160,
-2467,
-1088,
-287,
1652,
801,
-2096,
-725,
-781,
922,
-181,
-1506,
782,
-1695,
-1766,
-493,
2169,
-1139,
-110,
-979,
153,
653,
-1437,
481,
-366,
1414,
133,
1280,
1054,
25,
3792,
2132,
-2413,
-1554,
-268,
1991,
-3401,
-2881,
2887,
1575,
591,
-580,
1059,
2836,
2396,
771,
-837,
-1373,
-1829,
-884,
79,
273,
-788,
2591,
2074,
1482,
-2682,
-506,
1671,
2076,
-485,
-913,
-1878,
453,
-3621,
482,
475,
281,
-1358,
-1982,
-238,
-1308,
-2061,
-1702,
-829,
1592,
-291,
-170,
626,
-162,
-857,
-2005,
75,
1431,
829,
-729,
176,
-872,
-196,
-268,
-716,
131,
644,
-116,
-160,
-851,
880,
-1387,
623,
96,
-1453,
-1173,
-637,
-219,
2349,
-876,
-2203,
-647,
-79,
1652,
-1779,
-86,
-178,
363,
-2968,
-2130,
41,
-376,
2953,
-1553,
-263,
-296,
400,
919,
-1164,
400,
-2549,
1008,
-338,
647,
1691,
296,
1620,
2981,
1639,
850,
-2439,
-4078,
1202,
783,
-2309,
-3180,
1072,
460,
1118,
-1157,
-1575,
-1087,
2405,
-993,
-316,
-101,
792,
-2045,
-1200,
-2,
2332,
-884,
-55,
985,
-797,
-1846,
408,
1160,
1056,
-367,
532,
-468,
-774,
513,
1873,
-447,
-763,
2008,
2481,
603,
-203,
-1283,
-441,
821,
-924,
-1033,
-1917,
-682,
1055,
2271,
641,
-1042,
1623,
406,
-586,
-1487,
819,
1522,
922,
-889,
-896,
1707,
-1042,
1310,
-80,
175,
-142,
1251,
1624,
-1368,
973,
-619,
-334,
-1980,
-146,
-134,
1419,
316,
-141,
1045,
-194,
-81,
995,
-1414,
1497,
94,
1339,
1141,
1755,
1489,
410,
431,
-1099,
1710,
1312,
-1570,
434,
997,
605,
-186,
-521,
-60,
-411,
-6,
227,
-700,
-1196,
806,
-987,
1409,
114,
835,
-677,
289,
-558,
283,
-585,
-98,
-1275,
-714,
-92,
-1615,
1673,
1177,
264,
1244,
1083,
565,
846,
259,
-1033,
-1181,
916,
-1113,
1810,
1151,
1143,
-950,
94,
417,
1994,
379,
466,
287,
-415,
-1408,
-1757,
-1900,
195,
1031,
43,
1154,
-2178,
-381,
610,
825,
1325,
-948,
1058,
1992,
454,
604,
-692,
702,
1176,
-992,
-753,
497,
-1071,
339,
1364,
-1062,
1372,
-788,
999,
852,
-1834,
1514,
-1115,
-109,
1336,
562,
165,
-491,
763,
72,
-889,
893,
-1383,
813,
662,
-795,
-1976,
503,
1655,
-375,
667,
-682,
-134,
1857,
568,
-162,
-342,
-2092,
-1393,
-1462,
-146,
-644,
1069,
118,
1497,
895,
-848,
978,
502,
5,
1415,
1691,
292,
-627,
-948,
-393,
-78,
-610,
-897,
-831,
-1796,
-326,
781,
184,
1364,
24,
459,
-292,
-156,
-1563,
1071,
-1071,
1493,
-534,
524,
-333,
1451,
848,
1379,
1151,
-441,
-1245,
795,
-240,
1426,
-916,
-807,
641,
1474,
-1357,
-235,
-1653,
972,
-336,
-217,
-447,
426,
1153,
-1605,
145,
-574,
-12,
1064,
2102,
692,
-274,
1189,
959,
1615,
-823,
195,
-1553,
942,
-166,
-678,
227,
-669,
-1143,
-588,
590,
10,
1197,
-1076,
-1221,
-1732,
-458,
1494,
44,
756,
-1890,
-1802,
-426,
-2260,
-2602,
-2026,
-707,
5,
-2059,
-929,
836,
-1147,
140,
-486,
261,
1643,
634,
867,
341,
-826,
382,
824,
1946,
1709,
-796,
1492,
-1279,
-716,
1001,
286,
-282,
-1003,
-365,
-493,
-388,
-1070,
-808,
-1568,
-1489,
1199,
-402,
1275,
-1431,
-1191,
-840,
282,
1543,
-1255,
397,
-452,
-81,
-1666,
1783,
2196,
84,
-402,
488,
-573,
11,
-756,
1490,
2062,
483,
-1932,
-1153,
1782,
1160,
228,
-1144,
-142,
-110,
1146,
-519,
2107,
1057,
367,
1584,
957,
238,
1572,
-1899,
255,
744,
-1981,
642,
1314,
-623,
-561,
-1166,
-685,
-700,
-591,
-1312,
-1853,
2061,
739,
387,
-1153,
861,
1128,
600,
-134,
556,
789,
-1671,
-727,
-2090,
-741,
-961,
-1654,
-1265,
-1004,
-834,
-1662,
-1702,
-2140,
-11,
330,
-654,
-1269,
460,
-48,
574,
-607,
105,
-960,
-162,
-680,
620,
1069,
888,
-1694,
-633,
-926,
-1848,
-3040,
-2157,
449,
-1700,
-237,
-406,
22,
1204,
1390,
116,
1304,
5183,
-1370,
-1003,
-869,
-1327,
961,
-1452,
-2261,
537,
-1358,
-2935,
2347,
662,
81,
606,
-601,
-1586,
-1154,
1538,
3413,
-227,
-2323,
-1174,
2790,
2503,
100,
339,
-16,
1570,
2224,
-1262,
578,
1590,
1087,
418,
-1696,
-468,
-1070,
1237,
-1618,
165,
-655,
-1429,
1782,
-1107,
929,
562,
-530,
-341,
264,
1687,
441,
-76,
1467,
-406,
-1455,
-413,
-139,
1639,
407,
887,
-815,
481,
-1407,
509,
737,
-816,
1432,
-1028,
897,
-1560,
-1107,
1153,
-238,
-165,
-262,
-1425,
578,
164,
852,
-412,
-3382,
-1628,
-2254,
-1805,
1100,
-1393,
-3372,
-3544,
-4106,
-604,
-3262,
-2625,
-1200,
-963,
-660,
-34,
234,
2399,
582,
604,
-1030,
674,
601,
-945,
49,
-1453,
-2930,
-570,
215,
274,
3102,
1852,
895,
-977,
203,
-600,
1722,
1766,
756,
1879,
-1097,
-318,
-1703,
539,
1524,
334,
191,
-1704,
-314,
-788,
1287,
646,
464,
-502,
1782,
463,
448,
1002,
-72,
732,
-2008,
-2208,
679,
-1731,
856,
-953,
-642,
1072,
-1239,
-1293,
-2453,
-660,
-1529,
-154,
-1233,
-1471,
-975,
-1347,
578,
-1892,
848,
41,
-870,
928,
-1096,
594,
-794,
-566,
253,
1178,
2507,
1102,
1823,
-861,
1492,
954,
647,
2729,
-924,
-274,
-1615,
-216,
1238,
1171,
-466,
1916,
-317,
935,
4201,
-607,
2093,
311,
-1084,
-119,
-1439,
924,
-1476,
-1490,
-2601,
338,
1443,
459,
1287,
-593,
62,
-1447,
-1303,
-162,
1192,
-1767,
1307,
-1561,
-1029,
-1066,
486,
1621,
-751,
-1615,
-1033,
-11,
1775,
-209,
-952,
120,
-139,
-762,
2317,
-3369,
-765,
1524,
687,
3167,
-465,
-899,
45,
-391,
-1347,
28,
985,
-261,
-2288,
-903,
128,
-905,
-965,
1428,
1287,
924,
-1767,
-2485,
-247,
-322,
728,
867,
-1953,
-1818,
465,
-1228,
-1123,
-1617,
-603,
133,
129,
-761,
-165,
445,
4479,
2096,
958,
3671,
1654,
2023,
-530,
-2428,
1877,
580,
-380,
-1356,
-2180,
5,
1201,
358,
2042,
-25,
16,
1429,
-2749,
332,
1882,
-1627,
705,
-902,
-2124,
-108,
250,
2207,
718,
-2105,
-686,
-510,
-1000,
1408,
133,
-1020,
2040,
261,
-68,
251,
-686,
-44,
-1020,
-2530,
-1610,
-967,
109,
-897,
211,
-488,
-1420,
-46,
1994,
1831,
554,
-2650,
300,
-917,
2741,
-1356,
-936,
-879,
-1297,
-1532,
537,
695,
-1707,
-2252,
-2185,
-256,
-1382,
-613,
976,
2166,
-959,
-2805,
517,
3369,
-694,
-3273,
-3504,
-39,
-459,
310,
-53,
-1227,
416,
-506,
-254,
1359,
-2003,
1014,
-1433,
-2169,
-1664,
-131,
-1667,
1151,
-158,
240,
-2949,
-743,
314,
2639,
1147,
1591,
1709,
1167,
-1947,
-2653,
-1851,
-1268,
1889,
1952,
5690,
4836,
1684,
2695,
-490,
-484,
857,
2073,
371,
-1705,
-3236,
342,
4715,
-1081,
-3862,
-2984,
-467,
-2717,
6908,
7978,
1987,
-408,
-1564,
2290,
2243,
273,
1973,
2472,
-2159,
-2137,
-647,
-578,
3663,
-244,
-196,
227,
-2057,
-386,
-63,
-2121,
1681,
-1222,
-3120,
-2153,
-3097,
-2025,
-1097,
437,
-1677,
1306,
2828,
-991,
1975,
1007,
3255,
-1173,
-1062,
1532,
-300,
515,
555,
107,
-1286,
-2012,
-474,
-805,
-1109,
1283,
866,
659,
-1284,
-513,
-235,
3146,
1401,
574,
805,
-1477,
-1194,
27,
221,
29,
1055,
-467,
-1634,
-604,
1065,
1398,
-1506,
55,
1084,
1222,
809,
1844,
1194,
-4840,
-1775,
-1154,
1446,
-874,
2941,
1809,
867,
527,
-2691,
-261,
717,
1471,
-2232,
-3474,
-3504,
-2456,
1151,
-2930,
-370,
-1191,
-2224,
-1572,
38,
1519,
833,
1045,
3106,
-2473,
118,
-75,
2611,
3514,
1219,
-238,
-2008,
-1930,
1447,
564,
987,
724,
1689,
1300,
789,
-679,
986,
1434,
726,
343,
2702,
2193,
626,
759,
-1447,
450,
921,
1058,
-1909,
-1598,
-753,
3082,
885,
-245,
-684,
1408,
3553,
1471,
30,
-657,
-84,
497,
491,
368,
-1344,
-2390,
-331,
-658,
-1131,
1725,
-376,
1934,
4329,
1388,
-1227,
-1190,
-3145,
916,
480,
-1429,
-3052,
-143,
565,
905,
-1428,
-667,
-3796,
402,
736,
661,
990,
2001,
-1843,
-1228,
1476,
-2716,
-1500,
-3526,
-723,
612,
4331,
1280,
-1895,
-1787,
2252,
2070,
-1411,
59,
599,
-142,
2134,
2511,
-2199,
58,
864,
395,
-1437,
-467,
-1835,
361,
-1690,
1988,
-1570,
-282,
2302,
3643,
2141,
-169,
-2122,
992,
3037,
1413,
-848,
-266,
871,
1106,
-272,
-1006,
1284,
527,
782,
-646,
-2440,
1616,
-828,
270,
2279,
162,
829,
490,
-81,
368,
349,
828,
1502,
-695,
-1942,
1032,
-320,
1488,
1112,
-73,
920,
931,
2424,
-1933,
-1972,
-177,
2507,
-620,
236,
571,
2176,
1498,
-1588,
-195,
-4560,
-4386,
-408,
-467,
-1653,
-1241,
2544,
102,
-844,
1042,
-1231,
1299,
-353,
-817,
-1281,
-197,
-1490,
67,
397,
-1417,
-1721,
-3473,
-168,
-1124,
442,
2004,
-835,
-2717,
206,
187,
3329,
1561,
-1750,
832,
1995,
-88,
-2126,
613,
-378,
721,
-2217,
-1999,
-451,
997,
411,
-1497,
590,
-1207,
3039,
3693,
-1852,
-325,
808,
758,
981,
-794,
-1623,
-258,
-1020,
-176,
691,
-455,
-336,
-631,
1800,
-1763,
-1056,
511,
-61,
-268,
172,
90,
1406,
1011,
-1437,
-760,
-938,
1435,
813,
-526,
-524,
-576,
210,
1123,
-832,
287,
570,
1338,
-607,
68,
278,
-1052,
-848,
-734,
1396,
-1204,
-4142,
1158,
2164,
649,
1741,
-3036,
-2161,
2091,
2692,
-2850,
90,
817,
742,
698,
-2257,
-479,
-426,
36,
1285,
1956,
2534,
2167,
-1049,
-877,
2670,
3057,
2769,
1243,
2622,
1120,
453,
2954,
-1635,
1999,
362,
1368,
-2239,
-1139,
-1061,
-1542,
-590,
535,
-144,
2032,
-1265,
-553,
-2125,
-1511,
-1413,
2118,
1362,
-2320,
-543,
-380,
3349,
-876,
406,
2077,
-1070,
885,
-537,
1713,
483,
-353,
859,
54,
415,
-1191,
185,
736,
-1600,
1005,
1893,
965,
747,
-161,
-220,
-1435,
-241,
-642,
419,
718,
1379,
1044,
-384,
1500,
26,
754,
3431,
969,
1221,
-927,
216,
2946,
1711,
-1922,
681,
298,
-1349,
880,
-1992,
-1931,
281,
2046,
111,
766,
-1326,
153,
-662,
880,
1100,
-672,
-2367,
-602,
562,
-198,
1498,
1371,
1202,
-969,
-2328,
-1501,
1513,
2366,
-3532,
1036,
356,
2163,
1399,
-1661,
1793,
1038,
-1286,
1048,
525,
2509,
1845,
-1144,
-276,
-79,
-630,
1135,
959,
203,
509,
44,
1322,
-1233,
391,
-239,
-15,
1269,
-2039,
1888,
-1834,
733,
-494,
1114,
-167,
2229,
-427,
-457,
-57,
1910,
1361,
-1711,
-50,
1102,
1783,
-547,
1491,
178,
-1067,
383,
472,
-550,
-1231,
507,
790,
537,
-906,
-3224,
-1153,
916,
-658,
-1286,
-302,
815,
593,
-560,
-1501,
-2006,
155,
181,
2068,
2012,
-836,
499,
106,
1099,
2141,
526,
440,
2462,
2061,
889,
1399,
834,
1199,
844,
-68,
146,
-1164,
154,
-787,
42,
167,
-1320,
323,
-301,
-2153,
-1130,
-160,
-3143,
-251,
-3782,
-1224,
-2602,
426,
-1891,
-3361,
-4468,
-1456,
-253,
987,
-749,
-864,
1282,
1800,
-142,
1668,
-417,
464,
-1467,
-184,
-89,
-1645,
-294,
610,
2340,
1043,
-95,
-184,
1922,
3082,
-1510,
-2985,
-1211,
514,
1996,
-2741,
-129,
1035,
-702,
506,
-272,
-1680,
112,
2775,
1051,
196,
953,
-194,
2113,
-425,
-2287,
-1897,
-2077,
895,
-151,
-1678,
-104,
-1637,
-2773,
553,
-2109,
1220,
-1399,
-3723,
-290,
113,
1133,
-2087,
1759,
526,
-2935,
-1225,
-1710,
2585,
-107,
-4500,
-3354,
-1,
-1302,
-574,
-1491,
1310,
-841,
-862,
-468,
-1060,
1695,
-1418,
-213,
2733,
1890,
982,
2837,
1179,
-1663,
162,
2007,
2332,
-2999,
-5150,
-311,
-487,
-366,
-4002,
-2288,
-1966,
-1732,
-1461,
-2933,
-670,
37,
-153,
-2130,
-1315,
-577,
642,
-1227,
905,
2070,
-1372,
-233,
-488,
1098,
3887,
-2158,
-4059,
-2510,
71,
3739,
-1410,
-1920,
-1447,
-3474,
1717,
97,
742,
-479,
-1491,
-2715,
-1108,
328,
1625,
1731,
-570,
-1469,
-1671,
1509,
543,
413,
-3602,
-1584,
201,
-407,
-872,
-3050,
-255,
-313,
-2261,
-1821,
-2999,
607,
-554,
289,
-1687,
152,
-1107,
-194,
-1559,
1063,
3132,
425,
-646,
1097,
923,
-2874,
-2238,
-2240,
-518,
616,
-1578,
-6359,
-6245,
-1035,
1035,
-3960,
-3364,
-558,
-1029,
-288,
-1797,
1200,
2383,
371,
280,
3647,
2083,
-563,
15,
-1427,
910,
298,
-100,
1029,
-316,
-2597,
-4268,
-2099,
221,
-5481,
-4971,
-2708,
-3284,
-222,
1550,
367,
-712,
1869,
-1260,
-1919,
252,
1152,
-509,
2163,
27,
-4078,
-2291,
-171,
424,
-776,
-6003,
-812,
-3015,
-153,
-442,
88,
2892,
1112,
263,
1399,
1159,
2272,
2025,
551,
448,
2078,
2225,
-982,
1874,
-1760,
375,
-930,
563,
2537,
2606,
-268,
-1138,
-902,
-2285,
721,
-202,
1398,
-617,
465,
805,
-1141,
1045,
1113,
-171,
1507,
561,
1566,
-82,
-716,
-1793,
-652,
184,
-356,
487,
-387,
-1702,
1196,
54,
-1589,
-266,
530,
1635,
-1262,
-269,
2201,
2563,
-1373,
-1644,
-1355,
1219,
5364,
868,
1601,
-2422,
-4006,
-1354,
-1340,
2328,
-4832,
-5909,
-4536,
-4836,
979,
-4301,
-3799,
-355,
826,
154,
-244,
1737,
1657,
449,
1825,
-2097,
372,
1196,
-55,
1453,
-709,
2763,
-944,
-576,
-167,
2484,
893,
-2697,
-1241,
1748,
-1264,
22,
-168,
-901,
-16,
-186,
327,
196,
-105,
1046,
1217,
1184,
323,
1740,
931,
-1184,
1477,
546,
1862,
-897,
190,
-2097,
297,
420,
-1045,
-551,
-1469,
-684,
-90,
671,
78,
-293,
99,
-1459,
-1982,
1386,
1555,
-22,
816,
-209,
266,
2209,
-1212,
-1944,
447,
-481,
1146,
-3477,
-2069,
279,
-132,
-2639,
-53,
190,
496,
3045,
958,
2219,
2023,
731,
-393,
762,
2390,
217,
-196,
262,
-1589,
-314,
1536,
-1224,
-620,
-816,
351,
3993,
-1808,
1856,
2246,
1755,
746,
-1293,
896,
190,
-1444,
-3731,
-1894,
618,
1425,
-419,
1674,
2195,
-645,
1460,
1690,
1775,
-59,
-945,
-380,
19,
-931,
-638,
895,
157,
-1463,
1260,
-428,
-1307,
1990,
1081,
647,
-444,
-577,
196,
2072,
-1341,
-273,
-600,
2833,
142,
3275,
325,
-1880,
1177,
-92,
2579,
1049,
1812,
2284,
2128,
1770,
594,
1806,
132,
-279,
-781,
812,
-1273,
874,
872,
88,
1416,
-481,
845,
497,
-2384,
-830,
2376,
3360,
-1425,
-2372,
-1585,
3011,
1677,
767,
270,
1467,
1906,
566,
2747,
1438,
2263,
-114,
2267,
1195,
1187,
-92,
-1308,
1192,
3541,
362,
-275,
-132,
-337,
5067,
-861,
-1591,
207,
-88,
922,
746,
484,
1278,
1730,
-2055,
-1588,
-1683,
502,
-671,
3525,
1671,
604,
-782,
-1936,
2325,
3329,
2972,
-3366,
-1464,
-662,
1299,
-1342,
-2174,
-1724,
1370,
-2285,
-51,
2208,
-187,
-1182,
-2960,
-1391,
1317,
-1049,
551,
577,
845,
-1849,
-2524,
928,
1322,
892,
-462,
-1581,
563,
1924,
-192,
-659,
759,
71,
-3005,
318,
2783,
901,
-1262,
-757,
-1577,
1296,
2273,
2132,
1455,
974,
-1030,
-1239,
3690,
-626,
-719,
-1635,
942,
2527,
-502,
2504,
-1801,
1357,
-492,
-352,
-148,
2539,
-574,
3080,
-754,
1,
1149,
709,
-129,
2493,
287,
1705,
451,
835,
-711,
-539,
3006,
1850,
1327,
2446,
230,
-1469,
2478,
4469,
3088,
3010,
-139,
-683,
604,
-3310,
-1278,
1909,
-1322,
-1992,
-2130,
988,
3613,
2828,
364,
-1239,
1587,
86,
2780,
3153,
-13,
59,
-363,
-1036,
431,
404,
-1958,
-2340,
1217,
1169,
-1061,
601,
-514,
1439,
-707,
-92,
573,
1525,
350,
-2233,
1756,
-390,
3450,
3009,
-1439,
61,
-321,
1198,
1043,
1335,
1316,
-1312,
-2887,
-719,
-1487,
-1531,
549,
202,
-367,
-1017,
1349,
-1314,
-618,
-976,
-63,
2018,
-1200,
-566,
-950,
961,
2704,
-59,
462,
430,
-1834,
-681,
-1801,
-1529,
-1026,
359,
1312,
-1190,
57,
1268,
2269,
-987,
-1303,
434,
1158,
-1056,
-225,
-1494,
-648,
2260,
268,
-1557,
-1190,
-1236,
492,
2224,
-880,
-500,
432,
2502,
-273,
-2520,
-1512,
-536,
-1222,
387,
-1016,
-1562,
2672,
-65,
1592,
2079,
-155,
2098,
1966,
1763,
-1147,
-874,
-734,
-3706,
-2049,
-1079,
1586,
-675,
140,
964,
-851,
-112,
-196,
581,
-838,
-1025,
-538,
-243,
2391,
1158,
-1913,
88,
771,
1571,
1415,
370,
657,
-364,
-993,
381,
-778,
-1197,
1940,
-219,
57,
1230,
268,
667,
-865,
1077,
1179,
164,
680,
1923,
637,
-869,
-623,
446,
2435,
-690,
-64,
2920,
191,
752,
1893,
-204,
-408,
-2545,
-788,
963,
585,
10,
-1281,
-1822,
-583,
661,
727,
-5,
-641,
-1832,
1599,
1530,
2163,
-713,
-141,
-148,
-1752,
-331,
-137,
-495,
-336,
74,
-550,
-1885,
-750,
927,
-1081,
1369,
-1575,
-443,
973,
-817,
-103,
-1669,
-1553,
248,
-1428,
495,
-812,
-787,
429,
87,
-330,
1286,
959,
2328,
-672,
1559,
1666,
-329,
996,
345,
-155,
-1277,
242,
-802,
1642,
-1622,
-124,
842,
669,
-467,
-35,
-2749,
412,
-1031,
1448,
2322,
210,
-1444,
-770,
-1545,
-1369,
-1671,
93,
819,
-1007,
-639,
-241,
-2424,
-707,
359,
827,
-108,
-2746,
-2369,
-5,
1025,
2248,
1312,
138,
858,
-1297,
927,
-1008,
627,
75,
-668,
-1678,
-481,
-2906,
-488,
-2164,
1273,
-461,
442,
679,
-3370,
-875,
1555,
623,
1674,
-1063,
-2201,
-482,
-484,
-1202,
1744,
137,
-1408,
-902,
-830,
3042,
673,
228,
-816,
1534,
1319,
-642,
208,
1137,
-1655,
-2739,
-929,
-719,
313,
1539,
-3058,
-2750,
-568,
-575,
-591,
-73,
617,
-507,
1375,
-1727,
1417,
2072,
-539,
413,
-384,
-1704,
-1893,
1906,
1229,
1321,
-3166,
-3269,
402,
2007,
-1036,
-504,
-1640,
2088,
-726,
42,
1451,
145,
-624,
862,
-1501,
-200,
1346,
-2335,
-1454,
794,
566,
-374,
-153,
-130,
-1120,
215,
-1983,
-1342,
1421,
-1108,
-1490,
675,
-887,
1109,
620,
856,
891,
-224,
67,
-1257,
1128,
434,
-1787,
-127,
-2457,
-1061,
2106,
2405,
-513,
-407,
584,
2582,
-979,
-1602,
-2115,
-2591,
-4620,
-4817,
-6150,
-1018,
-1216,
-5709,
-6410,
-3343,
-377,
2049,
668,
4464,
3236,
-483,
1538,
808,
-2575,
1830,
1527,
-2046,
-2280,
-2930,
-2861,
398,
517,
-4435,
-2244,
-1197,
583,
2550,
1225,
192,
643,
401,
2080,
2635,
-1810,
-1780,
-897,
3075,
10,
-1443,
-5,
-1681,
862,
1585,
1248,
-2571,
587,
-474,
757,
619,
578,
1172,
-1160,
-2818,
86,
1912,
-1389,
-467,
1601,
872,
1279,
-638,
1330,
-193,
-243,
747,
-899,
177,
-1441,
-1940,
-1071,
-1286,
10,
-2032,
-146,
1858,
479,
1369,
-2128,
2322,
-1194,
-487,
1084,
1156,
3992,
-1184,
-568,
246,
287,
2807,
2466,
1079,
-2697,
-5639,
-1112,
-211,
1939,
-2678,
-2951,
-6,
-516,
101,
1589,
-48,
140,
-1072,
1924,
4127,
2599,
1360,
-2595,
1948,
-328,
1929,
2061,
116,
615,
-847,
4103,
1804,
-2336,
-194,
-864,
-1769,
-1523,
-332,
820,
1868,
1501,
-1092,
-21,
1281,
-763,
-298,
-1424,
702,
1092,
-1089,
1708,
1121,
-109,
387,
748,
-1423,
654,
26,
-938,
1207,
269,
-396,
1339,
-1139,
1495,
737,
-361,
-1540,
-390,
-705,
-1131,
-1328,
-1501,
-306,
1912,
1644,
-531,
-1497,
-2586,
-601,
1858,
-3068,
-3153,
-1595,
709,
-1530,
-2039,
904,
1197,
-1071,
-2768,
-2336,
-1540,
542,
2860,
2482,
-1873,
-1317,
-558,
-555,
-807,
-1219,
1062,
1305,
-22,
2823,
641,
2846,
-507,
-290,
55,
-558,
-1683,
703,
-1622,
635,
-4257,
1049,
1324,
-1383,
-2310,
-528,
-1376,
-494,
-1514,
-1660,
-1396,
920,
-1033,
-600,
-1276,
-1572,
699,
1858,
-34,
811,
-2168,
-1995,
-230,
1045,
-554,
-1454,
-2513,
1038,
-1805,
2368,
2627,
1967,
529,
-1187,
-1389,
-1338,
-2781,
-424,
159,
-1185,
-1179,
671,
-760,
303,
893,
6,
-509,
-249,
873,
-2407,
-1359,
2216,
370,
-1426,
-806,
1006,
-658,
605,
1014,
-522,
-727,
1147,
1926,
-1717,
-142,
849,
-1283,
-3964,
-1908,
-108,
-2722,
-1563,
483,
-2312,
-2927,
1910,
-597,
1845,
1064,
2609,
2380,
-586,
1346,
-628,
-712,
-2356,
1525,
-1350,
-2828,
92,
2001,
2344,
-1559,
340,
1233,
-967,
1011,
36,
1538,
236,
-642,
1526,
78,
1723,
135,
-3391,
1224,
1884,
-1461,
-1658,
1395,
790,
1006,
-2205,
-1919,
1335,
-984,
517,
378,
-2133,
144,
290,
525,
650,
413,
-395,
178,
-56,
2900,
-856,
-216,
-2463,
-1211,
605,
-1712,
-18,
1181,
-509,
-1783,
-1502,
1531,
-633,
1846,
-2556,
377,
322,
1633,
1965,
801,
1590,
-1026,
1450,
-347,
2007,
1874,
-2367,
-1401,
448,
-870,
1721,
1867,
-809,
-1293,
-1730,
-2534,
1095,
92,
1173,
463,
-214,
389,
767,
1062,
-2306,
-3692,
-4613,
95,
-679,
221,
2447,
5134,
3515,
686,
1574,
-1158,
1063,
1749,
-901,
279,
-755,
-1775,
-567,
1080,
1733,
0,
145,
-181,
-948,
1360,
-266,
-855,
-674,
576,
179,
-1399,
-1595,
-1430,
-963,
-301,
-895,
-1696,
437,
-484,
1289,
2983,
1563,
404,
-1163,
-598,
1597,
-199,
-1001,
-1492,
203,
1498,
-414,
762,
1088,
664,
926,
806,
1002,
-1151,
1147,
316,
-1923,
-281,
62,
582,
574,
1472,
1916,
-1122,
264,
966,
-517,
-1310,
843,
-1272,
-947,
-601,
-703,
-78,
-2051,
-1672,
1272,
1273,
-806,
785,
-1278,
1227,
-1282,
-1462,
466,
-457,
342,
876,
696,
-1551,
1304,
532,
-537,
1175,
-1213,
-1467,
1105,
-429,
229,
1654,
1308,
1125,
1223,
88,
1141,
-1042,
1430,
90,
-1578,
-639,
-1325,
-2227,
-353,
-1142,
-640,
1362,
-1082,
-1118,
588,
936,
-588,
-1804,
-1480,
-722,
845,
1595,
-418,
100,
1200,
451,
-275,
-1628,
279,
-807,
909,
2201,
2713,
424,
1320,
84,
-320,
-2020,
56,
-1230,
-2246,
-321,
849,
-1225,
211,
-522,
-555,
1140,
278,
-42,
-740,
1741,
1038,
1032,
593,
1124,
76,
-157,
856,
-1222,
-1436,
-1714,
497,
172,
-461,
-288,
-569,
86,
1546,
-5,
1045,
-1182,
-527,
-517,
478,
-1409,
-101,
-1621,
-177,
-1056,
774,
181,
2166,
1506,
-544,
-669,
-724,
599,
-523,
799,
916,
354,
773,
1118,
1013,
-171,
852,
1101,
23,
1255,
582,
1170,
-993,
672,
579,
-730,
-317,
-705,
1001,
-1976,
-1409,
-499,
-405,
983,
1025,
-1286,
786,
883,
331,
-144,
-730,
-1617,
-363,
1262,
66,
-198,
1616,
-198,
-306,
1536,
-1605,
454,
1004,
1193,
1169,
-1046,
424,
1443,
251,
-824,
1475,
-752,
1336,
-1253,
1426,
-35,
-532,
29,
946,
1696,
-486,
-488,
729,
1198,
772,
-956,
1076,
1000,
-1607,
92,
-218,
-1268,
631,
1210,
-584,
716,
-782,
203,
92,
-878,
-1361,
-814,
-1362,
-19,
458,
380,
-161,
-2065,
-1892,
586,
777,
1103,
1015,
-739,
-1061,
1344,
884,
2510,
722,
-825,
382,
-447,
1478,
1936,
1041,
1121,
-905,
-1076,
245,
362,
-21,
167,
-669,
-48,
873,
-493,
-912,
740,
-931,
737,
-1170,
1167,
-1689,
94,
-1915,
1194,
-575,
-262,
826,
-827,
-935,
-375,
1732,
1128,
872,
-315,
1235,
487,
1940,
671,
-1174,
1845,
-442,
1010,
-407,
-1635,
1515,
-1698,
711,
791,
-313,
1541,
-1596,
195,
5,
1243,
1034,
-547,
480,
350,
-461,
-1056,
335,
-1118,
247,
-1187,
1070,
-923,
-1408,
-94,
-982,
739,
-1054,
1169,
1504,
-1189,
-11,
1197,
-1242,
-596,
471,
-1139,
915,
-390,
-1757,
-180,
-1296,
-938,
-1381,
-1118,
-55,
514,
-384,
-315,
-1327,
-1482,
-838,
692,
-1937,
759,
-735,
641,
-58,
1046,
2128,
-1490,
-974,
184,
-132,
976,
92,
-188,
2861,
537,
347,
1048,
-523,
-1356,
-1081,
5218,
-2254,
-2034,
-103,
673,
673,
2888,
2671,
-471,
-1242,
-1747,
1530,
1817,
1268,
-1897,
-1487,
-477,
1833,
411,
1296,
2551,
-863,
-2308,
-70,
-2065,
-1044,
928,
-208,
-2153,
-48,
-3818,
3211,
1133,
1811,
374,
-1029,
-250,
1376,
-761,
-2020,
788,
1500,
-370,
431,
481,
-428,
2303,
-1835,
956,
-276,
1522,
656,
2127,
-562,
-1510,
-1363,
67,
541,
-730,
1885,
-385,
2367,
704,
-1057,
661,
1448,
380,
392,
-176,
-2113,
973,
-43,
905,
-1218,
871,
61,
-790,
-1438,
-110,
885,
-1576,
-659,
-1017,
1301,
2153,
-611,
767,
-446,
460,
-671,
-1488,
234,
1293,
-765,
-2828,
-1339,
1016,
2274,
-606,
-2669,
1534,
-946,
122,
2232,
3176,
1200,
653,
-74,
1241,
-1369,
-333,
718,
-2130,
-5061,
-3119,
-249,
9,
-714,
1738,
550,
-414,
-1370,
-909,
-342,
-123,
1623,
3664,
514,
-3189,
-2,
483,
1857,
1041,
-674,
181,
138,
1718,
-385,
541,
1602,
967,
136,
-1198,
-1590,
-10,
946,
1927,
1285,
-1056,
1306,
-1020,
1514,
2177,
-1202,
1070,
-249,
-238,
773,
1562,
-824,
-966,
-876,
-795,
-1547,
1528,
269,
-640,
2031,
177,
1938,
2063,
-961,
1325,
1053,
1929,
2568,
1527,
-117,
-965,
-304,
-927,
342,
-524,
1939,
544,
-1854,
1575,
460,
-2690,
162,
-1742,
-1068,
-1453,
968,
-698,
-2532,
-2082,
-87,
-1038,
-3143,
-1691,
-390,
-1071,
-805,
-1543,
-2007,
881,
3058,
-401,
-1052,
-1897,
316,
860,
95,
1365,
966,
-1050,
-1315,
-470,
-655,
-860,
140,
-967,
1249,
-849,
832,
-1182,
487,
1726,
1747,
-450,
1321,
1108,
716,
-331,
-1168,
-662,
-380,
321,
1772,
-970,
150,
242,
-405,
-352,
11,
847,
-688,
-1401,
-1453,
868,
206,
609,
2723,
-495,
-1358,
1136,
-1217,
146,
-827,
1480,
317,
-2515,
-2091,
860,
-560,
-1934,
997,
-799,
-714,
-387,
-1233,
-2623,
640,
374,
297,
1664,
-777,
-2722,
-3594,
285,
2519,
-480,
427,
-658,
1103,
867,
1200,
1593,
3224,
-969,
-1443,
1573,
-1221,
640,
1874,
-2289,
316,
-1739,
-1016,
-73,
-1407,
3172,
-2198,
-1907,
-311,
-116,
-5,
108,
128,
-464,
-1392,
-2819,
1105,
706,
842,
1202,
1064,
2787,
676,
666,
-860,
600,
2172,
-3099,
-962,
-1125,
927,
3211,
-1640,
723,
-684,
515,
-384,
2085,
781,
-765,
-1667,
-3197,
-1752,
1502,
-1608,
-1090,
-777,
-1620,
1117,
-2437,
-567,
-734,
-2129,
1496,
-1479,
2604,
638,
-2172,
-1341,
-112,
670,
15,
1743,
1897,
326,
-1973,
6,
-202,
2265,
370,
-954,
978,
648,
815,
-1149,
-45,
501,
384,
214,
236,
-485,
3587,
-2817,
-2205,
-1031,
-164,
-460,
-2107,
-1337,
941,
-422,
903,
1393,
-1405,
-1548,
-2721,
-1256,
-1424,
332,
-456,
-1963,
-2620,
-1146,
209,
2539,
1642,
340,
1090,
2098,
-271,
-2557,
-4771,
-760,
-2053,
2464,
2211,
466,
3173,
-327,
-373,
-831,
695,
2185,
3538,
1139,
3831,
-284,
568,
226,
130,
-574,
-2281,
-1619,
-867,
-1991,
102,
-593,
-3711,
-1384,
657,
2597,
1485,
-11,
-196,
-1327,
-437,
341,
-134,
2504,
-2224,
-2931,
1340,
-910,
-582,
1629,
-199,
252,
-1443,
-505,
1517,
-433,
674,
124,
-1662,
-1141,
-2142,
674,
-162,
823,
-2242,
102,
711,
1039,
-876,
-274,
1245,
-1098,
-7,
-1449,
1974,
-26,
2292,
1384,
296,
-1853,
-2335,
-1348,
-866,
-1228,
-736,
150,
925,
-145,
-181,
182,
2950,
-1156,
207,
501,
5590,
6202,
3178,
-1769,
-110,
3434,
3345,
1768,
2963,
1983,
-2950,
-2421,
1227,
1127,
-879,
252,
-1268,
-1953,
-1158,
-3209,
-446,
830,
-107,
230,
-314,
-843,
-2413,
-976,
1219,
-1508,
592,
1394,
-1499,
-1553,
-1222,
-1266,
-1958,
-2358,
-1970,
-2142,
-1471,
-3160,
-1302,
-1002,
55,
-1449,
1154,
1187,
-170,
509,
-1095,
721,
-1186,
-838,
-1690,
-1969,
-696,
1055,
-1161,
-1397,
-536,
401,
1002,
1324,
1088,
-1481,
-82,
-901,
-753,
2023,
-1690,
-2040,
-2097,
1729,
1160,
1479,
-2399,
534,
-258,
3339,
-524,
-1168,
-1725,
-1044,
830,
-1746,
-650,
325,
1043,
-2653,
-137,
3324,
-511,
-1315,
-1904,
-991,
478,
-955,
-324,
1412,
-1341,
-3173,
-3183,
-1199,
-1390,
76,
-290,
1441,
-1466,
-2212,
-1314,
2315,
648,
-537,
-1322,
-189,
-1061,
-292,
2435,
-1023,
-633,
938,
840,
-1485,
978,
-1479,
679,
654,
1440,
1519,
621,
1211,
706,
2464,
1441,
702,
1511,
-202,
-1282,
-680,
-1784,
711,
-1714,
178,
-1106,
29,
3159,
1782,
1851,
-526,
-1075,
2754,
-1571,
-2113,
-621,
-805,
2389,
739,
738,
-1744,
3460,
624,
559,
987,
972,
428,
-1875,
-915,
552,
2403,
-95,
-1653,
399,
2494,
4193,
-88,
-874,
1205,
994,
-720,
440,
2168,
64,
-2377,
-3613,
2162,
1241,
-3463,
-2518,
-1584,
755,
-4918,
143,
-22,
77,
1247,
3500,
-638,
65,
198,
1806,
1869,
-1582,
-1432,
1504,
2020,
2471,
-1743,
-413,
-989,
-417,
1866,
733,
-50,
-1511,
-1350,
1153,
1090,
1859,
-1174,
557,
-1449,
1664,
-808,
-205,
2584,
2777,
559,
427,
-1857,
1012,
3227,
1508,
2604,
-78,
2473,
-1205,
934,
1113,
146,
916,
212,
-779,
-588,
133,
-418,
3214,
-1306,
512,
2058,
-20,
1877,
-54,
344,
1157,
624,
3031,
3196,
-2205,
582,
-310,
627,
1851,
-78,
-477,
-383,
248,
1355,
1297,
-1619,
-1323,
-1471,
254,
2011,
2444,
497,
-2417,
-397,
1528,
-1755,
607,
-1663,
-499,
-2312,
718,
3418,
2679,
-1095,
-2694,
-1329,
2027,
-2496,
-3886,
514,
694,
1442,
-1,
665,
-853,
-1299,
1311,
-647,
2206,
774,
-171,
1014,
-1987,
-3297,
-2542,
2745,
-1115,
-1609,
140,
272,
1591,
-139,
-1148,
345,
530,
-1383,
59,
-2633,
-1577,
1144,
-369,
-1766,
522,
202,
4304,
3804,
-615,
-505,
-2839,
-983,
1489,
145,
684,
-3014,
131,
-2564,
-646,
-1174,
-588,
126,
-2083,
-126,
954,
-2517,
-1211,
1161,
281,
66,
831,
3061,
-384,
-2823,
-2310,
776,
1430,
161,
-716,
664,
-1011,
-2006,
-942,
-826,
-2139,
178,
-1057,
-1458,
876,
1425,
58,
-1953,
-102,
-897,
1634,
-1466,
-95,
-1111,
1557,
-1013,
193,
1567,
1198,
-649,
-18,
-334,
-1048,
-1647,
-655,
-852,
-1554,
980,
-100,
-41,
-1292,
-3124,
-1475,
314,
-793,
-747,
-1428,
1010,
2103,
2384,
-1016,
-886,
-2024,
2447,
2252,
-820,
1972,
-185,
504,
-1067,
798,
3183,
336,
-1877,
-180,
-1874,
-2327,
914,
1125,
-549,
-3017,
-133,
4947,
2316,
-348,
203,
894,
1899,
648,
-96,
358,
339,
-1917,
-72,
-2647,
-771,
-1081,
1268,
1474,
-1723,
-1845,
-647,
1450,
3204,
455,
-1848,
748,
747,
1128,
-285,
1144,
-881,
663,
211,
-195,
-1735,
-1519,
-197,
1047,
1475,
1016,
-169,
-736,
1061,
-9,
-479,
-2259,
-412,
-162,
238,
-2299,
1138,
2221,
863,
-2296,
-2518,
-499,
-1498,
-284,
-360,
430,
1659,
-749,
-389,
1362,
-132,
-570,
1496,
1481,
20,
4389,
2765,
-550,
747,
-1593,
1356,
2494,
162,
-3005,
1624,
262,
-641,
-1597,
921,
1248,
-2509,
-1571,
-2008,
787,
759,
175,
-1170,
-3060,
-806,
495,
381,
2107,
661,
1153,
973,
1686,
-1455,
-1612,
-275,
-132,
-211,
-2200,
-2715,
-2473,
-1283,
-1923,
-1186,
1437,
1736,
-341,
-497,
2644,
2207,
1314,
2573,
-835,
-688,
189,
-183,
2317,
-397,
596,
1947,
797,
611,
-1385,
1133,
1650,
-998,
-620,
-1998,
-1059,
-1127,
-1015,
1542,
-426,
-1935,
-157,
38,
1100,
-481,
-3506,
-1733,
-2697,
1736,
-632,
883,
4519,
3133,
-3165,
-1548,
706,
3964,
2044,
-3143,
1787,
3843,
2469,
-2108,
1127,
-1445,
-2787,
-1140,
-2032,
2951,
-1094,
2148,
-890,
897,
1826,
-3711,
-675,
-1333,
-350,
-817,
-1270,
1110,
1852,
-204,
66,
2275,
350,
-1771,
2847,
339,
511,
-3682,
-2214,
-1076,
1058,
3480,
-575,
-1766,
-1681,
973,
-152,
-2962,
-2256,
-1016,
516,
80,
-76,
-502,
348,
-946,
-1198,
1117,
-673,
-1398,
-1593,
309,
-1989,
-690,
-267,
1011,
654,
-2055,
167,
-2245,
-604,
-2788,
-865,
-829,
566,
395,
1343,
1342,
1220,
2424,
1688,
1267,
2325,
-586,
-364,
1549,
-452,
-1619,
-600,
-193,
-873,
3307,
2447,
1473,
-1196,
365,
1794,
-1970,
-1100,
-3152,
1462,
-1141,
-2304,
-931,
716,
-193,
-2687,
1607,
2419,
3256,
-1037,
-543,
1138,
-1558,
-1885,
1468,
1880,
2031,
2157,
59,
-483,
-1619,
1981,
836,
3072,
357,
1876,
1991,
377,
-1957,
-1519,
-110,
1576,
-2270,
-2553,
-427,
-3792,
-3937,
-1241,
150,
-1289,
2274,
920,
4137,
1760,
-2057,
-3011,
-1912,
-219,
-2167,
-1834,
-3250,
610,
-643,
-1709,
-2278,
-4189,
-2713,
997,
-223,
591,
-114,
3076,
1839,
-19,
1583,
757,
1459,
-426,
-2651,
315,
-2302,
-941,
-435,
-1021,
-2732,
-1207,
-546,
-1409,
-968,
2292,
-159,
-1337,
1134,
670,
275,
-2224,
-1803,
-743,
643,
1081,
-302,
-134,
-1111,
-1555,
-1988,
-1906,
6,
770,
-1090,
1379,
-514,
-513,
-1216,
289,
-838,
-594,
290,
-963,
1284,
657,
-920,
-326,
-610,
-122,
-2962,
-3351,
-1587,
2692,
1784,
-1986,
1524,
3361,
1866,
950,
4711,
1569,
-197,
-739,
-307,
-1348,
-984,
160,
854,
-371,
42,
-3415,
340,
-1604,
-480,
1874,
535,
-3002,
-404,
-611,
-1299,
-2985,
2311,
261,
1,
-1123,
-907,
1671,
427,
-1815,
150,
-529,
-2593,
-2017,
-144,
-583,
295,
1330,
-195,
161,
-326,
36,
1062,
-1743,
-758,
-2001,
-1510,
-267,
740,
-167,
-1902,
112,
-457,
-1208,
1314,
1302,
1515,
-1421,
25,
701,
325,
-451,
325,
362,
-1171,
62,
-1074,
538,
2660,
1579,
-1029,
-2914,
-244,
789,
-2581,
-1071,
2750,
-194,
-1237,
-1388,
-1988,
-2138,
-1432,
-1053,
-1108,
2080,
1857,
1365,
1457,
619,
-41,
-295,
-2516,
-2305,
-1485,
-1478,
170,
-2974,
622,
596,
31,
-1131,
-1910,
2087,
553,
591,
-1233,
2255,
588,
990,
802,
468,
532,
-227,
180,
-132,
-893,
294,
-1554,
1358,
128,
933,
-2429,
-761,
-1556,
1302,
-2387,
-317,
1300,
221,
-1338,
-229,
607,
571,
-25,
561,
-1904,
-1254,
-1771,
-640,
-1228,
-2857,
-528,
-555,
-2803,
3190,
-2453,
427,
-1941,
-1807,
1128,
-1415,
1482,
-1666,
-1612,
769,
1282,
754,
-1283,
126,
-335,
212,
-383,
1743,
595,
1091,
3575,
3083,
1992,
-762,
2563,
-3454,
-361,
1160,
-791,
-2447,
-3884,
3931,
1154,
-3100,
577,
-1157,
-3490,
-2148,
-318,
2714,
238,
-1512,
1072,
-827,
-1279,
177,
-646,
-168,
237,
32,
-2291,
-3554,
-1538,
3147,
-1012,
1410,
-2977,
-1728,
2253,
-894,
2070,
157,
567,
1312,
943,
-12,
1878,
921,
969,
-441,
-2879,
-2269,
-897,
-476,
1115,
-3237,
-477,
866,
864,
1240,
-1953,
3739,
-102,
-96,
-2446,
-2282,
251,
-908,
-1185,
393,
-660,
-52,
1777,
1304,
-263,
-1094,
-1941,
-2929,
-393,
-525,
-872,
510,
-2205,
726,
-1556,
233,
2004,
-1317,
-1175,
24,
844,
797,
-590,
-76,
1692,
-709,
-780,
91,
-1481,
671,
-375,
69,
-902,
292,
-192,
1381,
-447,
604,
-1265,
-72,
-1493,
808,
2421,
2670,
-2849,
-3150,
4359,
39,
-9,
-689,
-1472,
36,
-1972,
2109,
873,
-177,
-1280,
1,
1304,
-1077,
-95,
-1533,
1094,
1933,
119,
607,
-1878,
416,
-2157,
-1192,
-809,
1521,
46,
-65,
-704,
-248,
-106,
224,
-1361,
-1442,
-1435,
-490,
67,
366,
-612,
-818,
-1338,
-741,
-1438,
96,
1571,
2046,
356,
-1247,
553,
611,
646,
-29,
-815,
-118,
-80,
964,
-561,
295,
-1022,
-1027,
865,
864,
-638,
-899,
-580,
751,
-1072,
-862,
-208,
1623,
-113,
-1546,
-1125,
-697,
-1675,
-924,
-844,
-648,
-692,
-958,
37,
-490,
99,
913,
-1198,
366,
1516,
-1068,
1232,
-1313,
-995,
-608,
369,
1414,
962,
-579,
1129,
1519,
1180,
-901,
270,
1442,
-177,
475,
1556,
-80,
59,
-881,
-1327,
376,
-1158,
-1565,
1442,
1266,
269,
1126,
-345,
-165,
-119,
-1515,
-1439,
-420,
1141,
376,
214,
235,
-674,
-657,
529,
-1208,
-1129,
-1074,
718,
-349,
20,
465,
258,
-510,
378,
-231,
249,
-1300,
-254,
1162,
1278,
-416,
624,
1070,
-1875,
-2178,
1139,
-159,
-664,
398,
848,
-759,
-496,
-1116,
370,
-1157,
-708,
171,
-1230,
-1280,
-701,
-428,
-535,
296,
-1171,
-1011,
1323,
459,
-1023,
957,
510,
-452,
385,
589,
1225,
1405,
-806,
755,
1109,
-1390,
907,
-415,
-1234,
1531,
1498,
1570,
-1259,
981,
650,
-477,
-782,
1143,
314,
1118,
1810,
1565,
524,
-1296,
-702,
-1487,
1862,
1752,
-731,
-443,
319,
1830,
1426,
897,
1842,
819,
-1508,
-91,
-1378,
1328,
-364,
1167,
-165,
-952,
-683,
-1665,
-719,
817,
-1474,
1382,
-336,
1127,
188,
1157,
-1173,
-992,
-409,
-1608,
-1065,
-560,
113,
-652,
-1171,
-278,
1368,
-1385,
-829,
280,
1136,
-1459,
310,
725,
-956,
-1829,
-703,
-678,
-80,
1657,
-503,
11,
1157,
1488,
-1042,
663,
-250,
-1289,
-1323,
-1580,
-1407,
186,
1700,
-594,
578,
991,
-1457,
1102,
-1876,
-233,
100,
887,
1204,
519,
1452,
397,
813,
1047,
-1637,
-1136,
2887,
-159,
-865,
-245,
-334,
-980,
-1648,
404,
320,
914,
880,
4,
-1414,
481,
-1014,
213,
-231,
151,
-2139,
-727,
-1353,
-1049,
1233,
-531,
629,
1308,
-367,
-158,
-601,
-229,
-514,
1202,
5,
-441,
112,
637,
-107,
657,
1374,
1390,
1214,
-940,
887,
839,
-1134,
-78,
-751,
-1690,
-271,
890,
329,
20,
1065,
-274,
-212,
1340,
-1581,
-1559,
-1594,
-1264,
-1006,
1128,
784,
668,
-1913,
-1761,
367,
503,
-369,
548,
1508,
-166,
-225,
-710,
535,
-72,
659,
-671,
-466,
-471,
71,
-3,
553,
524,
-2040,
479,
-1167,
710,
-269,
764,
2011,
1577,
1156,
-272,
1866,
866,
594,
-867,
703,
-478,
-732,
826,
1140,
-441,
1504,
-92,
1033,
-122,
1914,
-689,
-1256,
-1470,
-1452,
44,
307,
458,
-663,
2010,
1435,
418,
1075,
738,
1889,
3960,
-49,
2088,
4009,
-173,
970,
-1938,
2314,
1415,
955,
4039,
1201,
2630,
-1584,
286,
1999,
1594,
1781,
-4249,
2628,
1392,
-773,
-2270,
-5204,
1543,
-1089,
-774,
-1537,
640,
-1040,
-3237,
-449,
1761,
-2173,
6128,
2395,
1370,
1201,
-429,
4564,
794,
632,
-230,
1430,
405,
-2303,
-1598,
-1502,
-73,
1229,
-306,
-1660,
-2013,
1074,
326,
-631,
-1545,
-67,
610,
-3100,
-792,
-1450,
-383,
-745,
1126,
-928,
519,
-602,
1384,
3084,
3948,
-274,
-417,
766,
-1345,
1544,
-301,
560,
-272,
-655,
-622,
1761,
-741,
637,
161,
1004,
-670,
-1845,
-1273,
2101,
-786,
1041,
1124,
274,
1,
479,
-2461,
2029,
1463,
3439,
-908,
-2373,
-3317,
-296,
847,
-2301,
-1236,
1396,
-592,
4302,
144,
1115,
2756,
-704,
4351,
142,
-2488,
-605,
-205,
2116,
578,
-5032,
-55,
1741,
-829,
-3448,
-2098,
-1768,
-1628,
-3248,
-2195,
2162,
541,
1636,
-2222,
2505,
1189,
1560,
826,
4189,
3099,
1856,
251,
-1378,
4169,
1592,
1234,
1192,
1634,
814,
601,
-943,
360,
1742,
2081,
-1161,
1016,
941,
1039,
2883,
1321,
543,
1045,
-2495,
1266,
973,
915,
2609,
873,
-1131,
-3393,
957,
2158,
663,
-1167,
468,
2250,
1005,
-305,
1112,
1874,
3245,
1788,
865,
-793,
2844,
4617,
-2637,
-2104,
3446,
1668,
1428,
-2599,
-1767,
464,
2520,
-536,
334,
-621,
1285,
-1429,
-1504,
-63,
1989,
-1131,
681,
-974,
-375,
-491,
-2000,
-455,
-2956,
-3354,
-1359,
-506,
-3282,
3675,
1071,
1671,
-19,
-461,
3544,
3053,
-636,
1232,
203,
1049,
617,
868,
381,
780,
467,
682,
1147,
-1597,
-717,
1900,
325,
1217,
133,
-1529,
413,
1121,
-1823,
331,
-1425,
-1572,
393,
402,
-181,
1810,
2817,
-1375,
-1508,
465,
-2455,
1761,
-2136,
-1234,
-2770,
519,
1678,
-1215,
1305,
-4302,
-2902,
749,
-347,
1388,
39,
-1191,
-255,
-604,
2315,
-614,
1786,
-1117,
-966,
780,
424,
-1517,
-3051,
-1304,
123,
-3821,
-2555,
-2581,
1542,
1807,
1218,
-871,
493,
1196,
-1435,
1901,
3893,
1273,
716,
-1442,
408,
-990,
726,
819,
1864,
1286,
2572,
109,
-1519,
-987,
1604,
732,
806,
-1056,
1185,
-705,
-3602,
43,
1420,
60,
-3415,
-2188,
3709,
2347,
-837,
-291,
373,
-1178,
-633,
-2302,
1705,
2372,
1547,
1451,
-2610,
780,
15,
1102,
230,
2356,
-1866,
-352,
-1149,
2648,
390,
-2550,
-1660,
915,
351,
2730,
1139,
1482,
3234,
-750,
-974,
-608,
3798,
-744,
-3739,
-809,
-3338,
-261,
-2190,
2583,
192,
-4690,
-3922,
1433,
2097,
785,
-2795,
356,
2708,
1787,
487,
-1491,
-1349,
-1509,
323,
2652,
588,
-223,
-754,
1834,
1158,
1538,
-919,
-2003,
-1008,
-3346,
-2528,
-4546,
-2853,
888,
-2478,
-3109,
44,
1591,
1915,
-973,
1076,
2288,
2449,
1391,
-1446,
-730,
-504,
1537,
825,
2561,
2328,
1952,
-1001,
521,
3179,
681,
-2387,
-2895,
-1674,
180,
-720,
891,
553,
-1591,
-1034,
466,
-343,
225,
68,
253,
-119,
1415,
2456,
208,
703,
-870,
-961,
1986,
-1805,
-1251,
-1275,
-2085,
495,
1469,
-967,
-1797,
-1411,
162,
104,
-474,
-221,
-307,
-108,
130,
50,
-968,
-166,
2318,
2551,
1743,
1581,
1530,
494,
-1067,
-1489,
803,
1221,
-859,
190,
103,
-214,
184,
-845,
1478,
1590,
-1079,
-604,
1073,
-1147,
434,
-973,
98,
-14,
-747,
-792,
506,
-142,
-338,
1371,
325,
-1550,
-1288,
-412,
360,
1128,
-1607,
583,
-1508,
-1703,
-999,
523,
1899,
1942,
-63,
-450,
-89,
-1373,
1844,
-547,
-1961,
-1677,
-1705,
-670,
-2486,
359,
-2159,
-1971,
-3154,
-1081,
-1301,
-402,
-1394,
-2266,
-485,
-489,
-393,
1130,
-63,
-523,
2215,
-6,
-240,
3503,
711,
-405,
-1435,
-337,
-1667,
-1879,
1252,
405,
1451,
-1346,
1597,
1120,
-1332,
-635,
-1428,
-1297,
739,
648,
1365,
325,
646,
1303,
-1088,
825,
15,
-705,
-699,
1568,
1551,
1393,
-1260,
372,
561,
806,
1737,
566,
498,
956,
-1260,
938,
-198,
-1604,
1059,
243,
-1167,
-861,
-828,
349,
-477,
244,
1085,
1257,
405,
-1096,
-1241,
-1271,
-1014,
-982,
115,
566,
246,
722,
1016,
983,
910,
176,
1533,
666,
163,
-976,
904,
683,
-622,
-587,
-671,
-2761,
-1914,
-255,
1635,
1371,
-180,
-998,
978,
-288,
1044,
-419,
-1111,
-510,
1076,
1686,
-1721,
30,
-876,
-296,
352,
1516,
-261,
296,
1061,
302,
-849,
569,
-835,
60,
82,
748,
110,
1150,
674,
-1098,
2054,
-218,
-1189,
1015,
1665,
855,
996,
1857,
1217,
-17,
-1809,
-254,
201,
2922,
103,
-1156,
605,
127,
-485,
-743,
2447,
571,
640,
-891,
-852,
1584,
-1327,
-1699,
934,
-2030,
385,
-554,
-368,
-843,
-1221,
-462,
-192,
257,
-347,
667,
2362,
3029,
-185,
-510,
-797,
1187,
-1638,
-935,
950,
-914,
491,
1729,
-390,
-705,
1752,
902,
1767,
2034,
806,
-2512,
789,
-140,
167,
984,
-314,
120,
-1216,
806,
-643,
1099,
627,
1235,
1131,
-1148,
-779,
-1557,
-1445,
-1128,
-330,
37,
-808,
-1646,
-125,
382,
-521,
-115,
-342,
359,
1430,
-1844,
-943,
-2024,
-949,
289,
-3198,
-613,
-1827,
246,
317,
-577,
267,
-897,
-1749,
878,
138,
1251,
-118,
1582,
989,
279,
842,
711,
713,
-177,
-1919,
-218,
1638,
1758,
-1919,
558,
640,
-1523,
1185,
-644,
887,
895,
-700,
1066,
448,
-1219,
-835,
154,
300,
13,
1443,
-1484,
-1048,
1140,
-10,
-864,
-1773,
1115,
-1263,
2798,
10,
2112,
-446,
1150,
-763,
752,
848,
25,
-607,
2869,
136,
-624,
-1167,
-460,
80,
-307,
303,
-38,
-314,
665,
-935,
2680,
-1346,
-2964,
-6405,
-3983,
-1483,
-1886,
-811,
3311,
3149,
982,
-557,
331,
923,
1389,
421,
-1790,
-1300,
380,
-3632,
-1831,
-367,
1150,
418,
2855,
1408,
-195,
1840,
672,
2882,
-199,
352,
-857,
1408,
687,
-2577,
250,
1433,
-784,
-3918,
-2445,
1178,
897,
-477,
-594,
-1081,
1502,
415,
2212,
3748,
-2287,
-1765,
-1377,
2101,
1401,
-344,
1915,
-2351,
-2695,
966,
-1068,
-1561,
-875,
452,
1440,
-152,
1125,
215,
-1172,
-1569,
-1267,
856,
757,
-1196,
-812,
163,
-289,
417,
-97,
-856,
-133,
575,
1134,
2354,
2508,
-436,
1924,
995,
547,
2738,
1000,
1642,
-4285,
-836,
2935,
1208,
1683,
-5881,
-3425,
-483,
1480,
516,
-2863,
-3489,
1326,
858,
296,
3307,
2302,
1190,
498,
2042,
1890,
3017,
1587,
1747,
2186,
-1101,
287,
319,
1725,
-1506,
-1030,
360,
2737,
-1969,
385,
-126,
-989,
1483,
1066,
-134,
-3039,
-2244,
-2134,
-90,
295,
-2623,
-1405,
724,
52,
1751,
202,
-204,
1283,
1565,
-75,
122,
-494,
-797,
791,
-1501,
-1784,
1366,
-1160,
-1184,
702,
-901,
136,
-2,
-355,
-44,
-807,
1318,
932,
-155,
1383,
-1804,
-369,
-760,
-617,
-3146,
146,
-212,
650,
262,
-3341,
-1046,
-1241,
-429,
1759,
580,
1094,
825,
203,
-2059,
-628,
1335,
-765,
-818,
402,
-354,
-455,
1343,
3609,
-1378,
225,
2656,
3633,
5063,
-1408,
-877,
3228,
-357,
1483,
-1418,
651,
1015,
-1339,
-3390,
1264,
892,
-1268,
-101,
-348,
517,
1894,
1384,
939,
1705,
-1252,
-125,
502,
-103,
668,
133,
461,
341,
-352,
1614,
-1319,
-2000,
1059,
-523,
-3273,
-651,
1423,
1145,
2236,
3125,
568,
1228,
31,
-877,
331,
882,
919,
404,
3543,
2939,
1262,
813,
2231,
2982,
-363,
826,
120,
468,
41,
-889,
-1511,
-1119,
817,
-1931,
-3539,
-236,
-721,
388,
-1312,
-2864,
-1237,
-2453,
239,
2478,
1018,
-350,
-2070,
-565,
3027,
-23,
-1396,
1569,
-1155,
-1835,
1186,
-1674,
299,
-1246,
-1762,
-782,
-2696,
344,
-411,
765,
353,
1059,
-398,
-3818,
994,
2766,
1295,
-608,
1288,
-1591,
1277,
-662,
2211,
2313,
-3512,
-2144,
1209,
976,
-218,
-918,
-10,
1124,
1571,
246,
294,
731,
-109,
-1018,
-621,
192,
-2379,
2075,
-216,
3159,
-2302,
-1268,
273,
-10,
4680,
1863,
-1991,
440,
2312,
1581,
-830,
-3961,
-2150,
1798,
-3497,
-986,
-647,
-200,
-1051,
-566,
-334,
104,
507,
-1778,
675,
2503,
-384,
1692,
1537,
-445,
-155,
-1295,
2707,
640,
-1116,
-1048,
-3616,
-976,
-104,
1489,
-12,
1415,
-1249,
-1385,
-893,
6,
2418,
-1106,
-1311,
2268,
541,
-3192,
-74,
-2349,
-203,
-1042,
1606,
1037,
2626,
746,
543,
-1139,
1291,
2156,
-109,
-1132,
-1197,
2248,
2178,
840,
-1174,
-218,
-201,
-1304,
-665,
-2834,
-2148,
-752,
-299,
571,
-1266,
1067,
-456,
94,
352,
1008,
-516,
-1587,
1400,
945,
542,
788,
-1,
-36,
912,
-1057,
-1054,
-854,
-521,
-1807,
85,
-364,
1046,
1189,
-534,
1602,
193,
-1642,
-776,
-470,
-942,
1242,
315,
1800,
60,
-97,
841,
-318,
-989,
1996,
-601,
-1094,
1273,
-28,
-981,
62,
1191,
-590,
-700,
1101,
-258,
1160,
-443,
-1314,
270,
-890,
-358,
222,
-299,
-1379,
-1440,
-1118,
381,
270,
-1044,
-1223,
-432,
1057,
-415,
23,
813,
622,
842,
701,
-735,
288,
345,
183,
1373,
-208,
490,
-568,
-937,
-442,
378,
160,
356,
-1044,
-1259,
57,
-1498,
949,
-532,
522,
-2511,
-861,
-350,
-1703,
1300,
1267,
-812,
-3226,
-1438,
-263,
859,
1,
-1490,
-1601,
-983,
-1569,
1278,
1711,
69,
1178,
1358,
-137,
-785,
583,
-724,
-1147,
-1222,
-1262,
-748,
-392,
-814,
-386,
-922,
1126,
-1210,
-520,
-1204,
-975,
-471,
-41,
-569,
138,
1453,
498,
-851,
709,
544,
-888,
1405,
1572,
1317,
-901,
-1469,
-1179,
-582,
-448,
-1070,
-1814,
647,
510,
-1326,
465,
-1164,
-1313,
1698,
1301,
-647,
967,
1339,
222,
-418,
1051,
-594,
-1286,
-803,
-257,
-424,
-906,
-485,
-789,
1154,
474,
1269,
-315,
-2036,
-914,
-593,
-791,
856,
-1259,
513,
859,
1631,
173,
1341,
148,
1434,
2367,
-943,
-152,
389,
2744,
2190,
-863,
-58,
-781,
-1951,
-735,
-915,
494,
917,
-1458,
249,
-82,
-1603,
1160,
-347,
1560,
225,
399,
1511,
-839,
1106,
755,
464,
968,
-1358,
-445,
353,
1356,
674,
1079,
-1167,
-1342,
-68,
173,
70,
1151,
408,
-1168,
-1439,
-82,
-556,
845,
558,
-1039,
652,
-1653,
1587,
-1130,
1179,
364,
-47,
-1766,
-1230,
381,
-1438,
-2419,
1108,
-1408,
-941,
-1855,
-683,
-778,
1693,
-11,
-1231,
2308,
698,
-1311,
-372,
1442,
-965,
1363,
-20,
1465,
739,
440,
-164,
-601,
302,
-257,
567,
-690,
617,
-1704,
-486,
-1544,
-1382,
268,
199,
925,
-1578,
-244,
-1110,
1256,
1346,
722,
997,
-1483,
-396,
849,
1057,
456,
965,
-784,
-2153,
764,
-1314,
203,
-396,
-362,
-326,
682,
-362,
637,
-1061,
788,
-143,
-1303,
-1658,
-1708,
768,
-413,
-714,
587,
-310,
-1608,
1133,
489,
410,
-697,
-775,
-1425,
208,
-60,
-2084,
865,
811,
-1068,
-138,
-1378,
-967,
563,
275,
974,
-1349,
-1257,
-58,
-123,
873,
-1483,
256,
-2006,
1295,
-323,
-16,
1001,
-1573,
-1184,
324,
-695,
1453,
1665,
459,
-541,
1550,
-75,
-431,
613,
-1033,
-803,
716,
-614,
44,
-1428,
1239,
-381,
812,
-964,
1812,
-1810,
-1174,
761,
1770,
-1188,
-1745,
-1055,
-1240,
224;
