memory_initialization_radix=10;
memory_initialization_vector=
1885,
-4701,
195,
25,
591,
2624,
1712,
-5241,
-3078,
431,
-2201,
4336,
-2923,
3412,
1293,
842,
-1826,
2737,
2342,
-390,
-212,
-799,
-4595,
-19,
-3296,
553,
-660,
-1311,
-2109,
-3891,
1879,
-3366,
688,
-3140,
2547,
-3434,
310,
3808,
-3199,
655,
-1646,
5446,
2415,
1120,
6685,
3874,
-498,
-3474,
2057,
3692,
-2267,
964,
6323,
960,
1218,
-900,
7303,
2269,
-1952,
1434,
2796,
-4799,
87,
-2684,
2571,
2104,
46,
817,
-272,
970,
-667,
-1881,
2070,
-512,
-1594,
251,
55,
-810,
1847,
112,
4785,
-1254,
-884,
-2419,
71,
-2101,
-192,
445,
1510,
-2123,
-987,
3886,
4933,
-842,
-901,
-3045,
-3752,
-2186,
981,
-298,
-3573,
-2908,
-62,
3576,
-2915,
-1049,
2106,
-118,
1407,
-2782,
2327,
4262,
363,
2367,
480,
2193,
631,
-532,
2756,
2316,
889,
1325,
958,
-1080,
-1477,
-851,
-5,
3652,
-2065,
1468,
2250,
-1439,
1992,
265,
1415,
-2447,
-538,
-1551,
-220,
746,
-1331,
638,
-3491,
1944,
2616,
-1324,
-2298,
3117,
1005,
3196,
-3171,
2518,
-240,
-2501,
-2190,
2238,
-376,
-2739,
1740,
2997,
555,
6562,
1075,
-390,
4485,
-838,
-2049,
-2028,
-1375,
-289,
2049,
853,
1799,
-1746,
-3414,
2573,
1399,
-3155,
-7306,
874,
-614,
-3496,
2146,
1166,
-2185,
2676,
577,
-3734,
-1306,
-6113,
-2324,
2690,
-3016,
4,
-370,
3362,
-2747,
4359,
907,
-2606,
-971,
-135,
-1500,
-1056,
2086,
1046,
-664,
-2728,
2653,
-3970,
-867,
2083,
3004,
1129,
2147,
2879,
1372,
-2242,
-1055,
3549,
-2223,
-1882,
-5866,
-3167,
800,
1933,
-3872,
1187,
2629,
-3653,
2623,
2671,
-1610,
5079,
-274,
-2417,
541,
2290,
2407,
-765,
1707,
-2769,
-2573,
-928,
-839,
-1349,
-1459,
1178,
2930,
-1537,
-552,
-2488,
2127,
-2806,
-540,
-2645,
2258,
-390,
1122,
-396,
1774,
2147,
-139,
1124,
-901,
1243,
-1551,
-1538,
-1609,
2565,
1427,
-2255,
1929,
2546,
-2868,
90,
-1263,
1994,
-2002,
960,
870,
126,
2293,
-2581,
-1684,
2246,
1757,
-943,
822,
2207,
12,
1372,
-1836,
-320,
2227,
-1120,
3190,
-867,
-2679,
450,
-1759,
977,
2040,
2355,
-2376,
-2175,
-1743,
647,
2893,
-1544,
2860,
-277,
-1539,
397,
-2755,
-218,
-1490,
-2888,
815,
2184,
-1252,
957,
-2836,
-1673,
-1011,
-2954,
943,
-58,
997,
18,
-1580,
780,
543,
2469,
2072,
-2655,
2423,
-43,
187,
-1138,
2522,
2521,
-1872,
-2852,
1765,
-77,
1722,
1841,
1080,
-2827,
-1147,
972,
1842,
1831,
-2809,
-1642,
-2222,
2731,
2876,
-552,
-7760,
3060,
3845,
2319,
607,
4085,
-3680,
-4729,
-3209,
-3117,
2873,
-848,
3978,
-1852,
-840,
7692,
-4262,
-197,
5547,
-3720,
1212,
295,
3871,
-1673,
1738,
-488,
3442,
5482,
1559,
7572,
1712,
-4219,
-2768,
-4774,
920,
-1445,
1214,
-1637,
28,
2845,
795,
-1550,
-3965,
987,
-3329,
-1029,
-1820,
-964,
1059,
3448,
860,
-3890,
1113,
-742,
-371,
288,
3545,
1977,
1272,
-1473,
3187,
-3186,
-2593,
5903,
-140,
4309,
346,
2075,
1379,
-8069,
1989,
118,
2914,
-3771,
-4477,
-4181,
465,
-8234,
-2126,
-4908,
3686,
-125,
3537,
-942,
5543,
3020,
-1892,
1642,
-5580,
3457,
-1243,
-3205,
-179,
6843,
2473,
29,
-2004,
1130,
-1327,
786,
4057,
-3303,
-1723,
4820,
129,
442,
337,
5455,
-2207,
613,
965,
-2653,
5516,
-913,
399,
-580,
1343,
3046,
1478,
2871,
4645,
-856,
-702,
2737,
-1839,
-2725,
-2488,
-2265,
-2080,
-464,
-2290,
-1207,
-2698,
5061,
3027,
-878,
2039,
-2894,
73,
-1215,
905,
-275,
-622,
3431,
4108,
1191,
-2121,
-2608,
-579,
-2133,
1088,
655,
-2464,
512,
795,
-2159,
-1754,
-69,
-2283,
-1867,
-1168,
-3141,
3316,
-555,
-760,
-1133,
1699,
2291,
-1704,
-2415,
763,
-2601,
-1225,
2555,
-462,
-129,
2561,
-2057,
1435,
-2280,
1296,
2540,
-989,
-2316,
1376,
-1267,
-960,
-2403,
14,
5371,
-651,
-720,
-494,
3016,
962,
-2334,
2855,
4927,
178,
-1482,
2080,
1616,
2994,
3199,
3192,
2933,
96,
1232,
892,
81,
-1728,
411,
-1736,
1707,
-498,
3477,
-2083,
-1690,
581,
2453,
-514,
-711,
-2907,
-1244,
1072,
-2883,
1496,
-2694,
1115,
2428,
-1757,
-2045,
-3526,
-771,
-665,
-2869,
-3202,
1288,
278,
-2030,
-561,
1599,
2128,
-489,
1681,
-447,
1053,
1012,
-4558,
-3369,
3040,
242,
2034,
190,
-1284,
-1668,
-352,
-318,
1950,
-3724,
-239,
-1657,
3670,
1932,
1299,
-180,
1633,
4308,
805,
-973,
-1015,
1837,
65,
1108,
-4010,
-377,
386,
-402,
-419,
4193,
1060,
-3480,
1203,
-2485,
644,
-3237,
381,
-2843,
1811,
2088,
-310,
-1199,
-3963,
-1694,
-3581,
43,
3086,
-2088,
2840,
-2650,
1252,
-3084,
-1493,
3639,
-3245,
-3438,
-648,
-2779,
-3550,
-1028,
-1801,
2281,
-3613,
-1185,
-482,
2830,
-1166,
-2713,
3056,
2640,
-229,
-862,
3325,
1196,
3021,
-1422,
-1394,
-3336,
4501,
3047,
1829,
-2615,
-3145,
-387,
4584,
4057,
-4044,
2734,
1753,
990,
559,
-2326,
-1843,
1998,
29,
-3646,
1915,
-3122,
-2478,
-3293,
126,
6375,
-752,
2066,
-1362,
787,
-1365,
2681,
507,
3634,
1403,
-2495,
107,
-1703,
-931,
74,
583,
1615,
-556,
-2605,
-2537,
4574,
-1266,
2679,
-2055,
-436,
-1442,
458,
-3115,
1780,
2464,
-2589,
481,
-2725,
-3749,
1632,
-983,
182,
-165,
2089,
-840,
-4165,
380,
3427,
894,
1234,
-2040,
-2518,
5016,
-4074,
1982,
125,
-4151,
-470,
-1553,
708,
-3546,
2805,
-2737,
-779,
2373,
1508,
2942,
-2461,
-1312,
-315,
3018,
3450,
-575,
1839,
2869,
2243,
-1317,
1129,
-1167,
-3042,
-78,
-1405,
-206,
1978,
839,
1273,
2165,
405,
2228,
2876,
-1930,
995,
-2721,
1385,
-2863,
371,
1373,
833,
-2270,
-1337,
-3511,
-395,
4372,
627,
-324,
531,
2513,
-1318,
-236,
-2839,
1006,
627,
-1390,
-29,
-147,
-1916,
-1744,
2332,
-2253,
3336,
4154,
-2881,
-444,
3314,
25,
-1092,
3569,
-2468,
-2204,
1911,
-993,
153,
2661,
1522,
878,
3134,
-2230,
4059,
1485,
3669,
-124,
3215,
-2957,
3652,
-1099,
228,
-3987,
-3037,
-3261,
-1864,
1301,
-401,
-4751,
-533,
-350,
-1033,
151,
-317,
-1831,
-2564,
-1026,
-2816,
-1038,
4761,
-2360,
841,
771,
531,
-2290,
-1582,
-3358,
-1309,
1885,
1326,
-3012,
4320,
-2913,
-2163,
-879,
527,
787,
374,
2310,
3198,
-1604,
-2087,
-2514,
1214,
-1920,
1840,
-3381,
834,
-282,
7071,
-3078,
-488,
4241,
-1089,
2836,
5156,
3265,
-357,
2086,
1531,
465,
2424,
3608,
-2478,
1465,
20,
-1701,
780,
-3898,
3521,
-799,
2036,
-3709,
-355,
-905,
2650,
3019,
2036,
-169,
-1453,
-2707,
2882,
-2726,
-1491,
749,
-1220,
-2309,
-4071,
1775,
9,
-447,
-2373,
-999,
298,
-3212,
5585,
864,
-833,
-2114,
796,
-1859,
-6152,
1940,
4080,
-262,
958,
3966,
-2884,
1437,
3700,
2570,
370,
-968,
-4023,
-4975,
635,
858,
-3122,
-622,
8330,
870,
-535,
3233,
4660,
1355,
1887,
827,
-3085,
2237,
-3479,
-1681,
-3003,
-2457,
557,
-2510,
472,
-4371,
-2732,
-2428,
-9171,
3012,
-3867,
-3765,
-1618,
-2178,
-1492,
1428,
2046,
2659,
2537,
4043,
618,
139,
1458,
1233,
1188,
-2910,
-3930,
1448,
249,
522,
3666,
5906,
3121,
222,
-1776,
101,
176,
3957,
-5296,
2795,
-1268,
-328,
3535,
136,
497,
-2759,
931,
2194,
-6658,
4598,
514,
2458,
-516,
4932,
624,
3944,
-3383,
3341,
-512,
5999,
-363,
1042,
-3653,
-3460,
-4657,
-1566,
869,
833,
943,
1554,
2838,
5044,
1437,
-2404,
-5464,
2336,
-291,
-1763,
-6856,
678,
1884,
566,
-326,
193,
2022,
-6069,
495,
-2086,
3066,
-1788,
3080,
1436,
2013,
500,
-894,
1539,
1819,
-2784,
-1091,
-182,
-1259,
-3145,
-1261,
-828,
5203,
771,
-3337,
4948,
6043,
-1646,
2309,
-1582,
753,
1478,
511,
-52,
2730,
3545,
-938,
-170,
-2617,
-3705,
4265,
2540,
2603,
2332,
-3359,
1924,
-1042,
-3181,
-1633,
1725,
2594,
-2505,
-1540,
928,
-1666,
-2604,
1313,
-3881,
399,
117,
-1919,
-953,
2551,
3647,
-3617,
-2424,
-926,
2073,
2534,
2960,
319,
-868,
-564,
-2393,
2845,
5165,
1364,
2903,
-852,
2048,
5007,
-2549,
-512,
3122,
3078,
-2490,
1828,
-153,
343,
3235,
245,
2366,
-2030,
-3668,
-1153,
2003,
3713,
991,
1450,
955,
-2666,
-2607,
-2178,
330,
5293,
-1535,
1524,
-1017,
1996,
2673,
714,
3820,
-3117,
-1098,
-132,
1718,
2846,
-617,
-1113,
4186,
1434,
-3548,
-2154,
1091,
2508,
-616,
1911,
-11,
2752,
-2497,
-1499,
3368,
233,
398,
-2224,
2294,
-2535,
-249,
-1153,
1269,
-3588,
-2276,
1567,
-555,
2553,
2096,
3026,
2435,
-1790,
822,
-1040,
-1436,
-2821,
873,
4,
-5170,
-1191,
-1769,
-1547,
1055,
595,
1616,
1946,
-617,
360,
-560,
2263,
589,
3077,
3552,
2704,
2468,
2171,
-4431,
244,
-1163,
1578,
1156,
341,
-4051,
-471,
-369,
635,
4669,
1605,
2882,
-2755,
593,
-2065,
2161,
-943,
-334,
-2151,
-3793,
-3969,
-895,
5681,
-2143,
-747,
5340,
1083,
-2975,
-1079,
3279,
1587,
1210,
1507,
2138,
-383,
2429,
1327,
-638,
2567,
-4080,
-2123,
-393,
-570,
135,
76,
-344,
-1307,
29,
3556,
1413,
1126,
-5273,
3357,
3056,
2859,
-586,
-1552,
855,
2817,
2900,
-3617,
505,
-1142,
-261,
-1588,
-700,
-763,
-821,
850,
2094,
2796,
641,
2718,
-1722,
-4932,
-985,
-3271,
1477,
3103,
2974,
-1197,
-1224,
-2457,
-368,
-1645,
2071,
1880,
1125,
1540,
-1722,
1205,
795,
929,
-220,
-2201,
4509,
-3511,
1679,
-4317,
4092,
2567,
-6432,
244,
1512,
470,
571,
1189,
6148,
-3396,
-2244,
-1107,
-821,
3263,
-4873,
1863,
2260,
-181,
-185,
1073,
1332,
-2879,
2154,
1869,
5408,
4208,
-2320,
-283,
-2808,
-283,
-1808,
-1394,
985,
505,
-2477,
1775,
579,
-2261,
-3993,
1091,
-2928,
-2111,
-5148,
7216,
-1428,
-292,
1378,
-1201,
-2946,
3026,
2377,
745,
323,
457,
973,
2469,
263,
-1622,
3293,
4522,
-5234,
2364,
-4116,
442,
1656,
-1067,
-1080,
-1281,
-1685,
4318,
-2463,
-709,
-2336,
-1968,
1801,
2743,
-1687,
-2981,
-50,
4055,
1807,
-980,
3025,
929,
-655,
-499,
88,
-5027,
1009,
6095,
2426,
-329,
-1675,
-1905,
-1996,
329,
2100,
-1291,
1155,
707,
2158,
-1755,
-1894,
40,
-1240,
4046,
4404,
-610,
1351,
-4704,
-2108,
-412,
1753,
3299,
3181,
2400,
4326,
432,
3027,
-4907,
-1442,
-1519,
-4537,
716,
-254,
2009,
1686,
-4954,
3742,
2391,
86,
2259,
-959,
2532,
-5642,
-2814,
2244,
-1283,
-5141,
2240,
1180,
-3983,
-63,
2563,
863,
4825,
-1344,
1369,
3653,
2376,
-1812,
-1646,
1959,
-3679,
1981,
-362,
1077,
2271,
-1975,
804,
3722,
-436,
-13,
-2107,
405,
1782,
-2293,
3487,
-2283,
893,
4048,
492,
2116,
-5133,
158,
1510,
-3979,
-3344,
-2441,
4474,
3704,
-1330,
-662,
-214,
-1649,
-1346,
-4007,
3973,
-2398,
-1916,
-2425,
-3239,
1604,
-4692,
-932,
392,
-1258,
160,
1050,
2155,
-1088,
3043,
2953,
4703,
-271,
1476,
-472,
-1445,
6284,
223,
-1817,
-3318,
2711,
-2068,
950,
4320,
-483,
2903,
356,
2301,
-3302,
2204,
2818,
105,
-1495,
-2673,
4375,
550,
2618,
2152,
1064,
3068,
-93,
336,
4417,
-1370,
5590,
-2374,
-720,
268,
-2433,
-2259,
13,
-3436,
-1942,
-1740,
5211,
695,
-1296,
240,
-3479,
4174,
2219,
6273,
2839,
1224,
-1823,
-1799,
-1151,
1761,
-5258,
-3731,
-199,
-4728,
-834,
2888,
-4803,
-1105,
-1562,
5899,
1131,
-1963,
79,
-4764,
-1309,
-4108,
-2836,
982,
-3809,
155,
-3439,
-2904,
2081,
503,
4224,
-3030,
-849,
-2203,
-1311,
513,
595,
-2213,
222,
-2640,
3491,
3318,
-779,
1858,
-1094,
2709,
219,
3765,
-2193,
-2745,
-848,
-2375,
-2046,
-987,
268,
4078,
-1108,
-4857,
3253,
5400,
1695,
-2114,
-1561,
-2567,
-3505,
4273,
-1125,
-692,
-337,
-2800,
2858,
2423,
-1139,
1177,
-764,
6331,
1697,
-1088,
-2417,
-211,
2163,
-1968,
6143,
-2883,
4871,
590,
-3022,
1723,
1198,
-6213,
-1423,
-4306,
-991,
496,
1767,
-3358,
-482,
-2248,
4457,
2768,
1964,
2216,
-140,
-1491,
-1969,
-2600,
2525,
213,
-2543,
2715,
-147,
604,
344,
2224,
948,
-1092,
1674,
-1171,
-2337,
-205,
-4374,
-152,
584,
3061,
3018,
4175,
-505,
1331,
1795,
-3173,
3542,
-1391,
-862,
-1947,
-903,
1722,
1109,
2481,
-2385,
1573,
1151,
-2305,
227,
-25,
-3596,
1100,
-4831,
4769,
415,
12,
-4352,
5315,
972,
532,
4160,
-2055,
1450,
1784,
2783,
1560,
-3178,
-3044,
-493,
-2156,
2536,
1406,
-4081,
1307,
-1975,
-179,
122,
-937,
-1746,
-2206,
-2941,
1616,
-284,
1085,
-1846,
-5004,
1751,
1220,
1690,
-1742,
-3721,
1469,
3818,
902,
-1111,
-1711,
4140,
-580,
3769,
-623,
3540,
462,
198,
758,
2526,
-706,
543,
-3074,
-4470,
-337,
-505,
1569,
-838,
-276,
-1249,
-1345,
901,
1557,
1721,
-2208,
3146,
-331,
-2360,
4330,
-1193,
486,
2731,
2668,
1393,
1334,
715,
-1589,
1290,
-1016,
1268,
929,
-279,
2941,
894,
-2553,
3185,
-931,
-1874,
523,
1774,
1413,
-2765,
3668,
-1356,
-1958,
-2551,
358,
3117,
-1746,
-1212,
-1663,
-1832,
3094,
1218,
-1277,
3311,
-2138,
1747,
-771,
-1344,
-2582,
1779,
-205,
2245,
1782,
2211,
1455,
3849,
-2520,
1419,
1003,
2481,
-1236,
-1172,
-2824,
2046,
-1073,
-1218,
2208,
-3465,
-1948,
-1655,
27,
-155,
-2862,
-1914,
-828,
-1326,
2965,
1677,
-828,
-2625,
-1628,
-72,
1435,
-1488,
3791,
-1808,
-1219,
1764,
1825,
-2286,
-106,
1092,
1445,
1886,
618,
-909,
3204,
-1457,
686,
2676,
1823,
-2669,
-1260,
274,
-3404,
-1354,
-314,
497,
-2480,
1960,
3121,
276,
3846,
-383,
521,
-4455,
-2294,
-682,
-1841,
3287,
3633,
-2261,
1837,
-1975,
-1665,
-826,
1575,
-161,
255,
1676,
-3557,
42,
3969,
3628,
-2337,
-2459,
2028,
-2477,
-2786,
2245,
630,
5735,
-645,
98,
1745,
3091,
4540,
-290,
-1144,
-1492,
4364,
1117,
-412,
-642,
-643,
959,
-46,
-20,
-251,
-4001,
313,
-883,
1465,
-2194,
-5628,
-1499,
-687,
-1860,
-735,
785,
-2450,
-1128,
841,
-2933,
-1601,
2754,
-1788,
-2220,
-4221,
-1186,
3342,
-42,
-3668,
1675,
2056,
-5784,
-3078,
-1615,
4121,
-577,
4056,
-3339,
797,
233,
1681,
-1702,
4757,
4542,
2988,
-2,
-451,
-301,
-673,
-220,
-1462,
-2085,
3162,
-4774,
3500,
-2300,
3280,
4105,
-3686,
-2763,
5307,
-5759,
-232,
-564,
-420,
1564,
-2543,
736,
-3079,
-1741,
-93,
891,
1489,
-1459,
2232,
-1081,
1827,
-2354,
4879,
-146,
1346,
-2980,
1248,
-1308,
495,
2251,
4186,
3026,
-1214,
1506,
-6393,
580,
1538,
-2820,
-781,
-989,
3158,
2022,
419,
639,
-5747,
550,
2163,
1086,
1495,
2859,
-1956,
3413,
-2519,
3578,
1619,
-1331,
-423,
-115,
-541,
-5454,
4540,
-2200,
-250,
-1184,
3019,
-777,
-1328,
1380,
297,
1299,
-3382,
-574,
2506,
2341,
105,
-946,
1244,
-638,
-4824,
2157,
-2770,
588,
-1706,
-973,
-489,
-1361,
-1902,
-1305,
-2960,
991,
-1969,
-2922,
3956,
1276,
-4128,
-209,
960,
-2073,
-1085,
1573,
3430,
-2733,
-1912,
2973,
3479,
-2475,
2904,
2347,
-2096,
67,
-2916,
-82,
4450,
-3956,
3523,
-248,
-5405,
3544,
1402,
-366,
1171,
-1242,
2216,
2163,
5649,
-692,
3153,
-2870,
1153,
-2629,
-1668,
-3863,
-4623,
6042,
-1812,
949,
-3822,
-1098,
-3820,
2383,
2520,
-6617,
1129,
-655,
1622,
-5121,
1253,
-2120,
-3707,
-1841,
-350,
2842,
-2550,
1665,
1877,
2216,
-2985,
1297,
-525,
-1972,
-2906,
1495,
1006,
-2765,
-3243,
2115,
-720,
2854,
-568,
-677,
-1285,
367,
1096,
571,
-623,
-2212,
-1627,
-2854,
1950,
-2730,
1943,
-343,
-2484,
2726,
-18,
-525,
3060,
-3111,
-1652,
317,
-2255,
1523,
-1775,
-1673,
-1544,
-1620,
3388,
2761,
644,
2254,
335,
868,
-2714,
2287,
-1365,
-397,
2470,
706,
1513,
515,
2364,
-1053,
1642,
-2285,
-1634,
-254,
-2178,
2267,
-3060,
767,
2626,
-798,
-2125,
1763,
-780,
-325,
1640,
1253,
-2241,
956,
-943,
3026,
471,
1605,
-523,
-1755,
2478,
-1476,
-1203,
1263,
1189,
2469,
-2858,
-3266,
-1103,
-2299,
-3390,
-2979,
372,
-670,
-2467,
3053,
732,
3488,
-965,
2206,
-1045,
-2509,
1668,
2847,
1143,
-3022,
-2846,
-201,
-2206,
1687,
305,
-2530,
-2532,
2121,
-483,
1236,
-3323,
-263,
-239,
1606,
-1003,
506,
1949,
576,
-1233,
-3159,
-1508,
-366,
-2184,
907,
2081,
1695,
428,
526,
2383,
-103,
-1131,
-2275,
252,
-585,
38,
-314,
604,
2448,
2594,
-1360,
654,
-2212,
-276,
-3451,
-2454,
-473,
2532,
2189,
-81,
-2609,
2220,
1006,
369,
3464,
238,
2170,
-912,
-2124,
-1496,
418,
-983,
3026,
-2230,
-2909,
-781,
2452,
274,
1114,
-1669,
-2524,
-822,
-66,
-546,
1718,
2108,
-338,
387,
112,
-1068,
1293,
3310,
1666,
-372,
1075,
2193,
-2742,
-3084,
-2270,
227,
2469,
2457,
-1568,
-214,
-1361,
2003,
-1244,
230,
-1204,
-2680,
-1655,
-2769,
2366,
-3105,
-700,
1633,
-495,
-2614,
1290,
1611,
519,
-3541,
1405,
-3158,
-379,
3637,
2835,
1600,
1901,
841,
-2914,
-2456,
1314,
-376,
860,
792,
-1484,
-959,
-1655,
1026,
-2700,
3942,
655,
-768,
-1852,
903,
83,
-2053,
-2696,
3074,
802,
1000,
2189,
-3836,
-2137,
668,
-3378,
-762,
2955,
-1717,
367,
2716,
-1749,
-3267,
-1158,
-814,
-383,
2766,
-375,
-881,
1233,
2605,
2148,
2750,
1458,
-3329,
883,
1542,
-2092,
4817,
-3119,
665,
424,
1488,
-2685,
3459,
-634,
3388,
316,
-2695,
1676,
818,
2163,
723,
-354,
-1098,
-4167,
1189,
-1644,
2554,
1961,
-967,
3175,
2518,
632,
-1002,
-810,
-541,
-922,
-583,
1615,
-737,
-519,
4421,
-3314,
1525,
-3600,
2993,
-1591,
1731,
2321,
1523,
1057,
-400,
-51,
-40,
-21,
-1127,
-2442,
920,
2008,
-4630,
685,
-1117,
2632,
-5205,
-688,
1879,
-834,
2956,
-192,
-3543,
-2219,
2023,
-1748,
1305,
1688,
2777,
-2300,
-1094,
392,
4954,
995,
-485,
2323,
-3007,
-291,
2551;
